#version: 0.2
Ġ Ġ
e n
e r
i n
ĠĠ t
ĠĠ d
c h
ĠĠ a
o n
ĠĠt h
e s
ĠĠ s
i s
ĠĠ w
u n
i t
a t
i e
o r
ĠĠth e
a n
r e
i ch
ĠĠ b
ĠĠ in
i on
a r
ĠĠ m
ĠĠ o
a l
ĠĠ f
t e
ĠĠ h
ĠĠ e
r o
l e
a s
ĠĠ n
g e
ĠĠ p
ĠĠa n
en t
ĠĠ c
ĠĠ un
ĠĠt o
u s
ĠĠo f
o m
ĠĠd er
ĠĠ v
ĠĠd ie
in g
ĠĠ S
un g
l l
u r
ĠĠb e
e d
ĠĠ A
ĠĠ I
ĠĠ E
ĠĠ M
ĠĠan d
ĠĠun d
i g
ĠĠ is
s t
ĠĠe in
i r
ĠĠ P
ĠĠ B
ĠĠ z
ĠĠ T
r a
u t
i c
ĠĠ D
i m
en ,
ĠĠ g
e m
t er
i d
e l
ĠĠ re
ĠĠ W
e t
e it
a m
ĠĠ F
om m
ich t
o l
ĠĠ K
en .
h r
u l
b er
i l
s ch
ĠĠ l
i es
ĠĠ R
v e
d er
ĠĠ C
u m
u f
at ion
t en
ĠĠ G
l ich
ĠĠ k
ĠĠ H
ĠĠth at
ĠĠw h
ü r
ĠĠf or
e in
is s
o t
ĠĠ on
ĠĠh a
en d
c t
ĠĠd en
ĠĠz u
ĠĠ V
ro p
l y
ĠĠT h
er e
is ch
ĠĠ ge
ĠĠs t
ĠĠd a
ĠĠa l
ĠĠ U
i er
ĠĠ im
d e
ĠĠw ir
or t
a ch
ĠĠ er
r es
ĠĠd as
omm iss
an d
u ch
a g
ĠĠv on
ĠĠw e
v er
f f
t ,
o s
o w
ĠĠ L
ĠĠv er
ommiss ion
i ll
u rop
c e
es t
ĠĠ it
ĠĠa uf
g en
ĠĠc on
a y
it h
ĠĠd ies
ĠĠs o
ĠĠth is
ĠĠf ür
a b
ĠĠa s
k t
ĠĠa re
ĠĠn e
f t
d en
ĠĠE urop
ĠĠw ith
es s
ĠĠn icht
ĠĠs e
ĠĠI n
us t
ĠĠU n
ĠĠd es
c k
ĠĠp ro
ĠĠal s
p p
ĠĠV er
ĠĠda ß
ĠĠS t
ĠĠ N
ĠĠ Z
ĠĠTh e
ĠĠ 1
ul d
ĠĠd e
at e
ĠĠn ot
i k
ĠĠis t
in d
o uld
ĠĠ j
s p
ĠĠ le
ĠĠR e
ĠĠm it
h er
a k
m ent
ĠĠha ve
t s
0 0
e ,
isch en
ĠĠw er
ĠĠein e
i al
ĠĠw ill
ä n
ĠĠ J
an n
ĠĠd em
ĠĠ es
u g
b en
i ve
ĠĠ y
ĠĠe x
ĠĠA n
ü ber
ĠĠwh ich
ĠĠ r
o p
ĠĠs h
a d
f or
s te
i v
ĠĠ i
s ,
ung en
it y
b e
un d
t .
id ent
i b
a h
w e
q u
m en
s .
n e
ĠĠs ich
ĠĠ -
an t
o ch
ĠĠa t
ĠĠC ommission
ĠĠ ich
a us
ĠĠa b
ĠĠh as
ĠĠv or
l ie
o ur
ĠĠb y
ĠĠB e
ĠĠw as
er n
ĠĠa uch
ĠĠ O
u b
ĠĠa ll
ie l
u p
ar l
ĠĠ über
a in
ĠĠh at
ĠĠs p
ar t
ĠĠ 2
te d
sch a
ĠĠc om
ĠĠm e
r an
am ent
ĠĠEurop e
er s
ĠĠD ie
is t
9 9
i en
ĠĠS ch
ĠĠs ch
r ä
ĠĠ um
al l
ĠĠa m
ĠĠa us
a hr
ĠĠK ommission
ĠĠP ro
or d
en s
ĠĠs ein
ĠĠw ie
u ß
er r
ĠĠh e
i f
en n
o d
l a
ĠĠW e
u re
ĠĠM r
t z
ig en
scha ft
ĠĠP arl
h t
ĠĠwir d
as s
o un
s s
e ct
ĠĠd o
ĠĠun s
ĠĠE r
as t
r u
h al
ĠĠs ie
ion s
ĠĠals o
ĠĠ res
p ort
r i
ro m
ar d
ĠĠEurope an
ĠĠF ra
an g
z e
ĠĠre g
u d
es ch
t h
ung s
it te
w er
et z
u e
o us
i ge
ĠĠH err
ĠĠE n
ĠĠs ind
h eit
ĠĠ or
h n
ĠĠcom p
ĠĠf rom
ĠĠn ach
ĠĠA us
ĠĠB er
ch t
ĠĠI ch
k eit
es e
ĠĠth ere
m e
ĠĠw ould
ĠĠa g
b eit
ĠĠp ol
l in
ĠĠs a
ĠĠz ur
isch e
ĠĠE in
ĠĠein er
ĠĠV or
c c
ĠĠ ch
ation al
ĠĠA r
ĠĠm an
t ro
ö r
ĠĠbe i
c ial
ĠĠUn ion
ĠĠ ent
ĠĠW ir
ĠĠbe en
ter n
o ll
ĠĠd ar
or e
ĠĠS ie
is e
ö n
i p
ĠĠs ag
o ut
ĠĠwer d
ä r
ur ch
m er
e ar
lich en
a at
a p
o u
ĠĠ (
i re
h e
a ge
ü n
h l
rä s
it ion
ar k
ĠĠun ter
ĠĠdas s
ĠĠwer den
ĠĠb ut
r it
h en
ĠĠP res
om e
ĠĠw or
der n
t w
o g
s e
er en
ident ,
ak e
ü hr
ĠĠa d
for m
ĠĠM it
ü ss
ĠĠw ar
ĠĠein en
ĠĠbe t
ch te
ic k
at es
ĠĠw ur
ĠĠsh ould
al ly
o st
ĠĠs te
em ber
g er
ĠĠm ö
ĠĠG e
ĠĠp er
ĠĠg o
o k
c on
in n
ĠĠ qu
u te
ĠĠa ber
m p
ĠĠd is
ab le
ĠĠa pp
o b
r ie
an z
ĠĠso ll
ĠĠy ou
ĠĠ en
e .
i z
ĠĠk ön
ĠĠI t
y ,
t her
ä ischen
ĠĠit s
an k
ĠĠg ro
ĠĠA b
ĠĠm ust
ĠĠD as
ra g
ĠĠo ur
ĠĠp art
ĠĠc an
ĠĠP räs
is h
end en
ul t
ĠĠf a
ĠĠ us
ĠĠm ore
ĠĠkön n
ĠĠ1 99
ct ion
le m
er t
ä t
ĠĠo b
ĠĠthe ir
ĠĠn och
ol le
a u
ĠĠwh o
ĠĠc omm
ĠĠd urch
ĠĠsp e
i ament
ĠĠf in
v el
g es
l ag
ĠĠein em
ĠĠParl ament
ra m
z u
ĠĠof f
a ck
ĠĠJ ahr
ĠĠex p
t r
ik e
ar y
ĠĠre port
00 0
a re
r at
te ,
ĠĠL e
ä hr
ĠĠRe g
d u
lich e
ĠĠdies e
us s
ĠĠ up
ĠĠa cc
r en
ĠĠm üss
es ,
er ,
l ic
re at
ĠĠne ed
ation s
ĠĠp e
ic e
ĠĠh is
os s
ĠĠUn ter
g an
ĠĠin c
ĠĠw enn
ĠĠn ur
p t
ĠĠTh is
ĠĠo ut
ug h
ig ht
ĠĠD er
ĠĠz w
ü ck
on s
res s
ĠĠy ear
ĠĠz um
ut ion
y ste
ĠĠsa id
on g
os e
ll en
end e
ĠĠBer icht
ĠĠp l
er m
ĠĠParl iament
ĠĠim p
ĠĠm ein
ĠĠthe y
id e
y .
ĠĠdies er
ĠĠk ann
l o
ĠĠE s
a uf
ĠĠt im
ĠĠb er
ĠĠm a
an ce
st en
h re
ge l
ĠĠt e
es .
o in
ĠĠD e
ĠĠl ike
ĠĠcon c
ĠĠp rop
yste m
ĠĠ 3
ĠĠS e
ĠĠab out
ge b
än d
ĠĠha ben
s icht
ĠĠme hr
ĠĠwur de
g lie
g ram
am p
g lich
ne h
ĠĠdies em
im m
ĠĠs ay
ig keit
ĠĠne w
et t
ĠĠmö chte
itte l
al t
ig n
o c
kt ion
ĠĠj ed
ĠĠg en
ic al
f en
w o
ĠĠon e
ĠĠs u
ĠĠE U
ĠĠh in
re ich
ĠĠb es
ĠĠk ein
ĠĠp re
ĠĠm on
ĠĠn o
ĠĠle g
ĠĠA uf
r ü
j ect
el y
ol it
l and
t o
c ed
ĠĠM ember
ĠĠPres ident,
t schaft
ĠĠU m
d ay
n ah
ĠĠK on
ĠĠw eit
ig h
le g
ĠĠo der
le ich
ĠĠt ra
i ff
ĠĠin ter
ĠĠc o
ch e
id er
h ör
ĠĠ ra
em ent
ah l
ich er
ĠĠcon s
ĠĠre f
ĠĠwerd en.
ĠĠm uß
ier ung
at ed
el t
ĠĠe ff
ĠĠha b
ĠĠf e
ĠĠS p
e k
i a
op le
ĠĠge gen
ran sp
ĠĠo ver
at ive
ĠĠi hr
ĠĠAr beit
in k
ĠĠwh at
ĠĠth ese
ĠĠFra u
ĠĠe urop
is ter
le d
ĠĠbe c
er v
be wer
ĠĠo p
i ous
ĠĠg es
st aat
ier t
ĠĠwor k
ig er
tro l
glie d
ĠĠj ust
ĠĠi f
ch en
ĠĠpol ic
ir st
ĠĠS te
o v
con om
id en
ib le
ĠĠres p
n er
f e
a ß
ĠĠver y
ĠĠha d
olit ik
ĠĠC h
ĠĠis s
ĠĠon ly
ĠĠA l
ĠĠde c
ĠĠpe ople
il d
ĠĠm ark
st it
am e
pp ort
c il
ĠĠM on
ĠĠn ow
ĠĠge w
omm en
b lem
ĠĠp r
aus e
ĠĠm y
ĠĠi hre
i ß
ing s
lie ß
ĠĠc oun
ĠĠo ther
us am
ĠĠEn t
ĠĠbe g
ĠĠcomp et
c ess
ĠĠse hr
ĠĠEurop äischen
an s
k e
te il
it e
ĠĠmüss en
v en
ĠĠS o
ar beit
ĠĠa r
for e
f ühr
ĠĠ ro
ĠĠag ain
sch e
r und
ĠĠthe m
a ff
ĠĠn ational
ĠĠim port
ĠĠC oun
usam men
ett bewer
ĠĠis t,
ettbewer b
ĠĠin tern
ul ar
ĠĠh ow
ĠĠPräs ident
ĠĠw ere
on der
etz t
ĠĠwerd en,
w end
ĠĠwh en
ĠĠs ome
ĠĠin s
ste ll
on e
k l
ĠĠin d
le ar
ĠĠin to
it ies
ĠĠ2 0
il ity
ĠĠc l
ĠĠCoun cil
ĠĠt ake
ent ion
ĠĠC omm
ĠĠd am
ung ,
ĠĠb is
w n
ĠĠan y
ĠĠp oin
re i
l ä
at ter
e ver
ĠĠprop os
c y
ĠĠre c
ĠĠe conom
ĠĠpol it
ion al
w ir
ĠĠpart ic
icher heit
z ent
ĠĠZ eit
ĠĠge m
ĠĠs ol
ĠĠMit glied
ä l
f ahr
ĠĠ 4
in e
ĠĠmark et
ie d
b ar
ĠĠv ie
re e
ub lic
ĠĠh er
ĠĠRe ch
r ing
h il
ut h
u en
hal b
t en,
if ic
at z
ĠĠF in
ĠĠre p
r y
ed .
ĠĠund er
ĠĠal le
r um
er al
ĠĠSt ates
ĠĠin v
ĠĠber eit
an ge
ĠĠF or
ĠĠA s
ĠĠcoun tr
ĠĠconc ern
ĠĠW h
ä ch
ĠĠW ettbewerb
ĠĠl a
ĠĠk on
r al
iv en
ĠĠD ies
ord n
ü tz
ĠĠf irst
vel op
te .
ĠĠs uch
u ge
ĠĠcon t
ĠĠVor sch
s m
ĠĠH e
ĠĠM en
m al
ĠĠw icht
ĠĠN ach
h m
ĠĠR at
x t
ĠĠT e
ĠĠh ier
esch ä
ĠĠm ake
ĠĠa id
u er
i an
n ow
ĠĠqu est
ĠĠp res
it u
ĠĠF l
on d
f ter
ĠĠpartic ular
ed ,
ĠĠK olle
z eit
a v
i le
ĠĠMitglied staat
a x
ct or
ĠĠist .
ĠĠre l
we en
s am
ĠĠBe i
ĠĠt ak
as e
ĠĠde b
uth or
ĠĠf o
it z
t re
ion en
r im
ĠĠ Ü
ĠĠsag te
ur al
ĠĠma de
ĠĠth an
ĠĠcompet ition
ĠĠdies es
te ll
sch en
in ister
ĠĠe mp
ĠĠs ub
l d
ĠĠtim e
ĠĠde velop
ĠĠwie der
h and
ĠĠpro v
ly ,
ĠĠbet ween
ĠĠuns er
it ät
b st
ĠĠs ow
ĠĠÜ ber
f l
ĠĠFra ge
ĠĠ end
ment s
st and
ĠĠl ie
un ity
re ch
ĠĠ 5
d em
l ung
lo y
ĠĠt wo
ĠĠst r
an cial
ĠĠbe ing
s el
z ial
ĠĠc lear
ĠĠbec ause
ĠĠdis c
ĠĠw o
h ing
st er
ĠĠAr t
ĠĠd ann
ĠĠle tz
un kt
it al
der ung
k on
ut z
gram m
ĠĠk omm
- S
u es
i ent
ĠĠa uthor
f ür
st ütz
ĠĠw el
ĠĠre m
ĠĠw ür
a c
s etz
ar kt
neh men
ĠĠp os
ar ge
ĠĠs ystem
ĠĠl ast
it i
ol g
ĠĠsein e
ĠĠg ib
ĠĠsu pport
hn en
ĠĠZ usammen
ĠĠc our
ĠĠB ut
ĠĠc ould
c es
v or
ĠĠb est
ĠĠEn tw
ä ische
ĠĠa ct
ĠĠRech ts
ĠĠgro ß
eschä ft
ing .
ĠĠth ink
ĠĠI m
h a
ĠĠein es
z ie
ĠĠs c
itu ation
ĠĠv iel
h en,
ĠĠd iff
ĠĠbe lie
ĠĠw ay
t en.
ĠĠm ach
uß er
t ra
at er
ĠĠt ransp
ĠĠimport ant
ĠĠwh ere
ĠĠwird .
ĠĠzw ischen
ĠĠd ire
ĠĠl o
te t
is ion
ĠĠg u
ert ain
än g
t rag
ĠĠe tw
we ise
ĠĠad d
ĠĠp oss
ĠĠk now
ĠĠh el
is m
ĠĠfin ancial
o ugh
ĠĠe ver
is ed
ĠĠ Q
ĠĠf re
ĠĠeurop äischen
ĠĠz we
ĠĠkein e
ĠĠm ich
ĠĠg r
a il
ver n
ĠĠgo od
ier en
ĠĠN e
r ent
ĠĠas s
ĠĠquest ion
ĠĠB ed
ri ff
ĠĠM e
ere ich
ĠĠPräs ident,
it t
ü cht
ĠĠpropos al
s uch
sche id
w ort
ĠĠintern ational
ĠĠG ro
ing ,
ĠĠI s
ĠĠre qu
ig ung
ĠĠK ommiss
ĠĠt ax
ĠĠst ate
i o
stit ution
ĠĠst at
ĠĠha be
is ation
ra uch
ĠĠy our
ĠĠwe ll
ĠĠMitgliedstaat en
ĠĠKommiss ar
ĠĠ199 9
is k
ĠĠjed och
ff ent
ĠĠ 8
ĠĠth ose
w ard
ĠĠim mer
f all
el n
ĠĠB ereich
ĠĠdam it
ĠĠs on
ĠĠcons ider
ĠĠiss ue
erm an
f er
ĠĠein z
f ra
nah men
is ten
ĠĠS icherheit
ver s
ĠĠse i
re ad
ic t
ĠĠs el
p er
ĠĠG em
är k
ru ct
c ent
o ff
ĠĠM ein
sch ließ
ers on
ol og
ĠĠpro blem
l ish
ĠĠG erman
ĠĠh and
ĠĠge b
kl är
ĠĠA m
n is
ĠĠge t
ĠĠFl ücht
ĠĠas k
ĠĠTh ere
ate g
ĠĠEntw ick
ever ,
ĠĠwith in
ĠĠc ur
ĠĠth ro
om p
ow n
ĠĠa fter
ĠĠc ar
än der
ĠĠM aß
itte e
ĠĠcon f
ĠĠref uge
is l
ant wort
ein schaft
ur es
ĠĠst ill
in ce
at ing
ĠĠreg ard
ĠĠAus sch
ĠĠG es
re d
ĠĠm ost
ĠĠle vel
in ,
ĠĠP l
ort ug
ĠĠh al
ten s
iv es
ĠĠfa ct
ĠĠpolic y
w ay
ĠĠw en
ar en
ent s
ol d
le ment
ĠĠdies en
ĠĠbereit s
ĠĠFin anz
ĠĠw ant
ĠĠHerr n
ĠĠm ir
ĠĠg anz
ĠĠre form
c ted
ĠĠp ut
ĠĠeff ect
ö glich
ĠĠEurop a
ĠĠreg ional
r ation
ĠĠPro zent
ĠĠm atter
r icht
s atz
ĠĠMen schen
ü g
ĠĠBei hil
ĠĠp ublic
ĠĠagain st
ĠĠweit er
ĠĠ 9
ĠĠ Ö
ĠĠf ind
e kt
a ct
ĠĠla w
ĠĠbelie ve
ĠĠman y
ĠĠc ertain
ĠĠare a
ff en
ĠĠsow ie
ĠĠv om
g ab
y s
ĠĠIn ter
u ro
ce pt
ĠĠan ge
ĠĠH aus
ĠĠG rund
ĠĠSt aat
ĠĠden n
ĠĠ Ä
z ug
ĠĠso cial
o ck
ĠĠcountr ies
ĠĠgro up
ĠĠvie w
u ll
ĠĠw oll
ĠĠhat .
ĠĠdar auf
ĠĠTh em
st änd
h in
ĠĠLe ben
ot h
ĠĠdeb ate
ĠĠinc re
ess en
it or
u al
ĠĠS y
ĠĠal read
ĠĠthro ugh
ĠĠB ür
gan gen
ĠĠs om
for der
ru kt
ul ation
ĠĠF ed
ĠĠa c
ĠĠspe c
ĠĠresp ons
ĠĠVer b
ĠĠson dern
ĠĠe ven
ur ing
ĠĠp la
ĠĠv o
ĠĠg reat
ä hl
w alt
ĠĠB et
ĠĠO r
ĠĠmon th
ĠĠthere fore
ĠĠse e
ĠĠor der
at en
p ro
ĠĠleg isl
ĠĠhe ute
ent ral
ĠĠU S
ĠĠag re
ĠĠalread y
f et
ĠĠ est
we is
ĠĠhat ,
ĠĠer w
ĠĠwird ,
ĠĠda zu
et en
ĠĠf ühr
ĠĠgib t
le ,
ĠĠto o
ord ing
ĠĠbes te
inn en
ĠĠ 6
form ation
be i
ĠĠsind .
ĠĠn at
ĠĠinc l
ĠĠo wn
ĠĠeconom ic
ĠĠ20 1
h en.
k en
ĠĠcon trol
ra el
ĠĠl ong
ĠĠever y
ĠĠth en
ĠĠdevelop ment
ĠĠper cent
ĠĠW ie
ĠĠwe il
ĠĠj etzt
ar m
f r
ran s
ĠĠb as
ĠĠpoin t
w or
ĠĠL and
ĠĠ2 00
ĠĠn um
con d
rum p
ordn ung
ĠĠwür de
ass en
k ommen
ch n
k omm
ren z
ĠĠ ö
ĠĠm ay
ĠĠh im
ĠĠMr s
ĠĠapp ro
ĠĠpro cess
ĠĠR icht
ke hr
en e
ĠĠF ran
ĠĠComm unity
ĠĠT ag
g est
ĠĠkönn en
ä tz
ĠĠda für
ar n
ĠĠhab en,
h ne
on t
ĠĠAb ge
ĠĠWir tschaft
ĠĠL am
sch ie
ĠĠsind ,
el d
v ent
op e
ĠĠsa fet
ĠĠT rump
ĠĠF re
gram me
ĠĠsel bst
ä ß
el s
ten d
ĠĠP ol
ĠĠst and
a ir
ĠĠdisc uss
ĠĠne uen
ĠĠzwe i
rukt ur
ĠĠp ra
ur s
ĠĠsom et
ĠĠm uch
ĠĠdo es
ĠĠposs ible
ic ial
vern ment
ĠĠf est
ĠĠand eren
ö s
iss en
lich keit
ien st
p iel
un k
ĠĠm o
ĠĠs ame
oun t
ĠĠemp loy
ze ich
ĠĠwir k
isch er
f olg
ah re
ĠĠne ue
ĠĠver b
i x
ĠĠH a
ĠĠab le
in s
ĠĠt erm
ĠĠare as
ĠĠpl ay
ĠĠg er
rim in
la ge
ĠĠwicht ig
ĠĠs eit
et ,
h ol
ĠĠk e
ĠĠnum ber
f ul
ĠĠb ack
ĠĠA t
ĠĠW enn
ĠĠde ut
ĠĠn un
ĠĠGe b
hal t
ĠĠe ben
ĠĠg ut
ion .
am il
onder e
a ,
ĠĠhab en.
ah men
ĠĠk l
ĠĠUnter nehmen
ri or
at or
l er
t on
ĠĠs er
ĠĠne xt
ib ility
et her
v ed
ĠĠr ight
ra ch
ĠĠal lem
ĠĠA ust
ĠĠpro du
er ation
ĠĠ Y
ĠĠ ens
b es
rie d
ĠĠD es
p e
ĠĠJ ahre
trol le
ĠĠM an
ge m
ĠĠre al
ĠĠE uro
al k
ĠĠH ow
or der
ĠĠVorsch lag
ĠĠh ere
ur n
ä re
ĠĠunser er
le gen
ĠĠJahr en
ĠĠkönn en.
l oss
er k
ĠĠEntwick lung
ĠĠletz ten
ĠĠihr er
ĠĠA ber
ĠĠg leich
r is
- P
ĠĠf ra
ĠĠleg al
a .
ĠĠat t
ĠĠin de
ĠĠlo ok
ĠĠc ann
ĠĠH in
ap ital
1 99
ra ft
ru ck
ĠĠf und
f in
ĠĠs ince
ĠĠyear s
ab lish
ĠĠsh ow
ĠĠBür ger
ĠĠetw as
g esch
ĠĠuns ere
lich er
setz ung
ĠĠEurop äische
ĠĠM ittel
ĠĠR ahmen
a um
ion ,
ĠĠBeihil fen
it ed
ĠĠbe fore
ĠĠinter est
ut ure
ĠĠcann ot
v ing
ĠĠme as
i um
m in
ähr end
f ung
ün d
ru pp
ĠĠDe ut
a ce
ĠĠcont in
ern ,
am en
iti ative
er ung
ĠĠgem ein
ĠĠmö glich
te m
öglich keit
ĠĠM inister
ie t
as ter
ĠĠIs rael
ĠĠen v
ak ing
ĠĠM ill
re it
ĠĠsch on
ĠĠo hne
al d
s on
l es
ĠĠr at
y l
ĠĠf ar
en ce
ĠĠTh at
ĠĠam end
ĠĠb us
ĠĠAn d
ig t
b at
ĠĠmein e
ö ß
ier en.
ĠĠGem einschaft
ĠĠs ituation
ĠĠthat ,
t ing
ĠĠcur rent
ĠĠCommission er
ĠĠest ablish
ĠĠO n
ĠĠQ u
iss e
hal ten
ĠĠB r
ĠĠw ord
ĠĠsein er
ĠĠ1 5
ĠĠge f
ĠĠb esch
i ar
ĠĠz e
ĠĠden en
ll er
s h
ĠĠparticular ly
ĠĠme et
ot her
ĠĠg ive
ĠĠa ff
h äng
or m
ĠĠg esch
i ze
ĠĠ2 000
ĠĠ 7
ĠĠPro blem
b le
ĠĠZ iel
ĠĠ1 2
ĠĠE x
un de
ĠĠK o
ĠĠsomet hing
in c
ĠĠwh ether
as on
ĠĠpla ce
ĠĠsafet y
j or
it iz
ĠĠrequ ire
ĠĠZ u
f ass
an der
ĠĠein ige
f eren
ĠĠÄ n
or g
199 9
ĠĠH and
ic ult
ĠĠpolit ical
in ess
ĠĠth ree
ĠĠsich er
ĠĠt un
sp rech
ün f
fra ge
ob in
- 0
ĠĠso zial
ĠĠRe form
ĠĠimp lement
ĠĠf uture
c ur
ĠĠI hnen
ĠĠein ge
ĠĠD ienst
ĠĠD a
z us
ich ter
ĠĠge l
sp olitik
ĠĠW o
al s
ĠĠBe hör
ĠĠ ide
ud ge
lin ge
ab ility
v ious
ĠĠma jor
ĠĠhel p
ĠĠex amp
ĠĠcomp an
ĠĠrefuge es
- B
än dern
m ittel
un den
g t
ür lich
ier te
h ö
or te
ĠĠO b
i vers
p ar
ĠĠpres ent
ĠĠb order
ĠĠst ud
l os
ĠĠEnt scheid
B C
ĠĠzur ück
ge w
ĠĠWettbewerb s
ĠĠge ht
ĠĠVer antwort
it ive
er .
ĠĠC on
ĠĠComm ittee
nah me
ĠĠunter stütz
ich te
ĠĠ1 9
äl t
sm ittel
ĠĠpro gramm
ĠĠres ol
ĠĠagre ement
ĠĠdire ct
ĠĠwor ld
ĠĠUn d
h t,
g leich
la ub
ent ial
ĠĠ1 0
ous e
ĠĠPres ident
is ts
ĠĠtak en
ĠĠCommission er,
ĠĠd own
ro und
ĠĠbe k
a de
neh m
ĠĠb ring
ĠĠMaß nahmen
ä d
at t
ĠĠor gan
ĠĠha pp
ĠĠfe w
ĠĠI f
ĠĠspec ific
ĠĠwh y
ĠĠens ure
ĠĠto day
ĠĠse cond
, 000
at ast
atast rop
bes ondere
ĠĠsein en
ĠĠd och
ĠĠd rei
al e
ĠĠall er
ĠĠind ust
ĠĠb rauch
in es
ĠĠinv ol
ĠĠs erv
ĠĠwith out
ĠĠKolle gen
f ten
ĠĠVer ein
ig ten
or en
ĠĠsoll ten
l ick
wir k
ĠĠT ransp
is piel
ĠĠG r
ĠĠL eit
ĠĠinv est
ĠĠP ortug
ĠĠFlücht linge
ĠĠh ope
ity .
ĠĠr ul
o f
ĠĠg est
is ierung
ĠĠ %
ier en,
ĠĠReg ionen
ĠĠs ign
ĠĠt rans
ĠĠincre as
ĠĠwe ek
ĠĠand ,
ĠĠd id
ĠĠb oth
ĠĠne cess
ĠĠa ction
ĠĠh igh
ur ther
ĠĠfo od
ĠĠsag en,
ĠĠP al
g ese
er b
w eit
ĠĠd r
at h
ur g
i od
ĠĠg l
ĠĠSp iel
h aus
ir m
an ts
ĠĠs et
ally ,
ĠĠbus iness
ĠĠb o
ĠĠSt ra
ĠĠb in
ĠĠRe gel
p unkt
ĠĠW as
ur z
ĠĠsag te,
le tz
- A
m it
ĠĠad v
ir on
schie den
at s
ĠĠsch w
um ent
ĠĠSe p
v ention
a i
ĠĠfor m
ĠĠst aat
ĠĠne g
ation .
ĠĠincl ud
ĠĠimp ro
is ing
ĠĠle ad
as h
ĠĠins besondere
ĠĠw äre
ĠĠer sten
ĠĠFra ktion
ĠĠsoll te
ĠĠM öglichkeit
ä mp
ĠĠM arkt
ĠĠcom e
ĠĠgu id
ĠĠb u
ĠĠB es
ĠĠw ährend
de ut
ĠĠT obin
ĠĠbe im
ĠĠPro ble
k re
ier ungs
ĠĠAn sicht
p h
ĠĠEin e
ĠĠF und
ĠĠJ ust
ĠĠT reat
ĠĠc rit
ĠĠtra in
ĠĠcon tr
ĠĠs m
lag en
ĠĠW och
ĠĠArbeit s
ĠĠp ass
tem ber
ĠĠver l
ĠĠd ank
f ä
ĠĠDeut sch
ĠĠtransp ort
rit t
up t
ĠĠgr öß
wir tschaft
ĠĠLeben smittel
ĠĠd ist
ĠĠt r
ĠĠpro ject
ĠĠd uring
ĠĠGro up
ĠĠLam b
ĠĠB BC
ĠĠh off
ĠĠer st
ĠĠAn ge
ĠĠF all
ĠĠDies e
ge ben
ĠĠSep tember
ung .
et .
ĠĠh ät
lin ie
ĠĠUnter stütz
ĠĠB eschäft
m an
age ment
ĠĠRe p
ĠĠexp ress
inc ip
ĠĠacc ount
ĠĠch ange
ĠĠm ain
ach t
ok rat
rä ge
lin ien
s o
g re
ĠĠein mal
st r
er g
ĠĠreg ions
ĠĠm ed
ĠĠsay s
ĠĠpr incip
iron ment
oll ow
ĠĠop in
ĠĠth ank
ĠĠThe y
ĠĠG en
le x
f ang
rie den
fahr en
ar te
ĠĠaus ge
l an
p olitik
we g
ĠĠsein ,
lich ,
ĠĠTe il
ĠĠN ot
ond s
ĠĠM ad
ĠĠm ill
ĠĠpro te
wor k
ĠĠpra ct
ĠĠop en
ĠĠParlament s
ĠĠKolle g
ik el
sp ro
ĠĠI hr
om ent
e ut
ĠĠsein .
ĠĠvie le
) .
it ä
ĠĠM ar
z ip
ĠĠm in
ĠĠE ben
ĠĠR o
ĠĠdis aster
ĠĠsh e
ĠĠob ject
ut ions
ĠĠdec ision
ĠĠg iven
ĠĠf ull
at ch
ag ue
ĠĠall en
ĠĠmein er
ĠĠF e
ä m
ĠĠsch aff
ĠĠThem a
ig en,
ĠĠSch iff
ĠĠzw eit
ier ten
wend ung
- K
ĠĠSt ruktur
te g
f ort
ĠĠper iod
ĠĠd et
ation ,
ir d
igh ts
ĠĠad op
ug ht
ĠĠs ur
cur ity
ĠĠbe f
o de
ĠĠG er
ter ,
- M
ĠĠ ä
ĠĠihr en
ĠĠbe d
ĠĠkl ar
ĠĠDeutsch land
re g
ĠĠP olitik
hal ts
ĠĠge hör
- G
re cht
ĠĠS ystem
l ing
ĠĠc or
ro at
ĠĠenv ironment
ĠĠb ro
ĠĠde al
ĠĠguid el
ĠĠc ent
ĠĠn äch
h ang
zeich n
mer k
rimin al
ü b
ĠĠstr ateg
ĠĠste ll
b au
ĠĠH er
ĠĠwir tschaft
l us
ĠĠv an
ĠĠcomm on
ĠĠo pport
v es
ch ie
e p
ĠĠf ollow
ĠĠHow ever,
or y
ĠĠa v
k un
ĠĠD on
ĠĠzw ar
ĠĠhat te
ĠĠi hm
al en
ĠĠwur den
ĠĠand ere
ĠĠab s
ord ne
ĠĠSt ud
ĠĠre t
ĠĠst art
ĠĠw ish
ĠĠall ow
ĠĠe qu
ĠĠj ob
ĠĠSt ate
ĠĠ $
ĠĠgemein sam
ĠĠe ing
ĠĠUm w
u de
ĠĠwurde ,
ĠĠer klär
ĠĠa ußer
ĠĠm or
a ut
g ang
m arkt
ĠĠUnterstütz ung
ĠĠIn tern
sp r
it ions
ie f
ĠĠp ar
ĠĠim m
n t
ĠĠpe ace
ĠĠgo ing
ĠĠc itiz
ĠĠrep res
ĠĠdo ub
ĠĠwer de
legen heit
tell t
ĠĠn ie
ĠĠf ünf
ier t,
ichter st
st rum
z en
tro ll
ĠĠP ap
ĠĠF rei
ĠĠp erson
ĠĠan n
ĠĠresp ect
ĠĠpoin ts
ĠĠauthor ities
f ü
ĠĠEr geb
ĠĠan ges
g ar
ĠĠÄn der
o ,
ĠĠBed eut
ĠĠS ach
ün ft
- F
s id
l le
ĠĠBer ichterst
b ed
ĠĠdar über
w ick
an te
L A
ĠĠB rit
lin e
. 000
ĠĠsh all
ĠĠin formation
ĠĠhow ever,
ĠĠcour s
e cted
ĠĠus e
ĠĠl oc
ĠĠi hn
ĠĠP unkt
ĠĠDe bat
v on
ra um
ĠĠte chn
ĠĠProble me
ĠĠbes onder
ĠĠG leich
ord in
or s
ĠĠbe zug
ĠĠD em
ĠĠpro f
ĠĠp rior
is en
ge d
iv ed
are d
ĠĠc as
ĠĠst ruct
ĠĠde p
ed om
ĠĠs ing
kun ft
e ll
äch st
sch ied
ĠĠM al
ĠĠent sprech
stell ung
ig ,
f ach
ĠĠSte uer
ra d
ĠĠl ang
ĠĠG renz
ĠĠsch wer
ĠĠr isk
ĠĠS eit
ĠĠw om
ĠĠexp er
ĠĠemploy ment
ĠĠoff icial
ĠĠcl os
ge leg
h t.
ĠĠDes halb
icht s
ĠĠda von
ĠĠb ess
ĠĠfin anz
ĠĠsein em
ĠĠBerichterst atter
gem ein
ab häng
ĠĠD am
ĠĠFran k
ĠĠgl ob
l ow
ĠĠcon d
b y
ĠĠa w
tro du
ĠĠd one
n es
ĠĠm ention
ĠĠa chie
ĠĠco op
ĠĠapp lic
ĠĠspe cial
ĠĠc olle
ĠĠmeas ures
ĠĠN at
ĠĠZusammen hang
gangen en
ĠĠf all
d i
ĠĠK l
st imm
fall s
ĠĠe igen
ĠĠSt and
ĠĠSch w
l ungen
ĠĠf un
ĠĠAbge ordne
ĠĠA ut
ce .
ĠĠda y
ĠĠdiff icult
way s
c ut
ang er
ĠĠnecess ary
ĠĠse ctor
ĠĠrat her
ĠĠf our
ĠĠres our
ĠĠwirk lich
ĠĠTag es
1 0
ĠĠSo zial
ĠĠwar en
ück sicht
uss es
ĠĠw es
ter s
ĠĠIn stitution
ĠĠk urz
führ ung
ĠĠVerantwort ung
ĠĠj e
ĠĠder zeit
b uch
LA F
er ent
c ing
ĠĠin trodu
al th
ĠĠit .
ĠĠs ix
on ger
ĠĠtim e,
t y
ĠĠArt ikel
g rund
ĠĠA ll
g o
ze ß
ĠĠges ag
ĠĠe le
ze pt
/ 1999
ĠĠt re
ort s
ĠĠs ens
ĠĠGe w
ig t,
ĠĠnot wend
ĠĠgegen über
ĠĠH il
ĠĠEn de
ĠĠver such
o te
o pp
ik an
ĠĠd ra
re t
ĠĠP e
ĠĠPol ize
ĠĠqu ite
ĠĠre ce
ic es
ĠĠse em
ĠĠan other
ĠĠf ive
ĠĠe v
ĠĠe ach
c ome
ĠĠro le
iden cy
oin t
ĠĠWh at
ĠĠa round
ĠĠser ious
ĠĠse curity
ĠĠpol ice
ĠĠUnion ,
ĠĠbet riff
at iv
un ächst
ĠĠI hre
ie le
ĠĠB est
ĠĠKommission ,
ĠĠP erson
ungs ant
ĠĠFra gen
se qu
ver ständ
ĠĠv oll
n en
d ruck
ĠĠ199 7
ĠĠR aum
ĠĠUnion .
w ach
h ungen
ĠĠnational en
sch ein
um an
ĠĠB und
ĠĠeurop äische
t i
ĠĠ3 0
ĠĠre du
ĠĠm ot
ĠĠpro ced
v our
od y
ĠĠm ov
ĠĠcontr ib
ĠĠste p
pp orte
ĠĠl ess
ĠĠprov id
ĠĠL änder
ĠĠgroß en
e hm
ĠĠRicht linie
r än
ĠĠsp iel
ĠĠAussch uß
if ten
ĠĠM in
ĠĠA uch
ĠĠkönn en,
ĠĠpr iv
ĠĠö ffent
ad t
am t
ies ,
ĠĠwe gen
a der
ĠĠon ce
ĠĠc all
ic ally
ĠĠs im
ĠĠA cc
ĠĠre ason
iv ing
ĠĠra pporte
ĠĠacc ording
ĠĠt alk
ĠĠJahr es
sp ra
ab il
ĠĠRe cht
ĠĠEnt schließ
ĠĠ199 8
sicht lich
z iel
ik a
ĠĠD isk
ĠĠD urch
ĠĠst ark
is on
ĠĠE mp
k ämp
ĠĠnat ürlich
a kt
ĠĠ ur
ĠĠP re
and id
id ar
min ist
ĠĠO LAF
ĠĠSy ri
ĠĠsub ject
at ely
ĠĠre ad
ĠĠm ember
ĠĠl arge
ĠĠsh ip
iel d
ĠĠterm s
ĠĠc re
ĠĠintern al
ĠĠfre edom
la uf
f en,
n isse
ĠĠnicht ,
ier t.
ĠĠoff en
loss en
ĠĠKon trolle
ĠĠwur d
gab en
ĠĠD en
an ,
ĠĠder en
ĠĠZusammen arbeit
r iften
s icherheit
ĠĠst ärk
ĠĠb le
f te
ĠĠop er
ĠĠVer trag
d am
ard s
ĠĠd el
ĠĠad minist
udge t
ĠĠrec ent
ĠĠMad am
ĠĠpos ition
ab ly
ĠĠfa vour
ĠĠrespons ibility
ward s
ĠĠf urther
ĠĠm aking
o ver
ĠĠtak ing
ies .
ro ss
ĠĠM ann
ĠĠz usammen
ĠĠDebat te
rupp e
rü ß
l uß
h ung
ĠĠLeit linien
ö l
ĠĠP unk
ĠĠUS A
z ahl
ie g
ĠĠ ir
ol k
ĠĠan s
un ter
ĠĠqu al
ĠĠC lin
ĠĠc ase
ĠĠis ,
if y
ĠĠcours e,
ĠĠdiff erent
ĠĠrul es
ĠĠrem ain
ĠĠunder stand
ot i
ĠĠiss ues
ĠĠdem and
ĠĠsaid .
ĠĠg ab
le in
ĠĠN amen
ĠĠd ür
arm on
d ings
fl icht
ĠĠb en
- R
ĠĠReg ierung
lä ge
ĠĠGro ß
il t
ĠĠm ind
ĠĠWe iß
- V
ĠĠWettbewerb spolitik
ĠĠF rieden
b o
ĠĠP at
i ft
ĠĠH ouse
u ally
ĠĠc riminal
ĠĠpro gramme
ĠĠcomm it
is ions
ĠĠl ack
ĠĠrapporte ur
h ip
n ess
ĠĠmon e
lie g
ĠĠh ö
ĠĠbeg rüß
ern .
ĠĠB eit
ĠĠwen iger
ĠĠTransp aren
ĠĠv ier
ĠĠD ire
im s
r id
ĠĠs uf
ly .
ĠĠstat ement
ĠĠCommission .
ĠĠrepres ent
- y
ge ther
ar ante
ĠĠex c
ĠĠl im
ĠĠfor ward
ĠĠcomp le
ĠĠreg ion
ĠĠrec og
ĠĠgen eral
if ied
ĠĠWh ite
ĠĠS ituation
ĠĠUmw elt
ĠĠd ort
ĠĠL age
ĠĠwurde .
ĠĠein igen
ĠĠand er
ĠĠr icht
ĠĠAussch usses
ĠĠUm setzung
ster reich
f üg
ĠĠdes halb
ren g
ĠĠTransparen z
ĠĠkann .
ĠĠauf ge
f onds
le it
ĠĠ2 5
ĠĠH ier
m or
ĠĠW elt
ĠĠm oment
ĠĠEU R
a den
ĠĠPolize i
b all
ĠĠM ü
th ough
ĠĠmonth s
ĠĠal ways
ĠĠbu ild
ĠĠhapp en
ĠĠam ong
iden ce
ĠĠAcc ording
-y ear
ĠĠconcern s
ĠĠproblem s
ĠĠcomm un
ĠĠCommission ,
ĠĠp ow
ri end
ĠĠfo und
ĠĠNe w
ĠĠkon n
ĠĠTages ordnung
ĠĠbest imm
räs ident
o gen
feren z
b lick
ĠĠS ub
ĠĠweit ere
ĠĠdar f
ĠĠo pt
a pp
ann t
ĠĠte il
wer k
ĠĠHaus halts
ĠĠbeg inn
em p
ĠĠabs ol
ĠĠBund es
ub l
ĠĠ X
ĠĠU r
ĠĠbe h
ĠĠS a
ĠĠf amil
ĠĠv ar
ĠĠprincip le
ĠĠreg ul
w h
ĠĠAust ri
ĠĠcoop eration
ĠĠcontin ue
ĠĠneg oti
ĠĠgo vernment
ĠĠcitiz ens
ĠĠpro m
ĠĠArt ic
ĠĠsing le
p end
ĠĠver gangenen
ĠĠMein ung
ĠĠVer walt
ĠĠOr gan
z w
ĠĠj a
ĠĠsol che
en k
. .
ent lich
ĠĠK atastrop
ĠĠsch ließ
ĠĠB em
ĠĠetw a
ĠĠR olle
ĠĠkon kre
ĠĠda bei
ä uf
ĠĠM o
tro ffen
ĠĠWeiß buch
ĠĠFrei heit
h es
ĠĠCh in
ĠĠex tre
ĠĠcour se
ĠĠle t
ĠĠPortug u
ĠĠPortugu ese
ĠĠspe ak
ĠĠus ed
ĠĠsu pp
ĠĠgu arante
ĠĠy et
ĠĠes pe
ĠĠespe cial
ĠĠc are
ivers ity
oc rat
ĠĠbeste ht
at iven
ĠĠwor den
ĠĠz ust
ĠĠDienst ag
ĠĠR ed
s itz
ĠĠPräsident schaft
ĠĠR ates
ĠĠB innen
ĠĠgew ähr
ze ug
bed ing
ĠĠP r
ĠĠbesonder s
ĠĠGeb ie
- 2
ĠĠall gemein
ĠĠM ed
la u
ĠĠbrauch en
ĠĠmo dern
ĠĠA mer
ĠĠl i
ĠĠs y
ĠĠin stitution
ĠĠC or
os p
ĠĠtransp aren
en ted
ĠĠo cc
ĠĠthis .
ĠĠresol ution
ĠĠag ree
ĠĠclear ly
ĠĠh ig
ĠĠguidel ines
ĠĠprote ction
ĠĠnäch sten
ĠĠf olg
ĠĠB ar
ĠĠnicht s
ĠĠEntscheid ung
f en.
v oll
ĠĠkann ,
ĠĠi hnen
ĠĠg laub
al le
el le
g r
un der
ĠĠp ers
scha ften
ĠĠBer lin
p rä
ĠĠEn g
ĠĠK os
ĠĠKos ov
r ise
ĠĠ ess
ĠĠs ug
ĠĠT ues
ĠĠTues day
ar ly
ĠĠsm all
el ess
itt le
ĠĠl onger
ĠĠin tend
il y
ĠĠgro w
n ing
ĠĠr un
ĠĠver schieden
he b
ĠĠre cht
vor sch
ĠĠp ortug
ĠĠportug ies
ĠĠPro gramm
ĠĠZ ust
ĠĠkomm t
ĠĠwoll en
al y
an c
i en,
s en
in zip
wirk ungen
ĠĠZ ahl
ĠĠc apital
ĠĠin teg
kämp fung
ĠĠpos itive
ĠĠan ,
r .
ig .
ĠĠS h
ĠĠM us
ĠĠpl an
ĠĠh uman
l ain
ĠĠprogramm es
ĠĠact iv
ĠĠbas is
ĠĠlegisl ation
ĠĠd anger
ĠĠbet ter
ĠĠdirect ive
ĠĠc ost
ĠĠprov ide
ĠĠimport ance
ĠĠl ittle
ĠĠne ver
ĠĠess ential
all en
ĠĠwh ile
it s
ĠĠauthor ity
ĠĠ1 7
w and
ĠĠle d
ĠĠMe hr
ĠĠbis her
ĠĠmüss en,
führ t
ĠĠber ücksicht
ĠĠVer kehr
ĠĠda her
ĠĠ5 0
ĠĠAbge ordn
ung en,
ĠĠReg ion
al es
ĠĠZ we
- L
ra ph
ĠĠde fin
/ 99
ĠĠex ist
i ver
ber g
ĠĠG eld
m inister
l ig
ĠĠn on
le as
ĠĠS erb
ĠĠMember s
rop ri
ĠĠvo te
or ted
ĠĠto gether
ĠĠrespons ible
ĠĠF irst
ĠĠespecial ly
ĠĠW ith
ĠĠUn ited
ter m
ĠĠc ap
ĠĠexp ect
ĠĠw ants
ĠĠte am
ro tz
ch ten
aff en
ĠĠVer tra
ür z
ĠĠ1 6
ĠĠh erv
u gen
ĠĠer forder
ĠĠg ute
rie b
ge h
wer t
le ist
ĠĠAn wendung
ĠĠa kt
h as
ĠĠ4 0
ĠĠAl s
ĠĠste ht
ah n
ĠĠbe w
ĠĠBehör de
ktion en
ĠĠch ar
i ol
om in
ĠĠcom es
ĠĠex am
ĠĠag end
ĠĠprop er
el f
ĠĠPres idency
ĠĠreg ulation
ĠĠt reat
ĠĠcountr y
ĠĠin stit
ir c
ĠĠcertain ly
ĠĠse en
ĠĠle ast
ĠĠB ay
ĠĠL ändern
ĠĠden k
ĠĠBe g
ĠĠstat t
ĠĠEr klär
ĠĠJ an
t ag
ĠĠ üb
if iz
m äß
ĠĠWe g
ĠĠlie gt
ĠĠdar um
gen ommen
ĠĠArbeit sp
ĠĠReg ional
ör derung
ĠĠh o
ĠĠse ch
strum ent
ĠĠBe ispiel
än de
ö t
ĠĠAus wirkungen
ĠĠp arl
1 2
ab e
ĠĠsozial en
ne ll
- T
ĠĠMill ionen
be hör
ĠĠM ark
ĠĠH ul
ĠĠr ights
ĠĠAs yl
ĠĠW ed
ĠĠH ung
ĠĠfe el
ĠĠto p
ĠĠSo cial
ĠĠwork ing
ĠĠac cept
ĠĠc aus
ĠĠincreas ing
ic ient
m .
sp ect
ĠĠglob al
ĠĠmill ion
ĠĠh ome
i or
ra cht
ĠĠer ste
ĠĠdeut lich
ĠĠMit tw
ĠĠMittw och
ĠĠgroß e
ĠĠPro di
ĠĠwe iß
ch es
le icht
ĠĠherv or
ĠĠmüss en.
r ib
ĠĠBedeut ung
ĠĠe vent
gre if
ll schaft
ĠĠInstitution en
wo hl
ĠĠI de
f t,
ĠĠÖ ffent
or gan
fr ist
ra in
ĠĠS ol
ĠĠmon itor
ĠĠres ult
im e
ĠĠtra d
ĠĠW ähl
ĠĠextre m
ĠĠin itiative
ĠĠt y
ĠĠk ind
- old
ĠĠmeet ing
ĠĠbec ome
ĠĠopin ion
ĠĠdo c
ĠĠadd ition
l ess
er s.
ĠĠcomm ittee
ĠĠrecog n
- term
ĠĠappro ach
ĠĠr ate
ure d
ic s
spra che
ĠĠT od
st ag
ĠĠ1 8
o hl
C O
ĠĠf r
l ück
c kt
ass en,
ie llen
ĠĠVorsch läge
ĠĠwel che
ĠĠPro j
ĠĠer reich
ag en
ĠĠ 000
o .
ig ran
ĠĠs up
ĠĠT o
ĠĠadop ted
ĠĠacc ess
ĠĠWed nes
ĠĠWednes day
ĠĠre ally
ĠĠme ans
me work
ien ce
ĠĠto wards
ĠĠav ail
ĠĠcond itions
ĠĠth ird
ĠĠeconom y
ĠĠre v
ĠĠopport unity
ĠĠof ten
al led
ĠĠJ o
-year -old
ĠĠS itz
ĠĠb it
ĠĠPräsident in,
ĠĠPro gramme
l t
ĠĠdar an
m ö
ĠĠhin sichtlich
glie der
ĠĠjed er
ĠĠs etz
ĠĠIn formation
ĠĠbe iden
b ild
ere cht
ĠĠSch ul
f ol
ren ze
ĠĠZu kunft
al ys
ĠĠsag en
ĠĠG esch
ĠĠU hr
5 -
ĠĠwen ig
gab e
ĠĠz ie
n ung
ĠĠwo hl
sm it
ĠĠver s
um en
ĠĠt err
gese hen
l ungs
ĠĠGe gen
ĠĠT amp
ĠĠTamp ere
ĠĠstaat lichen
ts .
ĠĠIntern ational
ĠĠsag t
ĠĠ( H
ĠĠst ar
hal f
ĠĠParliament ,
ĠĠref er
sel ves
ĠĠt able
ĠĠans wer
ĠĠwho le
for e,
ĠĠneed s
ĠĠide a
ĠĠse ver
ĠĠp ay
ĠĠha ving
ĠĠiss u
ĠĠloc al
ĠĠsh ort
ĠĠl ow
ĠĠproposal s
ic e.
ĠĠsh are
ĠĠm et
ĠĠhe ad
ĠĠth ings
- c
pend ent
ĠĠb ill
ur f
l üss
ĠĠvor lieg
ĠĠuns eren
ver b
ĠĠIn d
ĠĠP rü
) ,
ĠĠSt r
ĠĠAn frage
sid iar
im um
ĠĠEr ika
ĠĠDisk uss
ner halb
ĠĠD ar
ess e
ĠĠn or
ĠĠR es
ĠĠBinnen markt
hand lungen
ĠĠlie g
ĠĠent wick
ial og
ĠĠP art
ĠĠHil fe
fe hl
ĠĠM c
enn t
ĠĠF ort
ĠĠR ück
ĠĠSt ahl
kon trolle
ĠĠThe at
- H
ĠĠHul ten
ĠĠN o
g ress
ĠĠKosov o
ĠĠWo hn
- s
ĠĠto t
at ives
ĠĠapp ropri
ĠĠreport .
ĠĠinclud ing
ĠĠch e
ĠĠp ast
ĠĠfra mework
ĠĠm ight
a ve
ĠĠW hen
ĠĠke y
ĠĠre ach
ĠĠv al
ĠĠth ough
ĠĠinstit utions
cc ess
ĠĠl if
ĠĠArtic le
ĠĠh on
ĠĠGerman y
ocrat ic
mal s
ĠĠKolleg innen
ĠĠV iel
tre ten
ig es
s an
ĠĠSch utz
ed er
z uf
ĠĠä ußer
ost en
ĠĠJan u
ĠĠZ us
ĠĠJ ul
ĠĠhal te
ĠĠR om
ĠĠn äm
ĠĠa k
ĠĠBe f
ĠĠUn s
ĠĠF ür
ĠĠA kt
fä h
ig te
öl k
dern ,
ĠĠÖffent lichkeit
ĠĠFrau en
ĠĠse hen
m itt
ĠĠJ on
ast ung
ot t
ure .
ĠĠatt ention
ĠĠextrem ely
ĠĠen ough
ĠĠall ,
ĠĠadd ress
ĠĠincre ase
ĠĠavail able
ĠĠgreat er
ĠĠcompan ies
ak es
ĠĠindust ry
ĠĠpl ans
ĠĠst aff
amp ions
ĠĠhoff e,
ĠĠw iss
ĠĠL ös
s ätz
pro chen
ĠĠw issen
ĠĠer inn
ĠĠAb stimm
ĠĠein deut
5 -0
er st
ĠĠsow ohl
at el
ĠĠN or
k auf
ig ungs
ĠĠver sch
ra chte
ig en.
ĠĠhin aus
ĠĠWirtschaft s
ĠĠPräsident !
lä tz
ĠĠKommissar ,
v est
ĠĠen g
ä ter
ärk te
ĠĠBehör den
ĠĠW ähr
ism us
ĠĠG o
ĠĠ1 00
le men
ĠĠGen eral
ĠĠK arl
el ,
ĠĠimplement ation
ĠĠv ol
ĠĠr und
ĠĠe l
le t
ĠĠC our
ĠĠAmer ic
ĠĠy o
ĠĠpre vious
ĠĠdanger ous
ĠĠcrit ic
ĠĠthem .
ĠĠto ld
c om
ĠĠexamp le,
ĠĠob vious
ĠĠst ates
t ain
ĠĠch allen
ĠĠpl ann
loy ment
ĠĠhal f
ap s
ĠĠcomple te
ĠĠle ader
ĠĠTreat y
ĠĠmone y
age d
ĠĠst ress
ĠĠo il
ĠĠas yl
ĠĠasyl um
ĠĠAust ral
ĠĠz ahl
ĠĠWoch e
rag en,
ĠĠT re
ĠĠf rü
ge ,
ĠĠab ge
un ehm
ĠĠführ en
ĠĠnäm lich
ĠĠAn tw
s weise
ch er
ĠĠver ste
ĠĠaller dings
b est
ĠĠer h
ĠĠBeschäft igung
ĠĠM et
ĠĠhab e,
ĠĠBe am
ĠĠl ink
ĠĠW er
ĠĠEnt l
iv id
b an
ĠĠF amil
am er
ĠĠdem on
ĠĠT ib
ĠĠK inn
ĠĠKinn ock
- f
ĠĠ 0
ĠĠbe half
ĠĠvar ious
ĠĠse ek
sel f
ĠĠTh ese
ĠĠits elf
ĠĠask ed
ĠĠw ater
ĠĠwel come
ĠĠtrain ing
ĠĠexamp le
ity ,
ĠĠcar ry
ĠĠf ield
ĠĠindust r
eren ce
ĠĠcon st
ĠĠh ard
ĠĠc reat
ĠĠb udget
ed i
ĠĠPap er
ĠĠc ult
ĠĠt ry
ĠĠin j
ĠĠC ar
ĠĠall es
ste llen
ĠĠO p
ĠĠAus sprache
ĠĠ- ,
ĠĠIn itiative
ĠĠAnge legenheit
ĠĠGrund lage
ĠĠB esch
ĠĠW ort
ĠĠW ahl
ĠĠmach en
z ogen
ĠĠg rund
ät igkeit
ĠĠhe iß
imm t
ĠĠ( A
ß en
m aß
icht en
ĠĠAbgeordn eten
stell en,
ĠĠin nerhalb
rit ten
ĠĠWe ise
/ 2
ĠĠl änd
ag er
ĠĠer folg
ĠĠof t
ĠĠEben e
ass en.
ĠĠf ast
ĠĠGemeinschaft s
ĠĠd essen
ĠĠnach dem
an gen
uß en
on ,
as k
ĠĠStra f
ĠĠm ar
/99 )
re am
ĠĠY ou
ĠĠaw are
ĠĠp ress
th ing
se cut
ĠĠhe ar
ĠĠthis ,
ĠĠcurrent ly
ĠĠwhich ,
ĠĠtransparen cy
ĠĠoff er
ĠĠr ural
ĠĠso c
ĠĠconc lus
ĠĠbeh ind
ĠĠo pp
ĠĠFed eral
ĠĠjust ice
ĠĠMü ller
ĠĠCor by
ĠĠCorby n
merk sam
ĠĠZ ug
ĠĠSch ro
ges etzt
ri ft
hal ten.
ĠĠG eschäft
ĠĠ1 3
ĠĠges am
ĠĠg ar
te uer
ig t.
ge gen
leg en,
ind est
is te
ĠĠeben so
ĠĠs um
ĠĠB o
ĠĠar beit
ĠĠEx per
ĠĠver st
ĠĠM itte
00 6
h ab
kt or
ĠĠw ahr
ust rie
zeit ig
ĠĠble ib
ĠĠich ,
ĠĠAm ster
ĠĠAmster dam
ĠĠp h
b urg
nah m
ĠĠG re
ĠĠW el
h men
- J
al ,
ĠĠIn de
ĠĠClin ton
- C
ĠĠin t
id d
ĠĠenvironment al
ĠĠsever al
ro w
ct ive
ort h
ĠĠl ik
ĠĠyear s,
p ect
ĠĠsign ific
ĠĠc irc
ĠĠeffect ive
ĠĠapp ly
it ing
ĠĠme an
ĠĠemp has
ĠĠsu ccess
ĠĠcar ried
ĠĠa im
ĠĠm us
ic e,
ĠĠt urn
oc i
ĠĠD o
ĠĠfra ud
ĠĠwiss en,
ĠĠMon aten
ĠĠihre m
ĠĠkein en
ĠĠger ade
ĠĠSchro ed
ĠĠz unächst
ü ro
p rü
ĠĠGe fahr
ĠĠso gar
ĠĠEurop as
ĠĠvor ,
ĠĠK apital
ĠĠErgeb nis
re chen
ĠĠwicht ige
ĠĠÄnder ungsant
ĠĠsech s
ĠĠStaat en
ĠĠAus druck
ĠĠst reng
le v
ĠĠpriv ate
ĠĠp ot
ĠĠkönn te
neh mer
ĠĠher aus
de ute
ĠĠb re
ĠĠp o
ĠĠP er
ĠĠK ran
ent en
ĠĠan alys
g ere
ure ,
ĠĠn u
ĠĠJust iz
ĠĠUn g
ĠĠMit arbeit
m b
and s
ĠĠ(H -0
/99) :
ĠĠf l
- b
ĠĠC omp
ĠĠst orm
ĠĠv is
ĠĠout s
ce ed
ĠĠdoc ument
ĠĠregard ing
ĠĠind ic
ĠĠgood s
ĠĠachie ve
ĠĠFin ally,
ĠĠqu ick
. m.
ag ing
ĠĠinvol ved
ĠĠf riend
ĠĠresour ces
ĠĠA ff
ie w
oc us
ĠĠc entral
ĠĠco de
c lear
ĠĠCour t
or k
ĠĠc rim
ĠĠc ris
ĠĠjed en
ĠĠin st
ĠĠDies er
ĠĠpolit ischen
ateg ie
ĠĠdis k
ĠĠeinz eln
nehm en,
in ge
ĠĠüb r
ĠĠGem ein
ĠĠSicherheit s
ĠĠgef ähr
ĠĠS an
ĠĠG renze
ĠĠAntw ort
ĠĠs org
ĠĠwes ent
ĠĠA ußer
tro llen
ĠĠ1 .
w är
ĠĠk lein
ör der
m ar
s ame
eit s
ĠĠein fach
h ä
ĠĠwirtschaft lichen
ĠĠArbeitsp lätz
ann ten
1 .
ĠĠA sp
ĠĠK rit
ĠĠDam it
le b
is ,
r itte
- h
ĠĠK ar
g end
z ess
ĠĠ ident
ĠĠun abhäng
ü d
- m
is es
ĠĠar g
ĠĠM y
ĠĠSy r
es ted
ĠĠreport ,
ĠĠpre c
fort un
ene f
ĠĠpropos ed
omm end
ĠĠsim p
ĠĠh old
ĠĠamend ment
ĠĠequ al
iv ely
ĠĠfor ce
ĠĠincl ude
ĠĠp ost
ĠĠch ang
ĠĠnot hing
ĠĠadminist ration
ĠĠle ft
ĠĠres ul
ĠĠstud y
ĠĠofficial s
out h
ĠĠa way
ĠĠd ue
ĠĠRep ublic
ĠĠj ud
idd le
ĠĠann oun
ĠĠf ish
ĠĠC roat
ĠĠCh ampions
ĠĠK ön
ä ss
os ition
rie f
rauch er
ĠĠSte ll
r ück
ĠĠVertra uen
ünft ig
ĠĠH ö
ĠĠeurop ä
ĠĠbe ispiel
ĠĠGr ün
ĠĠbe vor
ĠĠer hö
as ch
ĠĠerw ä
ies en
ĠĠF ol
ĠĠme isten
o ber
ier ungen
ĠĠSch aff
au er
ĠĠKommission smit
we il
ĠĠBe kämpfung
ĠĠver d
n ,
ein ander
ĠĠ .
ĠĠW og
ĠĠWog au
ĠĠdem okrat
ĠĠgen er
ult ur
ĠĠm en
ĠĠ8 0
ö ffent
- D
ĠĠVer letz
ra b
iv il
at is
ĠĠun t
ck s
ĠĠm od
ĠĠgo vern
secut or
ĠĠb enef
ĠĠrece ived
ĠĠte ll
ĠĠseem s
ĠĠquest ions
ĠĠserv ices
ĠĠfin al
os ed
ĠĠcl ass
ĠĠs ure
ĠĠStates .
ĠĠSt ruct
ĠĠStruct ural
ĠĠres t
ĠĠp op
ĠĠsoc iet
ĠĠde f
o ve
ĠĠimm edi
ĠĠcom ing
ĠĠret urn
ar y,
ĠĠj oint
ĠĠch ild
olog ical
ĠĠcons um
ĠĠs l
ĠĠI G
ĠĠQu est
ĠĠF o
ĠĠd isch
ĠĠdisch arge
ĠĠh ous
ĠĠschw ier
ĠĠder art
ĠĠmach en,
ĠĠp rü
sch utz
aus sch
än ger
ün sch
enn en
ĠĠvor gesch
re ib
ĠĠdisk ut
i ber
-S t
ĠĠeinzeln en
forder ungen
ĠĠer ziel
ĠĠinternational en
ĠĠAußer dem
e ich
h enden
ĠĠJ un
ä um
ĠĠeben falls
ater ial
g riff
ĠĠFrage ,
ĠĠA ktion
ĠĠfe hl
ĠĠm ult
ĠĠL a
ĠĠR and
ĠĠöffent lichen
w ür
wo hn
ĠĠPro du
spr uch
ĠĠg ilt
ĠĠM än
ĠĠFrank reich
ĠĠB ild
ĠĠBem ü
ĠĠK in
ĠĠT ur
imm ungen
ĠĠbet on
ĠĠP ar
behör de
ĠĠorgan is
a z
ĠĠm il
er s,
lie d
ĠĠF ühr
ĠĠS c
ĠĠcont ain
ĠĠyear ,
v ement
ĠĠperson al
ĠĠamend ments
ĠĠpre p
ĠĠexp lain
ĠĠrec ommend
ĠĠsug gest
ĠĠA fter
ĠĠent er
ru ction
ste ad
ĠĠth ing
ĠĠcommun ic
ĠĠfor e
ĠĠrel ation
ĠĠAff air
m ost
ĠĠfollow ing
ĠĠP ublic
ĠĠl ater
ĠĠpre vent
ĠĠc ross
ĠĠp oll
ĠĠmo ve
ĠĠ €
ĠĠF ern
ĠĠzahl reich
ĠĠ1 4
ĠĠk ommen
ĠĠn am
re gel
ĠĠW ar
ll ig
ĠĠer sch
res p
ĠĠpolit ische
ĠĠlegisl ative
ber eit
ĠĠak zept
ĠĠz uf
ĠĠbe l
ĠĠzu ,
es en
ĠĠRe i
ĠĠein heit
p flicht
ation en
re b
ĠĠHa upt
ĠĠE rach
ĠĠErach tens
te l
ĠĠSchaff ung
ĠĠPunk te
ie gel
ĠĠpers ön
ek te
hand lung
los igkeit
ĠĠEmp fehl
ĠĠbe deute
x is
ĠĠhin ter
he im
ĠĠ199 6
ĠĠReg ierungs
ĠĠInter essen
ĠĠGes prä
ĠĠMill iar
ĠĠL in
er weise
ĠĠin iti
ĠĠind ivid
komm en.
ĠĠ3 5
am a
ate .
ĠĠP S
ent ly
ce p
ĠĠdec isions
ĠĠro ad
lemen ted
ĠĠcon te
ĠĠconcern ed
ĠĠal though
gen cy
ĠĠm akes
ĠĠass ist
ĠĠf ocus
a ction
end ing
our s
c y,
ĠĠacc omm
ĠĠaccomm od
ĠĠinterest s
ĠĠfull y
u ard
ĠĠinde pendent
ĠĠtra de
us h
- O
ĠĠLe ague
op f
ĠĠsoll en
ĠĠt rotz
ĠĠgemeinsam en
ĠĠVerein igten
en der
ä st
ĠĠN icht
ĠĠzust änd
ĠĠErklär ung
hn t
ĠĠZ iele
ĠĠaus ,
ĠĠk rit
j ahr
- E
ĠĠdas ,
ĠĠg ese
ĠĠl ange
rän k
ĠĠwicht igen
ĠĠbeispiel sweise
itä ten
ĠĠent scheid
ĠĠS icht
ĠĠF est
ha upt
ĠĠD abe
ĠĠDabe i
ĠĠschließ lich
ĠĠer k
, 5
ĠĠBericht s
ĠĠgehör t
ĠĠD et
ĠĠP ra
ĠĠan .
ĠĠsp äter
ĠĠE ff
ĠĠWoch en
ĠĠ2 3
ĠĠEin führung
end es
ĠĠGes etz
t räge
ts ,
ö ff
t es
ĠĠEntl astung
r ug
än e
ĠĠre d
ĠĠob lig
m iss
ĠĠS am
ĠĠdes ign
he ad
ĠĠv ict
ĠĠO ne
p ite
ĠĠyo ung
ĠĠact ually
ĠĠgro und
ĠĠmajor ity
ĠĠe arly
ĠĠsup erv
ĠĠl ot
ĠĠsol ution
ĠĠimp lemented
ĠĠc ut
ĠĠEurope .
mit ted
ire d
ĠĠg ran
conom ic
ĠĠeff orts
ĠĠparl iament
ĠĠpolic ies
ĠĠto wn
rat ed
ĠĠrel ations
ĠĠwom en
ĠĠpolic y.
ĠĠstr ong
ĠĠc la
osp ital
ĠĠB la
ĠĠvo ters
ĠĠDon ald
ĠĠMet c
ĠĠMetc ash
ĠĠD och
ĠĠb itte
ĠĠer ne
aß t
ĠĠviel en
ges tellt
ĠĠD enn
ĠĠMon at
or ge
ĠĠgen au
ĠĠwar ,
ĠĠD i
ĠĠAbstimm ung
ĠĠVor sitz
ĠĠb zw
ĠĠbzw .
är en
r on
geb en,
ĠĠdurch ge
ut er
( CO
st ens
ĠĠZeit raum
ĠĠKatastrop he
ĠĠe ig
ĠĠh armon
ĠĠUm st
wär t
igkeit en
ĠĠÜber ein
ĠĠbe it
ĠĠG ese
ĠĠviel leicht
ĠĠR is
ĠĠRis ik
ran g
ĠĠA d
un ktion
ĠĠT ats
ĠĠste hen
l icht
st um
et s
ĠĠmein es
ĠĠFe hl
ĠĠländ lichen
ün st
ĠĠIn vest
ĠĠg lau
ens ion
u le
og raph
age .
land s
ĠĠauf ,
ĠĠbe troffen
alt ung
komm en,
ĠĠ2 4
kon ferenz
ĠĠfa il
ĠĠb r
ĠĠa ut
o y
h em
il m
ĠĠTheat o
ĠĠD av
her n
ĠĠ2 9
ĠĠpro gress
pt ion
ament al
ĠĠexpress ed
ĠĠbuild ing
ific ation
ĠĠyear s.
ĠĠconf idence
ĠĠf irm
ĠĠmention ed
ĠĠthat .
ĠĠgroup s
ĠĠimpro ve
hes ion
ĠĠcolle ag
ĠĠpow er
re w
ĠĠw an
- in
ub lish
r ic
ĠĠste el
ĠĠar r
ĠĠman agement
ĠĠprof ess
sh ip
ĠĠsc ient
ĠĠc amp
ĠĠJo hn
ĠĠverschieden en
den k
ĠĠLös ung
richt ung
st ra
i ,
äch lich
isch es
ĠĠeing es
z ü
ĠĠGeschäft s
ĠĠMit glieder
ĠĠgesag t,
ĠĠver n
hal ten,
ĠĠeigen en
ĠĠC o
ge hen
ĠĠNat ürlich
ver kehr
te t,
ĠĠglaub e,
ges tell
rie ben
ĠĠP rior
rat ul
ĠĠverb ess
ĠĠmuß .
ĠĠNot wend
at ur
ĠĠwürde .
ĠĠTats ach
ĠĠeindeut ig
ĠĠVer handlungen
rä cht
ĠĠPl an
ĠĠer n
ĠĠum fass
ĠĠMen sch
ĠĠl and
ĠĠK omp
ĠĠz entral
- W
ĠĠSt adt
ĠĠer m
ĠĠgeb en,
ĠĠGeb iet
ĠĠFort sch
ĠĠW ill
ĠĠVerb raucher
ĠĠm ass
- N
m ark
ĠĠBet rug
ĠĠT ür
h o
ĠĠh ist
ĠĠTib et
ĠĠB en
ubl ikan
ĠĠsuf fer
ĠĠm er
leas ed
ia ,
ĠĠd raft
ĠĠd on
ĠĠregul ations
ĠĠit em
ĠĠsay ing
i pp
ĠĠrequire ments
ĠĠf ight
ĠĠrep e
ĠĠprovid ed
ĠĠcomm itte
ĠĠestablish ment
ĠĠm iss
ĠĠun emp
iven ess
ĠĠmov ement
th eless
ĠĠt ack
ĠĠdire ction
is c
ĠĠs an
ĠĠS port
ĠĠSitz ung
re ck
ĠĠdenk e,
ner stag
ĠĠer fü
ĠĠF isch
ĠĠBeg inn
ĠĠgem acht
fra gen
ĠĠStell ung
ĠĠN ov
ĠĠNov ember
ĠĠZ um
ĠĠbess er
ĠĠZ weit
ĠĠÖ sterreich
schließ end
ĠĠweit eren
ĠĠB el
ĠĠFor m
ein t
ass er
ĠĠS w
ar ten
ĠĠmuß ,
ĠĠNotwend igkeit
ĠĠBed ing
ĠĠbe hand
ĠĠL assen
-2 006
ĠĠVerb ess
ĠĠstaat liche
ing en
ĠĠsozial e
e llen
me hr
ĠĠw ider
ĠĠinter ess
ĠĠfor der
ab el
ĠĠ1 ,
u x
ĠĠ( S
sch n
ĠĠBemü hungen
ĠĠind em
spro zeß
ĠĠgesag t
I I
ĠĠJon ck
ĠĠJonck he
ĠĠ2 7
ĠĠO ff
ĠĠV olk
oll ar
ĠĠStud ie
b ring
ĠĠEurop ol
ĠĠSch m
ag n
ĠĠA ußen
l ings
ĠĠG ol
ĠĠe th
ut es
ĠĠabsol ute
ĠĠSyr ien
bo ard
ĠĠproject s
ĠĠob s
ren ch
ĠĠpres ented
ĠĠke ep
ĠĠexam in
ĠĠhe alth
ĠĠcomm ents
ĠĠCon feren
ĠĠstand ards
ĠĠindivid ual
atis f
ĠĠunt il
ĠĠdoub t
ĠĠguarante e
im ate
ĠĠtak es
o ol
ĠĠStates ,
et ary
ag es
ĠĠstruct ural
ĠĠbas ed
ĠĠp ublish
ĠĠsignific ant
go vernment
government al
ĠĠaid .
ĠĠco ver
ĠĠo ld
ĠĠfor mer
ĠĠinvest ig
ĠĠg ot
ĠĠt ask
il led
ĠĠfreedom ,
ur y
ĠĠP rent
ĠĠPrent iss
ĠĠAustral ia
ĠĠcl ub
ĠĠDon nerstag
o ten
geleg t
ay ,
ĠĠGer icht
ĠĠdafür ,
ĠĠhat ten
ĠĠE m
ĠĠanges ichts
i ere
ĠĠauf grund
weis en,
p l
fass ung
ĠĠge geben
ĠĠHin blick
ĠĠAus bild
p f
ĠĠwurd en,
ĠĠbetriff t,
g än
ĠĠoff ens
kt .
ĠĠalle in
ĠĠG ruppe
ĠĠAn st
äl le
re icht
ver fahren
ĠĠBeit rag
ĠĠre in
ĠĠwurd en.
zus tell
ĠĠBeschäft igungs
j en
ĠĠ ,
ul s
ĠĠsch nell
ĠĠK omm
scha ft,
ul f
f ind
ĠĠBe zie
h ält
ĠĠG l
iel le
sequ en
p unk
ĠĠKran ken
und heit
ĠĠN r.
s ystem
sp iel
ĠĠKon t
ĠĠMilliar den
ĠĠfa ir
ance ,
re h
ĠĠF uß
ar ch
ĠĠM or
ĠĠLebensmittel sicherheit
ist an
ĠĠPat ten
ĠĠWähl er
ier s
ĠĠRat sp
ĠĠSch en
ĠĠFlücht ling
p or
ĠĠen erg
ĠĠin fl
i led
ĠĠappropri ate
ĠĠv iol
ĠĠty pe
ĠĠF rench
ĠĠacc ord
ĠĠinde ed
ĠĠacc ident
ĠĠac cep
ĠĠex cept
ĠĠSe cond
ab our
ĠĠO ur
l ud
ĠĠp .m.
c y.
ĠĠprep ared
at ic
ĠĠit ,
ĠĠstreng th
ĠĠal most
ĠĠgrow th
ĠĠprocess .
ĠĠprodu ct
ĠĠen c
ĠĠI ts
ĠĠcre ate
ĠĠFran ce
ĠĠmarket s
ĠĠS ince
ĠĠro om
ĠĠex ch
ĠĠCouncil ,
ar ian
ĠĠw in
ĠĠPal est
ĠĠUn iversity
f ern
ĠĠdar stell
te id
in ne
ĠĠwar um
ĠĠRechts vorsch
im al
g lichen
ĠĠwo bei
ĠĠsol chen
ĠĠj em
ĠĠz us
ĠĠK och
ĠĠk omp
ĠĠVer füg
ĠĠw id
f ert
geh end
ĠĠges tellt
ĠĠzweit e
n ern
ĠĠweiter hin
ĠĠSch ritt
ĠĠgem einschaft
ĠĠpos it
ĠĠf lex
ĠĠbek annt
il ung
S )
ĠĠEn erg
for men
ĠĠfinanz iellen
ĠĠn ah
ĠĠSch luß
ĠĠregional en
e ch
e hr
ĠĠbef ind
ĠĠin form
rupp en
b our
w ahl
hil fe
ĠĠletz te
ĠĠMon ti
ĠĠUnter such
ĠĠzweit en
enn ung
ĠĠ2 8
ĠĠFreiheit ,
ĠĠB ank
ĠĠE l
t :
mp t
äst in
- Z
ĠĠDe c
ĠĠent ire
ĠĠconcern ing
ĠĠsaid ,
ĠĠfuture .
ĠĠcommit ment
ĠĠnon -
ation s.
un ities
ĠĠlim it
ĠĠE as
ĠĠdet ail
ĠĠreport s
ĠĠas pect
f ull
ĠĠnegoti ations
ĠĠhig her
ĠĠjob s
ĠĠab ove
ĠĠass ess
atel y,
ĠĠde v
ĠĠc alled
ĠĠwh ose
ĠĠund ert
ĠĠh it
ĠĠmember s
ĠĠParliament .
ĠĠb ig
ĠĠPro secutor
ĠĠwan ted
ĠĠli ability
c o
ĠĠF C
ĠĠC amer
ĠĠS ander
ay ne
ch sel
ĠĠNat ur
ĠĠSie ,
san walt
ĠĠvor zu
ĠĠmein em
ĠĠZ w
ĠĠR a
ĠĠword en.
ĠĠMehr heit
ĠĠVer gangen
ĠĠVergangen heit
ĠĠK osten
ĠĠD an
op ol
ĠĠAn fang
ĠĠge ht,
ĠĠmor gen
ĠĠStand punkt
ĠĠG ü
ĠĠMon ate
ĠĠdür fen
es t,
hö hung
ĠĠS el
ĠĠb eschäft
nehm en.
ĠĠerwä hn
beding ungen
ĠĠpra kt
ĠĠp a
ĠĠmein en
ĠĠne u
ĠĠStruktur fonds
ĠĠKo hä
ĠĠKohä s
ĠĠN ational
v ölk
le i
ĠĠEr fahr
ĠĠVerwalt ung
ĠĠWie der
ier enden
p r
for derung
ĠĠver hin
ĠĠstärk er
ĠĠwür den
ĠĠIhr en
l im
ü t
ĠĠVertrag s
ĠĠBest immungen
ĠĠh och
ol id
ĠĠD ollar
h ere
ĠĠir gend
ĠĠver öffent
ch an
- up
ĠĠpr im
ĠĠMe er
ĠĠB il
ĠĠS he
ĠĠF ahr
ĠĠportugies ische
on y
ĠĠN ah
p re
ĠĠa ud
ĠĠb l
ĠĠconcern ed,
ĠĠyou ,
urs day
ĠĠs ett
ĠĠe ith
ĠĠm ess
ĠĠMon day
ĠĠb ody
ig in
ĠĠfe ll
arl ier
ĠĠrec ord
ĠĠf lo
ĠĠO f
ĠĠbe ar
ĠĠcontin u
f icient
on se
ĠĠbeg in
ĠĠbro ad
ĠĠaff ected
ĠĠFund s
ĠĠOb ject
ĠĠGo vernment
ĠĠview s
ĠĠpolic y,
ĠĠse ason
ĠĠup on
n ers
ĠĠb ad
ĠĠcur ren
ĠĠlong -term
ĠĠdam age
ĠĠpro b
able .
ĠĠbeginn ing
ĠĠs qu
ĠĠe mer
ĠĠsol idar
ĠĠa head
ĠĠfo ot
ĠĠannoun ced
ĠĠst or
ĠĠQuest ion
a ign
ĠĠM iddle
ĠĠC elt
ĠĠCelt ic
st adt
ĠĠd ont
ĠĠunter b
ĠĠ( D
ĠĠtun ,
en ?
ĠĠLe g
ĠĠentsprech ende
g ü
I n
ĠĠKollegen !
ĠĠweiß ,
ĠĠbet re
ĠĠhin gew
ĠĠTobin -S
5-0 10
2 0
ĠĠbegrüß e
ĠĠA ugen
ĠĠSel bst
ĠĠKon trollen
ĠĠgegen wärt
ĠĠver antwort
ber eich
ĠĠTransp ort
ĠĠD amen
( 1999
(1999 )
ĠĠl ok
ĠĠVorsch riften
ĠĠ2000 -2006
ĠĠVerbess erung
ĠĠhät ten
ĠĠhät te
ĠĠHer aus
heit en
ĠĠKommissionsmit glied
ĠĠGe legenheit
ĠĠglau be
ges etz
ĠĠRicht ung
ĠĠste llen
ĠĠSeit e
ĠĠg ra
I P
er ve
ĠĠd ring
ha ft
ĠĠT ra
ĠĠD is
ĠĠkon troll
ĠĠwel tw
ĠĠweltw eit
ĠĠin n
ĠĠJ e
ĠĠtrad ition
ĠĠR ad
ĠĠsub st
ĠĠar m
ĠĠTe am
an y
is her
ĠĠK andid
ĠĠD al
iv al
ĠĠFlücht lings
ĠĠSchen gen
ĠĠUng arn
ĠĠde ath
ĠĠTh ursday
ĠĠra ise
ĠĠdes pite
ĠĠfund amental
ĠĠdra w
ĠĠincreas ed
ĠĠen for
ĠĠrel ating
ĠĠappro ved
ĠĠdes c
ĠĠqu ar
ĠĠcon g
ĠĠcong ratul
ĠĠsa fe
ment .
ĠĠyear .
ĠĠcompan y
ĠĠeff ort
ĠĠobject ive
ĠĠdiscuss ion
ĠĠdec id
ator y
ĠĠst op
ĠĠrequire d
ĠĠf ig
ĠĠto ok
ĠĠra ised
ĠĠunemp loyment
ĠĠal ong
ĠĠcon du
ĠĠconsider ed
ĠĠshow s
ĠĠh ospital
ĠĠ( 1
ĠĠobvious ly
ĠĠAmeric an
ĠĠDire ctor
ĠĠjud icial
ĠĠs us
ĠĠne ar
ĠĠin spect
ĠĠf lag
ĠĠs w
ĠĠC hr
ĠĠnu clear
ĠĠfamil y
ĠĠCar son
ĠĠIG A
ĠĠB M
ĠĠge ben
utz en
ĠĠmach en.
ĠĠt ats
üss el
ĠĠStra ß
an de
staat en
ĠĠPro f
ĠĠMon tag
ĠĠvor .
ĠĠW or
un t
ĠĠwill ,
ĠĠL iber
ĠĠPro t
ib il
ĠĠab gesch
ĠĠschaff en.
ĠĠK amp
ĠĠGese llschaft
ĠĠKommissar in
ĠĠZeit punkt
ĠĠS im
ĠĠL auf
ĠĠA ug
ĠĠC E
ĠĠEr w
em per
ĠĠInter esse
end ,
ers eits
ach en
ĠĠbe für
ĠĠben öt
eln .
ar f
ĠĠw ettbewerb
ĠĠCh ance
wür d
ĠĠK ons
arbeit ung
tre ter
ĠĠBereich en
ä den
ĠĠAuf gabe
ĠĠvor gesehen
ot s
ĠĠG ed
ĠĠÖ l
kon om
ĠĠb ie
ĠĠwar .
ĠĠk aum
ĠĠ1 1
ĠĠA k
ĠĠUn abhäng
ĠĠRegierungs konferenz
ĠĠK ern
ĠĠgib t,
lich es
ĠĠM ich
ĠĠÜber wach
ĠĠst ra
ĠĠBrit ish
ĠĠH ause
ĠĠmöglich erweise
ästin ens
ĠĠEin w
ĠĠS ar
ĠĠdec la
ĠĠapp e
us ed
ĠĠocc as
ĠĠfact ,
ĠĠobject ives
ĠĠpossible .
ĠĠv ot
ĠĠcomm ent
ĠĠcas e,
ĠĠtim es
le ct
ĠĠFirst ly,
ĠĠimplement ing
ĠĠin stead
ĠĠapp lied
ĠĠF urther
ĠĠorgan isation
ĠĠgran ted
ĠĠresp onse
ĠĠexist ing
ĠĠt ank
ĠĠE conomic
ĠĠhel d
ĠĠcommunic ation
ĠĠgr ant
c es.
ĠĠm atch
ĠĠfa ce
ĠĠchang es
h aps
ĠĠpartic ip
ĠĠc ru
ĠĠs ust
ĠĠsust ain
ĠĠenc our
ĠĠen l
ĠĠcomplete ly
ĠĠbro ught
ĠĠat te
ĠĠpract ice
ĠĠa ver
ĠĠhon our
ĠĠd rop
ĠĠass oci
ĠĠatt ack
ĠĠapplic ation
ĠĠsystem .
ĠĠbill ion
ĠĠdoub le
ĠĠT w
ĠĠcris is
ĠĠst ock
ĠĠM art
ĠĠcamp aign
ĠĠPalest in
ĠĠBay ern
ĠĠZ ins
or f
ĠĠmehr ere
t ent
g ern
z ul
ĠĠAb satz
ig lich
ĠĠwoll en,
zeichn et
ĠĠD ank
ĠĠN un
ĠĠbes ten
ĠĠPal ac
ĠĠPalac io
ĠĠse ien
ĠĠfrü her
zü glich
ĠĠB arn
ĠĠT ätigkeit
ĠĠins ges
w es
b ru
ĠĠnicht .
ĠĠne hm
ĠĠ ändern
ĠĠZweit ens
ĠĠb ald
ĠĠma x
ĠĠRei he
be zie
2 .
ĠĠtre ff
ĠĠstell t
ĠĠre ag
ĠĠgemein same
ĠĠzwe if
ĠĠDiskuss ion
am m
ĠĠbe zie
ĠĠre lev
ĠĠunser em
ĠĠVer s
ich en
ĠĠF unktion
ĠĠsicher lich
ĠĠgel ten
ĠĠSchroed ter
ĠĠZwe if
ĠĠB as
ĠĠW ach
ĠĠF örderung
ĠĠf rag
letz t
lä uf
ĠĠh äuf
ĠĠje weil
ĠĠB ern
ĠĠk ünftig
ĠĠver t
ĠĠl assen,
ĠĠob wohl
ĠĠLe ist
ĠĠbest ät
ĠĠM iß
ĠĠst imm
ĠĠtechn olog
z el
ĠĠeuropä ischer
ol z
m ann
ĠĠ6 0
ĠĠaus .
ĠĠSol idar
it er
ob il
ĠĠL ond
ig ers
ĠĠsei .
ĠĠSach verständ
ĠĠt ru
ĠĠW il
or n
m ier
ur m
ĠĠmil it
ĠĠsp ir
ĠĠ3 3
ĠĠDav id
ĠĠA ss
ĠĠDem okrat
he f
ĠĠsc ore
i ans
ĠĠrequ est
ĠĠs ent
ĠĠour selves
ĠĠtable d
ĠĠprop ose
it ial
ĠĠso on
ĠĠouts ide
ĠĠpro ceed
av i
ĠĠbut ,
ĠĠpre par
re ct
ĠĠdo ing
ĠĠcl ose
itt ing
ĠĠneed ed
ĠĠSecond ly,
ĠĠopport unities
c ement
ĠĠres ear
ation s,
ĠĠserv ice
au c
ĠĠhand ,
ĠĠhow ever
ĠĠcontrib ution
an ces
im es
ĠĠU K
ĠĠstrength en
ĠĠpop ulation
ĠĠexp ected
ĠĠb al
ĠĠf ree
av ing
ĠĠlevel s
stit ute
ĠĠconf irm
igh t,
ĠĠb ank
ĠĠrecogn ise
ĠĠf ear
ĠĠaccommod ation
ĠĠfor est
ĠĠSander s
er ien
ĠĠer heb
ĠĠj ün
ĠĠbetriff t
ĠĠled iglich
ĠĠle ider
z ös
ĠĠent sp
n issen
ĠĠErgeb nisse
ĠĠB üro
ĠĠN ie
qu al
ĠĠh alt
ĠĠv ö
ĠĠhe ut
ĠĠW affen
ĠĠPrü fung
ĠĠÄnder ungen
ĠĠP arte
d rück
ĠĠgen üg
ĠĠwir ,
ĠĠRom an
ĠĠVer fahren
ĠĠFe bru
ĠĠwürde ,
ĠĠTobin-S teuer
im me
ĠĠRegional politik
ĠĠOrgan isation
ĠĠunter schied
schließ lich
k raft
ĠĠunterstütz en
verständ lich
ĠĠIt al
ĠĠÄn derung
ĠĠRechtsvorsch riften
ĠĠbestimm te
ĠĠer l
tra gen
k rat
ĠĠn ied
is tet
ĠĠgleich en
ĠĠMitte ilung
ĠĠKön ig
ĠĠEr folg
ĠĠBe völk
ĠĠerw arte
teil ung
ĠĠEin satz
ĠĠQ ual
b are
ĠĠfor dern
ĠĠProj ekt
ĠĠfun ktion
ör per
fäh igkeit
ie ,
ĠĠauch ,
ĠĠPra xis
ĠĠwoll en.
ĠĠRe formen
ĠĠZ unächst
ĠĠsoll .
z og
iz ien
ĠĠso fort
ĠĠAus s
age ,
ig ration
p lan
f re
ĠĠPortug al
ĠĠThem en
an ze
ĠĠGes undheit
ind ustrie
ĠĠein .
ĠĠFor sch
ö st
ĠĠmon opol
ĠĠRe chte
ĠĠW issen
at eral
än den
ĠĠgo es
att le
ĠĠwieder hol
ĠĠmonitor ing
ĠĠQ ue
ĠĠ( F
ĠĠV itor
ĠĠVitor in
ĠĠra d
ĠĠlang frist
1 1
ĠĠ2 ,
ĠĠb lo
ä us
ĠĠM iss
ĠĠSchiff e
it ze
ĠĠsub sidiar
ĠĠP ass
räs ent
ĠĠdemokrat ischen
ĠĠPl äne
ĠĠDal ai
our n
ĠĠh om
p art
5 0
et h
ĠĠde ad
ĠĠA ud
ĠĠNah en
ĠĠU N
ĠĠK roat
ul ative
ĠĠobs erv
ĠĠw rit
ĠĠprec is
ĠĠaccord ance
ĠĠst ated
ĠĠspecific ally
ĠĠagend a
ĠĠa ir
ĠĠin itial
ĠĠcon ne
ĠĠe arlier
ĠĠto mor
ĠĠtomor row
ĠĠadv is
ay .
ĠĠh uge
ĠĠsay ,
ĠĠactiv ities
ĠĠhig hl
ĠĠemploy e
ĠĠcountries .
ĠĠcirc um
ĠĠc ause
u ted
ar ily
ĠĠsp ok
ĠĠeffect s
ĠĠfund s
ĠĠpot ential
ĠĠlif e
ĠĠWh ile
ak en
ĠĠsch ool
ĠĠs id
ĠĠregard s
ĠĠcaus ed
ĠĠl iving
ĠĠcom b
ĠĠbec om
ĠĠse par
ĠĠprob ably
ĠĠr ates
ĠĠb od
ĠĠc oll
ĠĠsens e
ĠĠch o
-G en
-Gen eral
ĠĠc ame
ĠĠda ys
ĠĠaff air
ĠĠch ief
ĠĠBla ck
ĠĠwe ap
v ens
ĠĠNew s
-J ähr
ĠĠPro bst
ĠĠO t
ĠĠOt mar
gen omm
ben e
d en,
ĠĠE v
j ähr
ĠĠGrund satz
ĠĠD ok
ä ll
ĠĠf ran
ĠĠS inne
ĠĠso ,
k lag
ĠĠj ur
w urf
ĠĠwichtig sten
ĠĠen orm
aussch uß
ge f
ĠĠvö llig
ien en
ĠĠäußer st
gü lt
ĠĠVerwalt ungs
ĠĠver ein
ĠĠJ etzt
ĠĠPro zeß
ĠĠl og
ĠĠT at
k ünd
ĠĠhal ten
ĠĠübr igen
ĠĠ( C
sch lag
d urch
at ten
icht lich
ek ten
ĠĠst änd
ĠĠW asser
ĠĠHerr en
ĠĠPr inzip
ĠĠfind et
ĠĠFor derung
ö hn
ut en
eln ,
ĠĠge forder
ĠĠ1999 /2
(CO S)
-R e
ĠĠK raft
ck en
en ken
our c
ĠĠver füg
ĠĠMed ien
g en,
ts k
maß nahmen
ĠĠJ ug
ĠĠSte llen
ode x
ĠĠAb sicht
ĠĠer greif
ĠĠM ut
f el
ak is
ĠĠEmpfehl ungen
ĠĠdo pp
ĠĠAbgeordne ter,
ĠĠZ ur
ĠĠe hr
ĠĠvor her
ĠĠspe zie
ent scheid
ĠĠEntscheid ungen
ĠĠsch le
y p
ĠĠHö he
ĠĠver m
sh of
is iert
ĠĠPre is
ĠĠjed es
ĠĠO st
ĠĠklar ,
ĠĠe hem
ĠĠan ti
fä ll
schein lich
um p
ĠĠop eration
ĠĠ ign
ĠĠK ü
ĠĠp ur
ĠĠL ast
ĠĠ il
ĠĠT our
ĠĠH o
ĠĠp ort
end s
es ter
ĠĠ(H-0 7
ĠĠZ e
ĠĠMitarbeit er
or ,
ĠĠF el
ĠĠat tra
om s
ĠĠam b
ĠĠFlüchtling en
ĠĠFinanz m
ĠĠprecis ely
ĠĠrefer red
ĠĠConferen ce
ĠĠspe ech
ĠĠsimp ly
o ught
ĠĠanalys is
ĠĠexc lus
ĠĠs atisf
ĠĠship s
ĠĠquick ly
ĠĠl ive
ĠĠcircum st
ĠĠmatter s
ĠĠco ordin
ĠĠObject ive
ĠĠfund ing
ĠĠchallen ge
ĠĠenerg y
ĠĠimp ress
r icult
ĠĠcru cial
ĠĠm id
ĠĠus ing
ens ive
full y
ĠĠword s
ĠĠacc oun
t ic
ĠĠe as
ĠĠde ter
ĠĠgo al
ĠĠc ust
ĠĠfun ction
ĠĠE ast
ĠĠc andid
ĠĠg am
ion s,
ĠĠexch ange
ĠĠv ess
ĠĠTur ke
ĠĠs ales
ĠĠdem ocratic
ĠĠY ork
ĠĠM un
ĠĠSchm id
ĠĠEng land
let t
ov ic
ĠĠKon rad
ĠĠWo od
ĠĠH ayne
ĠĠMein e
ĠĠAn geb
ĠĠtats ächlich
ĠĠent schieden
ĠĠver ab
ien ste
ĠĠun ver
ĠĠJanu ar
ĠĠPräsident en
z unehm
ĠĠAn trag
te t.
ĠĠer arbeit
ung en.
ĠĠSach e
ĠĠdarum ,
z ähl
ĠĠKolleg en,
/1999 )
/ E
g ut
le ben
ĠĠa cht
ĠĠwesent lichen
ĠĠCh ar
ĠĠre gel
uch t
bar en
är z
ĠĠä hn
ĠĠer halten
ĠĠm ü
an ten
ĠĠBeding ungen
r ig
ive au
ĠĠSch ließ
ĠĠer ster
ĠĠSt at
ind ung
hab en
ĠĠWach stum
ĠĠern st
ĠĠT err
m ach
fol ger
ĠĠD ialog
el ten
zip lin
k ur
-P ro
ĠĠH äl
im ension
ĠĠMo dern
ĠĠnotwend ig
ĠĠW est
ĠĠinsges amt
ĠĠKrit ik
ĠĠAbgeordne te
ĠĠFortsch ritte
schn itt
ich tet
ubl ik
ĠĠes ,
rach t.
ter .
ĠĠKin der
ĠĠR ap
bei hil
re chte
ĠĠleg it
ĠĠdiff eren
ĠĠIde e
ein e
ĠĠz ul
ĠĠRo ber
ĠĠVer pflicht
ĠĠ ult
re if
ä cht
fl i
fli kt
en g
ĠĠehem al
ĠĠI r
d ire
ĠĠnor mal
ĠĠSe e
ĠĠ9 0
are t
ĠĠil leg
ĠĠE C
qu e
h an
ĠĠS al
ĠĠD r
ĠĠk am
ĠĠdemon str
S E
3 0
ĠĠChin a
ĠĠspir it
A C
ĠĠFinanz kontrolle
ĠĠRatsp räsident
ĠĠIn nen
ĠĠb ar
- U
ĠĠRep ublikan
us e
ĠĠT igers
ĠĠex e
ĠĠabsolute ly
ĠĠaccep ted
ĠĠthere fore,
ĠĠrem ind
ĠĠth ought
ĠĠam ount
ĠĠl ight
ĠĠmarket .
ĠĠte xt
ĠĠcongratul ate
as ons
ĠĠcas es
ĠĠb rief
ĠĠw a
er c
ance .
ĠĠso und
ur es.
du c
ĠĠsch em
as t,
ĠĠstrateg y
ĠĠrev iew
ĠĠag ricult
ĠĠd ialog
ĠĠL et
ĠĠhe ard
ĠĠredu ce
ĠĠS ome
ai led
ĠĠint ention
o id
ĠĠS outh
ĠĠcla im
ĠĠex tent
ĠĠput ting
ĠĠcons ult
ĠĠconte xt
ĠĠmot ion
ĠĠarea .
ĠĠreg ister
ĠĠe c
ĠĠag o
ĠĠtry ing
ĠĠth reat
at her
ro wn
ĠĠg ave
il ar
ĠĠC ent
t ons
igran ts
ĠĠon line
ĠĠ201 6
ĠĠ £
ĠĠI A
ĠĠIA A
ĠĠG a
haus en
ĠĠjün g
on n
ĠĠan geb
ĠĠSt abil
el t,
ĠĠfran zös
ĠĠsoll ,
ĠĠPl en
ĠĠmit teil
ĠĠW es
ĠĠL uf
ĠĠL y
p räsident
ĠĠbe ant
ĠĠs end
ĠĠN ur
ĠĠjed e
ĠĠjem and
ĠĠAn aly
ĠĠaus reich
ĠĠzus ätz
auf trag
ĠĠRegel ungen
ĠĠge k
ĠĠze hn
ĠĠbes ondere
ĠĠaußer dem
ĠĠS um
ĠĠbet rachte
ĠĠMöglichkeit en
ĠĠführ en,
ĠĠeff ekt
M (1999)
ĠĠend lich
ĠĠVor aus
ĠĠbe deut
ĠĠmach t
us ,
at isch
ĠĠsoll te.
ĠĠhö her
ĠĠAnsicht ,
ĠĠver w
ĠĠE ind
fr ast
i en.
zent r
leg ung
ĠĠdar in
enn en,
ĠĠBezie hungen
ĠĠJug end
ĠĠun e
ĠĠInformation en
ĠĠEntwick lungs
ĠĠW eit
z ,
ĠĠun beding
ĠĠunbeding t
ĠĠauf .
i ben
ĠĠWähr ung
ĠĠRap k
ĠĠ( B
ĠĠGericht shof
ĠĠper f
a ktionen
ĠĠan erk
sch äd
organ isation
ĠĠin e
ĠĠ199 5
ol ution
ĠĠHa ft
ĠĠadminist rat
l ass
ĠĠFrieden s
ĠĠm ag
2 ,
ĠĠM erk
ĠĠd at
ĠĠPre mier
ĠĠe m
ĠĠportugies ischen
ĠĠhist or
ĠĠö sterreich
ĠĠer teil
ĠĠSt unden
an a
ourn al
i at
ĠĠam t
ĠĠPe ter
l ad
hing ton
der s
ĠĠW en
ĠĠF rid
ĠĠAl though
ĠĠun fortun
ĠĠnew s
ĠĠwell .
ĠĠh op
ĠĠqual ity
ĠĠt est
ous ly
ĠĠevery one
ated .
ct ions
ĠĠdecla red
ĠĠB y
ĠĠtim e.
mor e,
ĠĠsuf ficient
ĠĠun i
ĠĠstand ard
ĠĠAustri a
ist ic
ĠĠprior ity
ĠĠl at
ĠĠb ure
ĠĠbure auc
ĠĠrem ember
ĠĠw orth
ĠĠcomp ens
ĠĠagre ed
ic ien
ĠĠdialog ue
ĠĠpart ners
ĠĠc ivil
ĠĠpract ical
ĠĠEurop e,
ĠĠcurren cy
ĠĠN ever
ĠĠproced ure
ĠĠs ort
ĠĠenl arge
ĠĠtot al
ĠĠex tend
ĠĠpur p
ĠĠav oid
ac cept
ĠĠcritic ism
ĠĠH ous
ĠĠl ine
ĠĠm inister
ĠĠthrough out
ĠĠt w
ĠĠle arn
ĠĠman uf
ĠĠmanuf act
ĠĠmarket ,
ĠĠposs ibility
o und
- d
ĠĠex em
ĠĠl oss
ĠĠac ross
ĠĠl ost
ĠĠse c
ĠĠcontrol .
ĠĠsolidar ity
ĠĠfore ign
ĠĠc le
ĠĠp ict
ĠĠm uss
ĠĠrep orted
ĠĠconf lic
en ior
ĠĠJohn son
ĠĠSa ison
ĠĠG uard
ĠĠ201 5
ĠĠD r.
ig aret
ĠĠFel ste
ĠĠHung ary
ĠĠDe z
un sch
ĠĠhat te.
ĠĠange m
ĠĠdurch aus
stand en
ĠĠerne ut
weis en
ĠĠerfü ll
et ition
ĠĠStaat sanwalt
ĠĠf al
l änd
l änder
ĠĠNach richt
lich .
ĠĠend gült
ĠĠf and
ĠĠZeit ,
geb en.
ĠĠverl ang
ĠĠMein ung,
ĠĠStr ategie
ĠĠKommission .
ĠĠab .
ĠĠbetre ff
ĠĠG el
bar ,
ĠĠan zu
ĠĠdank en.
ĠĠhabe .
ĠĠGü ter
ĠĠho hen
ĠĠSub sidiar
ĠĠum gesetzt
ss ystem
ĠĠan genommen
ĠĠzahlreich e
lück w
ĠĠIn strument
ĠĠkomm enden
ĠĠAuf merksam
ĠĠAufmerksam keit
ĠĠSchw ier
ĠĠSte lle
ĠĠPerson al
ĠĠHin sicht
ĠĠrel ativ
ĠĠgrund sätz
ĠĠwichtig ,
end .
ell os
ĠĠAb schließend
ĠĠg ere
ĠĠgem ach
ĠĠTatsach e,
ĠĠFre und
ĠĠDienst leist
ĠĠEnerg ie
ĠĠMensch en,
b s
ĠĠVer ordnung
ĠĠver tra
ĠĠf ör
ourc en
ĠĠPart ner
ĠĠnach halt
ĠĠj en
ĠĠDet ail
ĠĠent halten
ĠĠver g
ĠĠEin ige
ĠĠArbeits losigkeit
geleg ten
ĠĠHäl fte
ĠĠDa zu
ĠĠLeben s
ĠĠM a
ĠĠfor t
ab et
weit erung
b el
ĠĠterr itor
ĠĠU .
ĠĠZus ch
ne te
ĠĠe her
ĠĠEin sch
z io
alle l
ĠĠdring end
ĠĠEr n
ĠĠco up
ap e
ĠĠge troffen
ĠĠg anze
aus ch
ĠĠJonckhe er
ĠĠEin zel
ĠĠVer träge
m and
ĠĠkönn ten
ĠĠTe le
ĠĠdeut schen
ĠĠk n
ĠĠver wend
ĠĠgleich e
ĠĠGe walt
ĠĠW ährend
l ust
ĠĠWissen schaft
ĠĠ8 1
ĠĠW ahr
is e,
ĠĠIn teg
ĠĠSolidar ität
ĠĠbess ere
ĠĠb il
ĠĠAuf gaben
an t.
ĠĠS üd
ĠĠwahr scheinlich
geb ung
ie ll
ĠĠd est
ĠĠFuß ball
ĠĠnäch ste
all ,
s k
ĠĠer öff
ĠĠFamil ie
ĠĠNe u
ĠĠerklär te
me ter
ĠĠGesprä che
ĠĠLam a
um ents
ĠĠAsyl bewer
ĠĠAsylbewer ber
ĠĠeth n
ĠĠKranken haus
ĠĠPl atz
. 1
c el
ak s
ar es
ĠĠUm frage
ĠĠst ability
ĠĠs k
ĠĠm aterial
ib ly
ĠĠintrodu ced
ĠĠd ate
ĠĠInde ed,
igh t.
r ong
ĠĠeith er
ĠĠp urs
ĠĠTuesday .
ĠĠel se
ĠĠcl ar
ĠĠso .
ĠĠapp ear
ĠĠThere fore,
ish ed
ĠĠcor rect
ĠĠw ent
ran ge
ĠĠth ous
ĠĠtoday ,
ĠĠexper ience
ĠĠresear ch
ĠĠdis p
ĠĠany thing
ĠĠval ue
ĠĠcountries ,
ĠĠref erence
ĠĠissue .
ify ing
ĠĠparliament ary
ĠĠlook ing
ĠĠassist ance
ĠĠplann ing
ĠĠe duc
ĠĠcomm er
ĠĠwe alth
ĠĠprodu ction
ĠĠ ill
iz ed
ĠĠguidel in
ĠĠmed ia
ĠĠdire ctor
ĠĠgovern ments
theless ,
ĠĠenv is
ĠĠun accept
ĠĠtru e
ĠĠhigh ly
ĠĠexper ien
ĠĠse ven
ĠĠper form
o ted
ĠĠopin ion,
ĠĠno te
ĠĠch ance
ĠĠplann ed
ĠĠf ulf
ĠĠthem selves
ĠĠw onder
ĠĠc r
ĠĠn ight
ĠĠtalk ing
ĠĠsur ve
ĠĠin strument
l ies
ĠĠsuperv ision
ĠĠcult ure
ĠĠlik ely
ĠĠdef end
ĠĠex act
ĠĠC an
ĠĠoff ice
ĠĠdiscuss ions
it ch
ĠĠbo ard
ĠĠtrans fer
ĠĠc y
ĠĠAustri an
ĠĠch arge
ĠĠte ach
ĠĠSyri a
-O ff
ĠĠTrump s
ĠĠCorbyn s
ĠĠL abour
ĠĠQu art
ĠĠB in
ĠĠKroat ien
ĠĠDem ocratic
ĠĠd ri
ĠĠSt ür
ĠĠBür gern
leg t
g n
ĠĠauf merksam
we gen
ĠĠBesch lüss
ĠĠfin den
ĠĠre ch
ie ber
ĠĠM oment
ĠĠgesam te
ĠĠB ill
ĠĠBer eit
ĠĠDa her
im men
kt ions
ĠĠP P
ĠĠPP E
ĠĠsag t,
ĠĠhin zu
ĠĠAb sch
ĠĠdurchge führt
ĠĠl assen
ĠĠD inge
ĠĠgroß er
ĠĠM indest
ĠĠEr stens
ĠĠg erecht
ĠĠSubsidiar ität
ĠĠÄnderungsant räge
ĠĠüber n
gem äß
ĠĠda durch
ĠĠl os
ĠĠvorlieg enden
ĠĠVerfüg ung
ĠĠeig entlich
ĠĠsch l
ĠĠA ller
ĠĠkomm en.
on nen
n et
ĠĠanges prochen
ĠĠ9 4
ĠĠIn s
ĠĠeigen e
ĠĠT ank
ĠĠne ues
ĠĠer reicht
ĠĠge le
ĠĠBereich e
ĠĠkonkre te
ĠĠKo ordin
ĠĠüber haupt
ĠĠerw arten
ĠĠLand es
ĠĠArbeitsplätz e
ĠĠgröß ere
ĠĠGleich zeitig
ĠĠAngelegenheit en
ĠĠdie jen
ĠĠDies es
ĠĠSchluß folger
ĠĠzum indest
ĠĠf ü
u e,
ĠĠR ess
if ik
ĠĠDurch führung
ĠĠge hen
ĠĠerfolg reich
at en,
wohn er
ĠĠunter such
ĠĠVer wendung
ĠĠL ang
l ang
k odex
ĠĠbedeute t
ĠĠprof it
ĠĠverb unden
ĠĠl assen.
ĠĠVer such
ĠĠA gr
ĠĠw ach
dern .
ĠĠEff izien
ĠĠTre ffen
g liche
ĠĠdam als
ĠĠbetroffen en
ĠĠdar in,
zeich en
halt ung
ĠĠOr t
ll ,
ĠĠble iben
mitt ag
ĠĠLe hr
n .
ĠĠKon troll
ĠĠV on
ĠĠD ann
bar keit
ĠĠvoll ständ
ĠĠwill .
ig ungen
ĠĠaut om
mp ath
ĠĠSp e
an .
ĠĠar t
ĠĠr en
ĠĠne hmen
h of
ĠĠEntschließ ungsant
ĠĠS up
ĠĠsubst ant
ĠĠsei ,
ĠĠ( P
ch ter
ĠĠBil der
ĠĠTür ke
ĠĠsie ben
a ul
ass e
d .
ĠĠwissen schaft
ĠĠkön ne
st ream
ĠĠD än
A L
ĠĠIm m
ĠĠ4 5
ab end
ĠĠv e
ĠĠA rab
ĠĠ1999 ,
ĠĠEUR O
ĠĠscore board
i .
ĠĠn et
u ck
ĠĠnat ural
ĠĠvict ims
ĠĠevery thing
ĠĠp en
ĠĠt arge
ĠĠp leased
ĠĠw rong
ĠĠBr uss
ok ing
ĠĠche ck
ĠĠinclud ed
ĠĠthere .
ĠĠdra wn
wh ere
ĠĠmatter .
ĠĠintrodu ce
ĠĠcont ent
con s
ĠĠmin imum
ĠĠtra ff
ĠĠfuture ,
ĠĠare ,
ĠĠre asons
ĠĠocc ur
ĠĠagreement s
ĠĠreach ed
ĠĠcon v
ĠĠresp ond
ĠĠprior ities
ĠĠtoday .
ĠĠprov isions
ĠĠapplic able
ĠĠM ay
ĠĠfin ally
ĠĠp ack
ĠĠK ing
ĠĠimpro vement
ĠĠwork ers
ĠĠcrit er
ĠĠS M
ĠĠm ist
ĠĠcomp reh
ĠĠNever theless,
ĠĠl ate
ĠĠimp act
ĠĠstep s
ĠĠdet ailed
ĠĠcap ac
ĠĠprodu ce
ĠĠw it
ĠĠweek s
ĠĠC entral
c es,
led ge
ĠĠclos ed
ĠĠInter governmental
ĠĠres tr
ĠĠover all
i as
ĠĠfr ont
ĠĠlaw .
ĠĠn ame
h ib
ctor s
ĠĠs ide
ĠĠlim ited
ĠĠI re
ĠĠIre land
ĠĠg ain
ĠĠcont act
ĠĠsim ilar
ĠĠst ay
ĠĠstorm s
ĠĠemer gency
ĠĠact ions
ĠĠweap ons
ĠĠh all
ĠĠCouncil .
ĠĠhonour able
ĠĠDen mark
ĠĠPalestin ian
ĠĠrefuge es.
ĠĠhous ing
elt a
ĠĠSte vens
ĠĠCamer on
ĠĠRad io
la uen
ĠĠG ild
ĠĠSch ong
ĠĠK all
ĠĠBM I
ĠĠBe ll
ĠĠWen ger
ĠĠsur ger
ĠĠDez ember
ĠĠT ot
ĠĠz ähl
ĠĠZug ang
ĠĠge ht.
ent wurf
ch en.
ĠĠnie der
ĠĠNie der
i j
ĠĠwar en,
on es
ĠĠfolg t
ĠĠKon ferenz
ĠĠIn iti
ĠĠJul i
ĠĠEntschließ ung
ĠĠF r
leg en.
ĠĠKolle ge
ĠĠm al
ĠĠl äß
ĠĠaus führ
los en
zus etz
ĠĠg ern
rag en.
f rei
ĠĠvor ge
D )
ĠĠt ät
ĠĠle b
ĠĠBem erk
ĠĠgew esen
ĠĠwäre ,
ĠĠÜberein kommen
rä um
w ill
ĠĠz unehm
fr ont
ĠĠM ärz
ĠĠan st
ĠĠsoll ten,
f älle
ĠĠver urs
. 00
ing er
ĠĠExper ten
ĠĠform ul
ärk ten
ĠĠl änger
r uf
ĠĠÄ r
ĠĠRegel ung
ĠĠKönig reich
ĠĠgib t.
zent ral
ĠĠmit tel
ĠĠLand wirtschaft
an derung
ĠĠallgemein en
ĠĠH al
ĠĠwirk sam
ĠĠkon zentr
ber icht
ol ge
ĠĠgleich zeitig
ĠĠdank e
ĠĠbleib t
schie de
ĠĠRand lage
ĠĠRe al
ĠĠVer treter
ĠĠBe wert
ĠĠinteg r
ĠĠModern isierung
ĠĠganz en
ĠĠHeraus forderung
ĠĠBed enken
ab sicht
ĠĠB re
ĠĠSe kt
w ieg
ĠĠVer fahr
ĠĠF rü
ĠĠP f
ĠĠgemeinschaft lichen
kon troll
re p
ĠĠEben so
ĠĠE isen
ĠĠun er
ĠĠZust änd
at in
ĠĠkonkre ten
es te
is p
ge fü
ch en,
ist ische
ĠĠT rain
k rä
-P l
f eld
ĠĠÜberwach ung
ĠĠhö ch
rie g
ĠĠeinz ige
ĠĠOb wohl
ĠĠGeneral dire
ĠĠAn gel
ĠĠSe attle
in stitution
ĠĠbew uß
ĠĠSch aden
ĠĠSt ad
ĠĠadministrat ive
ĠĠA pp
ĠĠD ruck
ĠĠent h
ar ent
n er,
ĠĠB udget
b r
hin der
y al
ĠĠTürke i
ust r
ig or
ĠĠM alt
io .
ĠĠJ ed
ĠĠB au
ĠĠLond on
ĠĠK y
ĠĠmass ive
ll ent
u k
ĠĠDän em
ĠĠDänem ark
ĠĠS on
ĠĠBar ak
rim e
4 .
ĠĠsie .
ĠĠC ost
ĠĠd omin
s y
D P
ĠĠDec ember
le ase
ĠĠsh own
ĠĠr ene
at ure
ĠĠd i
ĠĠask ing
ĠĠagend a.
ĠĠat tend
ĠĠwish es
ĠĠs itting
ĠĠiniti atives
ĠĠFurther more,
ĠĠaff ord
ĠĠinc or
ĠĠreg ular
ĠĠMar ch
ĠĠquestion .
ĠĠstr ict
ĠĠexper ts
ĠĠex erc
ĠĠmonth s.
ĠĠaddition ,
ĠĠregion s.
ĠĠdifficult ies
. 5
ĠĠeff icient
ĠĠmed ium
ĠĠdist rib
ra cy
ĠĠoff ic
ĠĠrecommend ations
ĠĠbal ance
ĠĠtreat ment
ĠĠleader s
ĠĠcom bat
ĠĠcondu ct
ĠĠpeople ,
ĠĠsix th
ĠĠev idence
ĠĠall oc
ĠĠlevel ,
ĠĠcent re
as t.
ĠĠM ore
ĠĠresul ts
ĠĠconne ction
p ris
ur es,
ĠĠinvest ment
ĠĠreform s
ĠĠexem ption
ir es
ĠĠec ological
und red
ĠĠde fen
ĠĠdemon st
ĠĠa ge
ĠĠhe art
ĠĠconst ruction
ĠĠpeople .
ĠĠup .
ĠĠw atch
ĠĠimmedi ately
ĠĠk illed
ĠĠstar ted
ĠĠChr ist
ia .
ĠĠClin tons
ĠĠB ack
ĠĠco ach
ĠĠtalk s
ĠĠrefuge e
-in -Off
ĠĠStud enten
ĠĠAug ust
ĠĠP lauen
ir l
sp er
ĠĠOp fer
k atastrop
ĠĠFern se
ess en,
ĠĠDok ument
ĠĠP osition
prü ft
ĠĠWar um
ĠĠBr üssel
ĠĠRa uch
ĠĠRegel n
ĠĠheut igen
ĠĠM il
ĠĠEntw urf
ĠĠZust imm
rä gen
l ern
ĠĠk ürz
ĠĠaußer halb
führ t.
ĠĠheiß t,
ĠĠAl le
ĠĠführ en.
g ruppe
ĠĠk la
ĠĠt ut
ies en,
ĠĠzu g
ĠĠProt ok
ĠĠAuf fassung
ere hr
ĠĠKommissar in,
ĠĠPerson en
ĠĠver pf
ĠĠverpf lich
anc en
ĠĠaußer ord
z if
ĠĠein ,
ĠĠgewähr le
ĠĠM ir
ĠĠschaff en
sequ ent
ĠĠPrü f
ĠĠAn forderungen
ĠĠoffens ichtlich
ĠĠklein en
ĠĠver kauf
ĠĠangem essen
1 ,
ĠĠüber zeug
hn en,
ĠĠbring en,
ĠĠCE N
olog ie
ĠĠGr unde
ĠĠO kt
ĠĠOkt ober
ch mal
ĠĠd ram
ĠĠfre ue
- 1
ĠĠer ör
ĠĠteil weise
ĠĠGebie te
m öglichkeit
- In
sp l
komm ens
ĠĠwettbewerb s
ĠĠnotwend ig,
uf en
ĠĠvers ich
ĠĠzuf olge
ĠĠBerichterstatter in
ĠĠAn satz
ĠĠReg ierungen
ĠĠ199 4
ĠĠIn sel
ĠĠvor aus
ĠĠsub sid
ĠĠbe m
ĠĠfinanz ielle
d ach
ĠĠen or
ĠĠD aten
ĠĠW orte
ĠĠS inn
sp ekt
ĠĠgese hen
ĠĠein setz
ik en
ĠĠneg ative
ĠĠgesam ten
ĠĠt ief
ĠĠabsol ut
es tens
ĠĠMaß nahm
z we
ĠĠhat te,
ĠĠK ennt
beihil fen
ge ber
ĠĠst abil
recht lichen
ĠĠbe ha
ĠĠH off
ass ung
ĠĠProdu k
ĠĠBe zug
zus ch
el t.
z ern
ĠĠSp ek
ĠĠricht ige
ĠĠversuch en,
ĠĠeinz el
aus ende
ĠĠKon flikt
ĠĠsy mpath
p ret
ĠĠex tern
ĠĠh ouse
ĠĠVer gleich
ĠĠsein es
ĠĠnie mand
ĠĠGrenz en
ĠĠW ider
ĠĠVerletz ung
ĠĠR ich
ĠĠHa fen
it ten
k o
R )
ĠĠsich ,
ĠĠEin richtung
ĠĠSt raft
ĠĠign or
ĠĠL ut
j ust
ich e
ĠĠM organ
ĠĠb an
6 0
a un
ay s
ĠĠT r
ĠĠK ultur
sch m
me ister
ĠĠTele f
A T
ĠĠper man
ä he
ĠĠBet riff
ĠĠBetriff t:
ĠĠBeam ten
ĠĠE Q
ĠĠEQ U
ĠĠEQU AL
igran ten
ĠĠGesch ichte
S .
ĠĠm ut
ĠĠFrieden sprozeß
ĠĠM ün
ĠĠGol an
ĠĠWas hington
ĠĠR uss
ĠĠIn n
r ich
ĠĠKo uch
w ing
ĠĠAkt ien
ĠĠhapp y
ĠĠfa iled
ĠĠsuffer ed
ĠĠdisaster s
ĠĠreg ret
ted .
ible .
ĠĠmy self
ĠĠac qu
ĠĠknow ,
ĠĠprote ct
ĠĠproper ly
ĠĠor igin
air man
ĠĠCommission s
ĠĠwell ,
ĠĠdiscuss ed
ĠĠdebate .
ĠĠele ct
re c
ĠĠE ven
ism ,
ĠĠso uth
ĠĠp at
ĠĠthous ands
ĠĠex ce
ĠĠt en
ĠĠnat ure
ĠĠann ual
ĠĠremain s
ĠĠconc lud
ĠĠg ives
ĠĠrelev ant
qu ate
ĠĠdeal ing
ĠĠgroup ,
ĠĠsp ent
ĠĠse a
ĠĠrapporteur ,
ĠĠam oun
ĠĠlat est
ĠĠestablish ed
ĠĠim ag
ĠĠconsider ation
ĠĠestablish ing
y ond
ĠĠag o,
ĠĠpo or
ĠĠAffair s
ĠĠcon sequen
ĠĠopen ing
ĠĠwork .
ĠĠra p
ĠĠdis par
ĠĠcreat ing
ĠĠdevelopment ,
ĠĠrepresent atives
ĠĠco hesion
ĠĠplay ed
ĠĠcompet it
ĠĠe arn
ĠĠenlarge ment
ĠĠlevel .
ator s
ĠĠcomb ating
ĠĠway ,
ĠĠdat a
ĠĠaw a
wh ile
ĠĠf ash
ĠĠG ree
ĠĠus ,
ĠĠrelations hip
ĠĠRe port
cut ive
im ately
ĠĠch amp
ĠĠle ague
ĠĠGerman y.
ĠĠauthorities .
ĠĠquar ter
ĠĠdisc ip
ĠĠpublish ed
ĠĠauthor ity.
ĠĠhe av
ĠĠlead ing
ĠĠFin ancial
ĠĠh ar
ĠĠpl ant
it ime
ĠĠt ried
ĠĠp ick
ĠĠscient ific
ĠĠTurke y
ĠĠSub ject
ĠĠSubject :
ĠĠMun ich
ĠĠPresident -in-Off
ĠĠsh ot
ĠĠD elta
ĠĠS ha
ĠĠB ush
ir urg
ĠĠTh om
ĠĠMan ches
ĠĠR h
ĠĠB ieber
f ur
ĠĠHe w
ĠĠHew lett
ack ard
ĠĠB enn
ĠĠMc D
H E
ĠĠGild ner
ĠĠW ies
ĠĠFed E
ĠĠFedE x
ĠĠSchong au
ne y
im ovic
ĠĠg irl
ĠĠW unsch
ĠĠHe ute
ĠĠBes uch
ĠĠPräsident in
ĠĠj ähr
ur teil
ĠĠfranzös ischen
ĠĠentsp richt
ĠĠste ts
ĠĠbereit ,
ĠĠverab schied
ĠĠunterb reit
ĠĠsoll te,
ĠĠE re
ĠĠEre ign
ĠĠlie be
ĠĠver tre
ĠĠvorgesch lagen
ĠĠander er
ĠĠkomm t,
ĠĠmöchte ,
ist ischen
ĠĠkla re
ĠĠkonn te
ĠĠ ..
m den
ĠĠBef örderung
ĠĠH armon
ĠĠgar ant
ĠĠUns ere
ĠĠbeg lückw
ĠĠf est,
ĠĠberücksicht igt
ĠĠKamp f
ĠĠEr höhung
ĠĠGrün de
ere ign
ĠĠne ben
ĠĠG est
ĠĠ9 5
ĠĠAller dings
ĠĠsch eint
ĠĠwen ige
land ,
ĠĠUns er
ĠĠF alle
ĠĠfind en.
ĠĠopt im
b esch
ĠĠM ai
ĠĠL ie
4 0
ĠĠRechts sicherheit
ĠĠBericht ,
setz ungen
ĠĠW icht
ĠĠRech n
ĠĠgut en
ĠĠunser es
ĠĠG rad
ĠĠKoordin ierung
ĠĠgem äß
ĠĠAr m
ĠĠB lick
ĠĠum fang
ĠĠumfang reich
ĠĠPro gram
ĠĠVer änder
ĠĠVeränder ungen
ĠĠBevölk erung
h under
ĠĠgel ang
ĠĠRed e
ĠĠsch ne
ĠĠmit t
ĠĠP flicht
ĠĠWe ge
ĠĠPrior itäten
ĠĠZ entral
ĠĠerm öglich
ĠĠWir k
iv ität
ĠĠjeweil igen
ĠĠ19 8
art h
ĠĠf ahr
ĠĠla ut
ĠĠSch äden
yste me
ĠĠbem ü
ĠĠr ies
ĠĠbe absicht
ĠĠhin ,
ĠĠEffizien z
ĠĠselbst verständlich
är kt
ĠĠErw art
itä t,
ann te
ĠĠAr g
ĠĠdarauf ,
ition en
b et
ĠĠG rie
ĠĠStahl industrie
ĠĠBe teil
ĠĠT est
7 ,
ĠĠHaus halt
ĠĠander em
s be
ĠĠgen ug
ĠĠgröß te
ann t,
ĠĠWähr ungs
ĠĠmich ,
ĠĠne uer
ĠĠkurz frist
z er
sp olit
M U
ĠĠUn ions
ĠĠAn gaben
ĠĠstatt find
a ktion
tern ative
ĠĠMein er
ĠĠinternational er
lich ung
l as
ĠĠinter institution
ĠĠ(F R)
ll es
sch reit
ĠĠd ro
ge hen,
et te
ip l
ipl om
ĠĠstell en,
op h
ü m
1 8
- de
l ant
ĠĠT or
ĠĠS er
ĠĠSp itze
ĠĠ5 00
ĠĠb lie
ĠĠP ark
an agement
ab kommen
str ö
ĠĠB alk
it ation
ĠĠÄr z
ver t
ab in
ĠĠSp an
ĠĠp al
ĠĠis rael
ĠĠst opp
and ,
os ,
a f
ĠĠPar is
ut in
ĠĠE d
om b
sy ch
ĠĠA id
ĠĠDe v
ad ies
ĠĠmin ute
ĠĠ urg
ag raph
ĠĠN ow
ĠĠsett ing
ĠĠconcern ed.
ĠĠWh y
ĠĠon .
ĠĠmess age
ĠĠJanu ary
ĠĠstrateg ic
ĠĠout ,
ĠĠdesc rib
ĠĠre ject
ic .
ĠĠwith d
ĠĠwithd ra
rec i
ĠĠthem ,
ĠĠPol ic
ĠĠra il
ĠĠg ent
resp ond
ĠĠexce llent
ĠĠknow n
ĠĠemploye es
ĠĠindustr ial
ĠĠareas .
ĠĠt emper
ĠĠmain tain
ĠĠnow ,
ure ly
ĠĠnam ely
- re
ĠĠO ct
ĠĠdec entral
ĠĠareas ,
ĠĠdis app
ĠĠper haps
ĠĠS m
ĠĠdispar ities
ĠĠsustain able
ĠĠcond ition
ĠĠen able
ĠĠsp ending
ĠĠcompetit iveness
ĠĠadd ed
ĠĠUn fortun
ĠĠr ise
ur ance
ĠĠserious ly
ĠĠbecom ing
ĠĠwit ness
ĠĠAffair s,
ĠĠl isten
ĠĠpres ident
ĠĠan tic
ĠĠantic ip
ĠĠass ure
ĠĠinstitution s.
ĠĠview ,
ĠĠenorm ous
ĠĠword s,
ĠĠrem ark
ĠĠMon etary
ĠĠComp etition
ĠĠcompetition ,
ĠĠeff icien
ĠĠJust ice
ĠĠconsum er
ĠĠdecid ed
ĠĠDan ish
ĠĠpre d
ĠĠh undred
ĠĠcult ural
ĠĠdisc rimin
ĠĠbusiness es
ĠĠman ager
ĠĠtr ust
ĠĠon e.
ĠĠprofess ional
v al
ĠĠcommer cial
ĠĠl ist
ĠĠne igh
ĠĠcy c
ll ing
ĠĠT im
ĠĠs enior
ĠĠExper ts
ĠĠIsrael i
ĠĠP rime
ĠĠinj ured
ĠĠPresident-in-Off ice
ĠĠra c
ĠĠHung arian
ĠĠer .
l ub
ĠĠB rown
ĠĠMerk el
w are
in fe
ĠĠX avi
ĠĠpercent .
ĠĠsp orts
ĠĠsan itiz
it ag
ĠĠnoch mals
h ende
ĠĠS oll
ĠĠd .
ĠĠf äll
et en,
ĠĠver folg
ĠĠw eder
ĠĠsich er,
ĠĠW ert
denk en,
ĠĠSozial dem
ĠĠSozialdem okrat
g en.
ĠĠParte i
ĠĠerinn ern,
ĠĠAus nahme
ĠĠK re
ĠĠab zu
ĠĠget an
ĠĠHin ter
ĠĠAnaly se
f alt
ĠĠ(A 5-010
ĠĠGefahr gut
zuf ühr
ĠĠentsprech enden
ĠĠspe zif
n el
ĠĠR en
ĠĠKatastrop hen
ĠĠmöglich st
ĠĠsorg en,
ĠĠein geb
ĠĠBel g
ĠĠSchwier igkeiten
ĠĠBet rieb
ĠĠVerein bar
ĠĠtreff en,
ĠĠNor men
n ach
ĠĠeinheit liche
ĠĠunterstütz en.
h e,
s eit
ĠĠI hnen,
ĠĠzweif ellos
ĠĠbeste henden
ĠĠÜber gang
be f
ĠĠDar über
utz ung
ĠĠPlen um
ib el
al tet
ĠĠN ationen
ak ter
ament ar
ĠĠKohäs ions
ĠĠW al
ĠĠW ales
ĠĠn immt
zustell en,
ĠĠInd ustrie
ĠĠsp rech
ĠĠs ah
g renz
str ategie
ĠĠHal b
ĠĠschaff en,
ĠĠTe chn
ĠĠKomm un
ĠĠPr iv
ĠĠFol ge
ĠĠb reit
ĠĠWo hl
h ase
ĠĠUnter schiede
z ub
spr inzip
ĠĠhäuf ig
ĠĠbeste hen
ĠĠVer hält
ĠĠWettbewerbs fähigkeit
ĠĠMöglichkeit ,
ĠĠregional e
ĠĠVer hal
ĠĠVerhal tens
de x
ĠĠl auf
ĠĠverd ient
ĠĠun mittel
ĠĠerreich en
al isierung
ĠĠbe teil
ĠĠzie m
drück lich
ank en
ĠĠderzeit igen
in ter
ra gen
stell ungs
ĠĠso gen
ent wick
ĠĠdopp el
ĠĠG ar
ĠĠSe ch
ĠĠBarn ier
sp e
ip her
-A n
ĠĠze igt,
ĠĠEr weiterung
ĠĠer schein
ĠĠgröß ten
ĠĠsp ür
ĠĠver me
ĠĠgew isse
ĠĠGrie chen
ĠĠsagen :
ĠĠgeb en.
ĠĠhand elt
ĠĠM ode
2 5
(COS) )
ĠĠgehör en
ĠĠin tens
ĠĠS k
ĠĠZuständ igkeit
ĠĠzu gleich
ĠĠbeha up
ĠĠS onder
ĠĠM ärkte
ĠĠk le
er es
ĠĠbrauch t
gefü hl
gese llschaft
ĠĠH olz
ĠĠin sp
ĠĠAn der
ĠĠV ölk
punk te
ĠĠle icht
ĠĠjed em
ĠĠGegen satz
w elt
ĠĠLe ute
kl ar
ĠĠProf ess
ĠĠGesetz gebung
ĠĠnat ur
ĠĠJahr ze
ĠĠLin ie
ra hmen
ĠĠ3 ,
best ände
ĠĠverantwort lich
ĠĠStaatsanwalt schaft
ĠĠgew es
ĠĠGrün den
ĠĠzu vor
ĠĠD ort
ĠĠAb kommen
st ad
ĠĠKarl s
ĠĠKarls ru
ag ne
br uch
ĠĠF lag
ĠĠw on
mb ol
O L
re y
änd ler
ĠĠWe i
ĠĠMalt a
ĠĠspiel en
ist r
le id
b ür
ĠĠTag en
ĠĠLebensmittel behörde
ĠĠperman ent
-St aat
ĠĠ(H-0 8
an t,
I S
ĠĠK ir
ĠĠ3 6
ĠĠOrgan e
r as
ĠĠEinw anderung
ĠĠU l
ĠĠn omin
ĠĠser ies
ĠĠrecent ly
ĠĠagain .
ĠĠpar agraph
ĠĠi .
ĠĠi. e.
ĠĠpl en
ĠĠplen ary
ĠĠke pt
ĠĠch ann
ĠĠBut ,
ĠĠWednesday .
ĠĠBruss els
ĠĠground s
ĠĠvo ted
ĠĠread y
ĠĠexcept ion
ĠĠother s
ĠĠsupp orted
ĠĠm ann
ĠĠallow ed
ĠĠexp lan
ĠĠle ave
ĠĠref lect
ĠĠwel com
ĠĠar range
ĠĠstruct ure
ĠĠg iving
og g
te en
ĠĠaspect s
ĠĠincor por
igh ted
ĠĠsens itive
ĠĠlaw s
ĠĠun c
ĠĠaff ect
ĠĠm e,
an ced
ĠĠex tra
ĠĠOct ober
ĠĠchar ac
ĠĠbas ic
ĠĠCo hesion
ĠĠde ep
ĠĠb ur
ĠĠcolleag ues
ĠĠm and
ĠĠnet work
ĠĠcre ation
ĠĠ2 1
ĠĠsociet y
ĠĠpartners hip
ĠĠwe ak
ĠĠj udge
ĠĠconc ent
ĠĠs low
ĠĠbenef it
ĠĠcompreh ensive
ĠĠprom ot
ĠĠpla ced
ĠĠtot ally
ent ,
ĠĠsc ope
ĠĠsystem s
ĠĠgr and
ven ue
igh ten
ĠĠvis it
ĠĠdep art
ĠĠatte mp
ĠĠaver age
ĠĠinteg ration
y ing
ĠĠcoup le
h ic
ĠĠcommit ted
o on
ĠĠsurve y
u ed
ĠĠrestr ict
ĠĠinvol ving
ĠĠc e
ĠĠpublic .
ĠĠan ch
ĠĠspec ulative
ĠĠfre qu
ĠĠintend s
ĠĠBrit ain
ĠĠon ,
ĠĠmor ning
ĠĠwork ed
ĠĠf ilm
h ard
ĠĠCon trol
ĠĠpolit ic
ĠĠpr ison
ĠĠfoot ball
un ch
ĠĠhappen ed
es p
ĠĠsh o
ĠĠfish ing
ĠĠsp ace
ĠĠscient ists
ĠĠsh opp
ĠĠFo od
ĠĠh our
ĠĠmed ical
ĠĠres ident
ĠĠprim ary
ĠĠCroat ian
ĠĠhim self
ĠĠer zähl
a el
v iew
ĠĠGuard iol
ĠĠ201 3
ĠĠAnge la
an i
ĠĠL aden
ĠĠ201 0
ĠĠDeut sche
ĠĠZins er
-T e
ĠĠH P
ĠĠS un
ĠĠ200 8
ĠĠP HE
ĠĠWohn ungs
abet es
infe ktions
infektions mittel
ĠĠBell am
ĠĠA stra
ĠĠAr sen
ĠĠg ame
ĠĠCroat ia
ĠĠdri ver
ĠĠFre itag
ün sche
rei ben
ĠĠStabil ität
ĠĠmein e,
ĠĠFisch ere
ĠĠver treten
in .
ĠĠprü fen,
ĠĠDenn och
v an
b ur
ĠĠBr and
te ten
ĠĠlie gen
ĠĠbeg r
ĠĠsp rach
ĠĠgenüg end
ĠĠkonn ten
ĠĠsag en.
ĠĠParlament ,
ĠĠh ör
ĠĠricht ig
ĠĠhin weisen,
ĠĠI st
ĠĠs inn
ĠĠProtok oll
ĠĠge änder
ĠĠFre mden
be auftrag
l iz
ĠĠnational er
ĠĠArbeit sm
itä ts
ĠĠtra gen
ĠĠE igen
lo ck
erst ör
ĠĠVerkehr s
ĠĠjüng sten
ĠĠf u
ĠĠH ä
ĠĠregel mäß
ĠĠverb ind
ĠĠsoll ten.
ĠĠT rans
ĠĠLauf e
ĠĠ( K
5- 000
ĠĠentsprech end
un s
erm in
u elle
ĠĠF ä
ĠĠhingew iesen
ĠĠtre ffen
ĠĠMitgliedstaat en,
ĠĠBüro krat
ĠĠbefür wor
ĠĠposit iv
ĠĠf ragen,
ĠĠparl amentar
ĠĠkomm en,
4 4
f ond
spro gramm
ĠĠwirtschaft liche
ĠĠB ran
ĠĠgen annten
ĠĠumfass ende
ium s
ĠĠAsp ekt
ĠĠj etz
ĠĠArbeitsplätz en
ĠĠent sch
ĠĠerklär t
ĠĠpersön lichen
ĠĠAsp ekte
ĠĠBe handlung
eint rächt
ĠĠh ält
ĠĠlieg t.
ll schaften
arbeit en
ĠĠ199 3
ĠĠäußer ster
um s
ĠĠbe ein
f aßt
ĠĠAn ges
ĠĠAnges ichts
ĠĠbed arf
ün de
ĠĠziem lich
ĠĠkein er
ĠĠErfahr ungen
sp rü
h od
ĠĠT rotz
äng st
ĠĠviel mehr
ĠĠMän nern
ĠĠIhr er
ĠĠzu ge
zustell en.
ĠĠAus führ
ĠĠaus zu
ĠĠErwart ungen
ĠĠVer ständ
ĠĠGar ant
ĠĠversuch t,
ĠĠer lä
ĠĠber u
ĠĠlieg t,
ĠĠM ot
iger ung
is t,
ag t
ĠĠführ t
ĠĠArbeit nehmer
ĠĠsie ht
ist isch
ĠĠson st
loss en.
ben s
ĠĠKennt nis
ĠĠE G
5- 00
II I
ĠĠH altung
rech ts
ĠĠste hen.
ĠĠbeton en,
ĠĠzu letzt
ĠĠDis ziplin
ĠĠSte u
ĠĠE ing
ĠĠIn form
ĠĠd än
ĠĠN iveau
ĠĠhoff e
ĠĠver ring
ĠĠAn griff
ĠĠEin fl
ĠĠwar n
ĠĠSch ritte
ĠĠWel che
ĠĠK MU
ter in
ĠĠVerfahr ens
ĠĠse hen,
ĠĠAn erk
ĠĠAnerk ennung
ĠĠGroß b
ĠĠGroßb rit
ĠĠGroßbrit ann
ĠĠre chn
ob ach
imm t,
ĠĠkönn te.
ĠĠs itz
ĠĠstra f
ĠĠRechn ungs
de ck
ĠĠEr mitt
ĠĠH ult
ĠĠide olog
ĠĠLut her
ĠĠOLAF ,
ĠĠSachverständ iger
ĠĠVitorin o
d ing
ĠĠgew inn
ĠĠent fern
ste lle
lüss el
om en
strum ents
ĠĠO ber
ĠĠ3 .
ĠĠsag ten,
ĠĠda u
ĠĠV o
ĠĠ4 00
ĠĠSt unde
wer te
ĠĠWei hn
ĠĠWeihn ach
in a
ĠĠM io.
ier ende
ĠĠFra gest
ĠĠFragest unde
ĠĠSt urm
ĠĠto ur
ĠĠBeam te
en c
ĠĠKandid aten
iz in
ĠĠN ähe
ĠĠBalk an
stream ing
ĠĠrel ig
it ter
ĠĠAb end
ĠĠO sten
ĠĠpal ästinens
ĠĠIsrael is
y e
ĠĠC hef
ĠĠb at
ĠĠilleg al
ĠĠs üd
ĠĠser b
ĠĠKouch ner
ĠĠMar ia
ĠĠD s
ĠĠDs ir
ĠĠS ing
anz ler
ĠĠrequ ested
ot a
ĠĠactiv ity
ĠĠexam ine
sel v
ĠĠC olle
ĠĠrene w
ĠĠun an
ĠĠcitiz en
ĠĠperf ect
ĠĠfell ow
ĠĠapp reci
ĠĠexplain ed
ĠĠnot ,
ĠĠadvis ers
ĠĠgent lem
ĠĠDire ctive
ĠĠapp oint
ĠĠcost s
ĠĠTh ird
ĠĠpoin ted
ĠĠtechn ical
ĠĠrequire ment
ĠĠway .
ĠĠcarry ing
ĠĠa de
ĠĠC ons
ĠĠmax imum
ĠĠdisaster ,
ĠĠrepe at
ĠĠparticular ,
ĠĠrespect ,
ĠĠob l
ĠĠtrans ition
ĠĠpow ers
at ures
ibil ities
l ude
ĠĠbe yond
ĠĠde gre
ĠĠsomet imes
ĠĠdel ay
ĠĠstat us
ĠĠprogramme .
ĠĠDe velop
ĠĠget ting
ĠĠf ift
ĠĠagricult ural
ĠĠcriter ia
ĠĠrap id
ĠĠbo ok
ĠĠex tens
ĠĠSM E
ĠĠrem ote
ĠĠinterest ing
ĠĠimpro ving
ĠĠc ity
ĠĠmain ly
ĠĠregion s,
- e
ĠĠUnfortun ately,
ĠĠmon etary
ĠĠcountr y.
ĠĠeconom y.
ĠĠt on
ĠĠide as
ĠĠdirect ly
ĠĠreform .
ĠĠG DP
eit her
ated ,
ĠĠstress ed
ion s.
ĠĠdevelop ing
ĠĠdeter min
ĠĠenter pris
ĠĠt emp
ĠĠknow ledge
ĠĠc red
ĠĠown ers
ĠĠy ester
ĠĠyester day
ĠĠC ode
ĠĠcon tro
ĠĠmonopol ies
ĠĠbel ong
ĠĠexe cutive
ĠĠunaccept able
ly ing
ĠĠmarket s.
ĠĠorganis ations
ĠĠpr ice
ĠĠpoints .
ĠĠv ital
ĠĠcust om
ĠĠTreat y,
ĠĠMan y
ĠĠsystem ,
ĠĠsafe g
res s.
ĠĠche cks
ĠĠAn y
ĠĠplay ing
ĠĠre ve
ĠĠbu ilt
ĠĠhon est
itor s
ĠĠCon vention
ĠĠf ed
ĠĠper p
ĠĠmeas ure
ĠĠh arm
or ing
ĠĠd ut
ĠĠshort -term
ĠĠbre ak
ĠĠvess els
ĠĠinc ident
ak ers
c .
re en
ĠĠcontrol s
ug g
ier .
ĠĠh olid
ĠĠsum mer
ĠĠrece ive
r g
ĠĠL is
ĠĠdem oc
ĠĠm other
ĠĠinj ur
ĠĠchild ren
ĠĠU. S.
ĠĠM äd
ĠĠB ru
ad rat
: 0
h am
ide o
ĠĠS A
ĠĠB iden
ĠĠB ad
-W e
ud i
ĠĠL u
ĠĠDes ign
ĠĠM ang
ĠĠFelste hausen
ĠĠH osp
ĠĠBellam y
ĠĠX i
ĠĠRepublic an
ĠĠc ell
ĠĠsurger y
io de
ĠĠPres se
au ern
ĠĠwür den,
ĠĠderart ige
ĠĠein ver
g t,
ĠĠtun .
ĠĠh .
ĠĠBer uf
ĠĠSchroed ter,
ĠĠmö chten
ĠĠste ht.
ĠĠAn fragen
ĠĠzuständ igen
ĠĠbestimm ten
ĠĠB ot
le hn
-M it
ĠĠg ing
ĠĠsom it
ĠĠgrund leg
ĠĠoffen bar
ĠĠm ünd
ĠĠbesch lossen
ra ktion
ĠĠw ären
rag t
ĠĠP o
ĠĠsp rechen
ĠĠword en,
ĠĠda gegen
ĠĠgegeben en
sam en
ĠĠSicherheits ber
ĠĠv erehr
und en.
6 /
5 /E
ĠĠCh ancen
rit tens
ĠĠste hen,
ĠĠTe xt
ĠĠdank en,
ĠĠerforder lich,
ĠĠgegenwärt ig
und en,
ĠĠHin weis
ĠĠständ ig
ĠĠr asch
ĠĠAnst reng
ĠĠpa ar
ĠĠF ar
ĠĠvor rang
ĠĠVer z
ĠĠz ut
ĠĠJun i
ĠĠer laub
ĠĠda uer
ĠĠgut ,
ĠĠnied rig
lag en,
le un
ĠĠer gän
än derung
ĠĠer mö
ĠĠge zogen
ĠĠgeb racht
ĠĠbet rächt
ĠĠVor haben
ĠĠSchließ lich
ĠĠhoff en,
ĠĠJahr hunder
wo gen
ĠĠSchlußfolger ungen
ĠĠS uch
ĠĠEr reich
ĠĠUnter nehmer
ĠĠheiß t
ĠĠF onds
ĠĠfü hl
ĠĠverl oren
ĠĠUn gleich
ĠĠver letz
ĠĠH igh
ĠĠStaat s
ĠĠläß t
ĠĠge ehr
ĠĠwar en.
ĠĠein zu
ver walt
ĠĠVor bereit
ĠĠse he
ĠĠnehm en,
ĠĠBewert ung
ĠĠk o
ĠĠsch ein
ĠĠbe ige
ĠĠG ip
ĠĠEin richt
ĠĠst imme
ĠĠal ten
ĠĠV iele
ĠĠge ze
ĠĠzurück .
ĠĠge kommen
ätz e
ĠĠRech nung
ĠĠerreich en,
ĠĠSch wer
ĠĠLe ider
ĠĠKommissar !
ĠĠAn spruch
ĠĠBer end
ĠĠerhö ht
ĠĠÜber prü
iz ient
ĠĠAusführ ungen
ĠĠMaß e
gew icht
ĠĠübr ig
ĠĠdurch schnitt
it ,
ü ckt
ĠĠge e
ĠĠsehr ,
ĠĠeinges etzt
sche iden
ĠĠunterstütz t
os en
ĠĠG ene
ĠĠHaus es
ĠĠges tern
auf nahme
ĠĠzurück ge
ĠĠ8 5
ĠĠSekt oren
a ug
ĠĠlegit im
ĠĠwicht iger
ĠĠgr ünd
ĠĠein schließlich
lauf en
te te
unter nehmen
ĠĠVolk s
ĠĠE ig
ĠĠsetz en
ĠĠHer z
ĠĠRober t
ĠĠinternational e
t a
ĠĠö k
ĠĠök olog
fin den
ĠĠspiel t
ult ure
ĠĠinter pret
igkeit s
ĠĠDisk rimin
ĠĠF ach
ĠĠKl aus
ĠĠUnternehmen s
ĠĠInteg ration
ĠĠbil ateral
ĠĠJ ap
ĠĠf ro
ĠĠzu k
ue llen
ĠĠUmst änden
äl t.
ĠĠgewähr leist
ĠĠAuf bau
ĠĠA pr
ĠĠApr il
ĠĠBet rü
ĠĠStraf ver
ĠĠunterstütz en,
er in
iel t
ĠĠlangfrist ig
ĠĠe uro
it a
ĠĠ19 7
ĠĠlaw ,
chan ism
ĠĠhö here
us t,
ĠĠP ak
ĠĠT age
ĠĠtransp arent
ĠĠSch lüssel
ĠĠhel fen
6 ,
ĠĠdar unter
ĠĠH am
ab or
i os
ĠĠGes amt
ungs entwurf
b ald
il en
ĠĠ19 6
weg ung
ĠĠR oth
ĠĠRoth -B
ĠĠRoth-B ehr
ĠĠRoth-Behr end
ĠĠl in
ĠĠStür me
st o
ĠĠFamil ien
ĠĠp räsent
ĠĠAut o
ĠĠf iel
it el
ĠĠD ub
am in
ĠĠS low
ĠĠh err
ĠĠ3 1
ess ion
ĠĠse x
ĠĠPres s
ĠĠDemokrat ie
- p
ram m
ĠĠdel iver
and el
ĠĠRes olution
n a
ĠĠD ro
ĠĠarg ument
ul ations
