#version: 0.2
e n
e r
i n
c h
t h
o n
a n
e s
u n
i s
a t
i t
o r
i e
th e
a r
a l
i ch
s t
d er
r e
a s
en t
r o
i on
t e
b e
l e
e in
t o
an d
g e
a u
o f
un g
d e
a m
un d
u r
in g
d ie
o m
d en
w i
s e
i g
i m
o u
l l
t er
t en
h e
v er
e d
i c
w e
h r
r a
z u
b er
s ch
i d
f or
v e
u m
o l
en ,
ich t
l y
k e
a g
d i
om m
h a
n e
l ich
e m
n o
s p
s o
ü r
d a
u s
u t
i l
w h
i r
is s
p ro
th at
c t
d as
en .
e t
wi r
t r
at ion
v on
a b
i er
g en
er e
au f
is t
a ch
c e
l d
is ch
or t
a d
p o
l i
r es
k t
f ür
l o
ar e
es t
c on
a y
ein e
m e
a c
ou ld
p er
m it
wi th
S t
z e
m ent
omm iss
p e
di es
U n
R e
en d
al l
th is
w er
at e
s u
t ,
ommiss ion
er n
id ent
de m
l in
in d
o ur
g r
a f
P ro
au s
v or
st r
n icht
u l
d es
I n
T he
u ro
s h
h as
t z
h at
V er
es s
al s
no t
ha ve
l ie
be i
i es
q u
da ß
ä n
h l
t s
i ve
p ort
w as
t a
0 0
P ar
s ich
b en
g es
m a
st e
e x
am ent
f f
b y
E uro
i al
isch en
s .
t .
ung en
s ,
ü ber
A n
h n
wh ich
das s
h al
c k
B e
o p
M r
P r
h er
w ar
w or
au ch
c o
p ar
s it
u p
a hr
w ould
te d
i en
ein en
d o
s ie
a st
w o
an t
T r
ein er
i v
re g
T h
S ch
i f
p l
it s
g o
p r
s ag
wer den
u b
w ie
an n
D ie
E r
ro m
A u
i b
g er
ie l
c om
ion s
be en
f rom
C ommission
m en
s s
un s
e l
v o
d s
h t
as s
wi ll
th er
an der
i k
o b
en n
V or
ä s
o w
um p
i ll
gr am
p ol
u e
un ter
o k
ung s
ü n
M it
er r
wir d
j e
u st
m an
res ident
s ind
i de
m ö
ig en
an sp
m or
li ke
Tr ump
S ie
c ent
an s
W e
e ar
B er
K ommission
a p
ou t
it y
ar y
äs ident
im m
or d
t on
e ,
o ch
in n
F r
t ra
al so
h en
e it
A r
par t
c l
n ach
ä r
h re
an g
m on
Euro pe
ö n
E in
en s
ion al
ac k
p ub
lich en
A us
9 9
H err
Pr äsident
sch af
er s
z ent
P resident
the ir
I ch
d ar
E n
se l
am b
ur ch
ke it
z ur
at es
b es
te ,
i ge
o d
f e
W ir
G e
Re g
on e
i a
at en
F ra
s am
be it
r it
i p
ou s
th ere
l ament
r at
da y
al ly
b ut
m in
f t
he it
an k
a ge
we it
d is
tr ansp
Par lament
g an
a k
2 0
y ou
sh ould
h is
s ay
the y
ein em
isch e
g ro
u re
mor e
ä t
w ur
S te
o st
s a
li ament
om e
u te
ch te
ol le
f r
s on
L amb
U m
c ial
u ct
no w
c as
C lin
Clin ton
k l
Fr au
u ß
h o
a ct
Pro zent
Euro p
no ch
J ahr
Un ion
l and
l ic
of f
ten ,
dies er
me hr
er st
A b
G r
m er
h in
o der
at er
t im
ab le
Par liament
President ,
u d
ge b
ü ck
ter s
ver y
c an
c omm
w ay
t re
ä hl
d urch
er en
ge l
co un
ha d
sa id
su p
em ber
a hl
ä hr
k ön
is e
sp e
G ro
Europe an
g h
a ber
es .
S tr
p le
es e
se d
Re pub
o t
ier ung
n ation
m ar
b le
a in
y ear
ur al
je ct
wh o
ig ht
y ,
mö chte
der n
kön n
pro gram
f in
f ra
E U
D er
o g
ic ul
wor k
ch en
re ich
so ll
er ,
1 0
A l
an ce
i re
ne w
ir st
Th is
po in
sch l
ü hr
es ,
N e
re port
in s
D as
w enn
te l
i hr
icht ig
än d
a h
schaf t
2 00
p t
p res
at ed
pol ic
s af
am end
ar d
le g
1 99
v ie
ö r
ü tz
Un ter
g u
on g
and id
ste ll
ion en
i hre
L e
S e
n ur
z t
ß en
se tz
I t
s er
s ome
st a
M on
k omm
En t
un kt
Ä n
Än der
f o
b r
ke hr
is ter
re qu
per cent
transp ort
P ol
pro po
saf et
p or
re ct
zu m
g lie
ch t
d am
st and
S o
it ik
ge gen
es ch
u kt
st ütz
in c
D e
i o
Ber icht
wur de
al le
ha ben
ze it
b ar
lich e
i le
g le
m at
p re
amend ment
ten .
Mit glie
ge m
den ,
dies e
te il
for m
z en
k ann
f ahr
in ter
ich er
nation al
f irst
c au
li k
W ähl
ch e
K olle
te .
D on
hal b
m ü
us s
g l
k en
g re
wh en
as k
safet y
pro v
the m
th ese
M et
cas h
H e
it te
t ent
u f
E s
kt ion
S icher
w ere
o ther
h im
m y
im port
di rect
Met cash
p lo
w ür
f a
de ut
et zt
ä l
be t
ne h
gle ich
l ast
ier t
b o
ra p
op le
M ember
Gro up
sup port
k on
se hr
ist .
f ol
g lich
i hn
t wo
n ung
st at
ss en
f ühr
ukt ur
se e
is h
de d
y our
s i
it ies
w s
Z eit
w en
Pro gram
ne u
su ch
it e
d r
R icht
am p
reg ional
r is
C ar
t y
tim e
c ess
cau se
t ing
o ver
ge w
h and
lie ß
ges ch
z ial
Fra ktion
s ein
ar beit
for der
d u
re e
Au str
vo ters
Europ ä
in ,
und s
Au f
m ach
ge h
B C
1 5
st imm
z w
ll en
ar mon
ta in
M ar
po sit
pe ople
ab out
for e
an y
ly ,
in k
plo y
om in
S ander
Mitglie d
g est
ie d
ist ,
ig keit
le tz
B r
f all
ra g
ate g
d an
al d
coun tr
part icul
particul ar
pres ent
w n
on ly
th an
ver sit
ig er
den .
ä ch
st en
on der
al t
dies em
on t
ge t
d ing
ig h
ib le
D em
com e
ac c
in ce
o c
lik an
20 1
C or
I G
IG A
Repub lic
T ag
g ab
u ch
at z
f en
g t
an ge
n is
ung ,
Ar beit
199 9
f on
wir t
a il
v is
su b
re ad
i ous
propo s
com p
man y
h ere
c le
we ver
be cause
ma ke
re as
ic al
iss ue
b ack
ta ke
lo p
sch e
at ive
iv en
sp r
sch ließ
weit er
n ah
program m
C o
armon is
T e
e v
o s
e .
st ar
ou gh
M ad
wh at
ma de
to o
m ost
we ll
re f
ro ad
we en
Don ald
Cor by
Corby n
Austr al
Sander s
sta aten
werden .
ber e
ha b
h ier
P l
wird .
s en
s ol
re m
F or
l ung
U S
c ed
in to
p on
u es
d it
bet ween
ou th
em ploy
ve lop
i versit
ig r
Z us
St ra
wir k
D ies
z we
g en,
k eine
kl är
M e
g ar
M en
s einer
al y
K och
Reg ional
Ver kehr
Richt lin
z ie
O b
re t
wirt schaft
un der
ation s
i den
ag ain
n um
c our
mon th
Mad am
th ing
wever ,
ent s
import ant
St ates
th ink
o ds
con om
K andid
bes onder
den en
S p
v iel
st or
se it
f und
s eine
str ateg
i z
fra ge
ha be
werden ,
Richtlin ie
) .
Pro ble
i or
L eit
Leit lin
W al
x t
con c
j ust
s ing
ic e
cle ar
if ic
de c
dan ger
u se
wh ere
af ter
with in
le a
go ods
m ust
er b
f est
inn en
Herr n
ander en
St a
P o
w ichtig
de t
p en
i ze
ok rat
ä ft
h ö
g ut
C h
e ff
Str uktur
K o
in v
S y
num ber
ion .
in cl
B ut
itte e
str uct
are as
danger ous
res pon
A s
poin t
le ve
con t
velop ment
ide lin
m id
Ste v
Austral ia
Europä ischen
gen omm
u g
Mitglied staaten
ag en
re i
dam it
ic k
ion ,
B esch
M ein
sp re
sch en
te m
l a
wo hl
ter n
ent lich
Ber ich
sam e
sag te,
00 0
wi ck
ed och
M in
Leitlin ien
un k
hal f
conc ern
be lie
su re
s ince
c ted
c er
ne ed
am e
requ ire
pl ay
Repub likan
Un iversit
sag te
sch ie
am en
mit tel
Q u
re l
it ät
m eine
ein es
ä tz
le x
te ll
ähr end
ie f
ord nung
sag en,
ß e
b is
K on
f eren
ün f
m s
O r
ver l
m al
ass en
Aus sch
setz ung
Änder ungs
zw ischen
w a
Ent wick
en z
j edoch
fon ds
ö ff
f l
ser v
countr ies
di ff
d ra
be ing
c ould
h ow
y .
direct ive
ma in
St ate
h es
gu idelin
e conom
rat ic
B ay
Um frage
Wähl er
n omin
Car son
Ne ws
B BC
po ll
wie der
M ill
ern ,
ke l
i ff
än der
e le
pol itik
w ä
mö glich
dies es
hat .
G er
letz ten
gan gen
hal ten
dar auf
D ien
ie ber
ig n
de b
pol it
tr ä
J u
v om
stimm ung
s icht
ver n
sind .
unter stütz
ll er
Präsident ,
ur s
M a
ol og
un de
ord in
Unter stütz
so cial
at or
o se
po ss
I f
propos al
k now
ex am
mat ter
C omm
s m
vo te
amendment s
ac ce
c or
b or
ple ment
i an
go od
th ro
u gh
c es
employ ment
Stev ens
Dem oc
Democ ratic
I m
Kolle gen
sich er
t un
Vor schl
t i
komm en
er ung
dies en
le d
könn en
gan z
we il
at s
neu en
l änd
N ach
Tag es
I hre
b est
p ut
f ung
G esch
tra g
n er
D a
A ber
mü ssen
genomm en
p unkt
Sicher he
Sicherhe its
ier en
L and
eff e
Entwick lung
4 0
Le ben
b as
th ough
f ul
ne xt
s he
qu est
re d
ol d
sh ow
Th ere
em ent
program me
vie w
ab our
v ing
m .
de velopment
Str uct
Struct ural
poin ts
B ieber
Clinton s
B ür
st er
E v
m ir
le gen
ig ten
bere its
hab en.
mer k
j etzt
hat te
W ahl
er z
ein ige
Dien st
ß er
bes ch
ib t
wür de
s ichtig
ge f
il d
Sicher heit
ib il
ö l
Unter neh
Z iel
in e
F in
pl an
se i
l er
per i
peri od
st ill
ob ject
way s
ho wever,
f act
si der
ll ow
to day
reg ard
ac coun
sh ip
k ing
ge d
F und
gen er
le ad
st ud
Bay ern
S erb
H ung
re it
at ur
b it
te t
Präsident in,
r ä
Zus am
Zusam men
we is
Un d
um ent
H in
wor den
b st
en e
Sch ro
Schro ed
Schroed ter
r ich
Tages ordnung
be its
sch r
et was
Ge fahr
Men schen
So zial
dem okrat
f ünf
äft ig
Ab stimmung
war en
er g
he ute
ück sichtig
5 -
Um setzung
Europ a
Tr ansp
h armonis
al b
C E
CE N
w end
l au
Reg ionen
m et
ag ue
Leben s
th ose
ing s
belie ve
polic y
w ant
read y
acc ord
ad op
e f
Mr s
con sider
en sure
do es
h y
v es
we e
wee k
am ong
at ing
So cial
iv es
f ive
ta ken
dis c
gro up
accoun t
leve l
c ur
tr ib
im plement
l ess
thro ugh
lea der
Pr ent
Prent iss
o hn
R o
M ü
L abour
igr an
c ro
c andid
hn en
uns er
all en
än dern
Z u
W enn
Vorschl ag
ge ben
Fra ge
d ann
gem ein
W och
an z
ze ich
w ährend
ut z
zwe i
Program m
den n
W es
qu al
M al
Mein ung
m uß
wird ,
an ges
EU -
tr au
ihr er
B ere
vie le
F e
it al
ä m
sind ,
sp l
ne l
Berich ter
Berichter stat
Berichterstat ter
h ig
ch n
B o
Unterstütz ung
b u
ris k
in ak
en ce
ed ,
le t
ur g
icul t
sh all
th en
u sed
ic i
lo ok
that ,
is ion
j or
again st
bo th
m o
th ank
ally ,
lo w
ment s
con d
mar ke
ar r
de al
do wn
reg ions
econom ic
pr im
S outh
M or
Trump s
B iden
S it
Parlament s
ro p
min ute
A t
u ation
J a
ar t
s atz
ne t
imm er
l t
a de
erst en
n ie
D es
Ent sche
u ar
h m
Se p
R and
) ,
w es
om an
son dern
200 0
lich er
d au
h en,
gef ähr
K ommiss
Kommiss ar
s y
st em
au m
Verkehr s
we g
ier en.
be l
C on
Te il
sch ein
im um
u ck
u str
pro ble
ahl en
Besch äftig
c ap
P unk
L a
k te
- M
In v
rap h
is ,
m ill
deb ate
particular ly
ap pro
ity .
ent en
c all
requ est
ly .
m uch
c r
se t
ed .
fo llow
Comm ittee
reg ul
ma jor
min is
ic t
poss ible
l ar
c il
us in
cont in
pro ject
rap por
rappor te
g iven
go vern
l ish
bor der
wh ile
Sch mid
am er
3 0
Mü ller
Al di
Republic an
Republic ans
unser er
besonder e
T o
ö s
sp ro
h än
is l
hand el
Woch e
sel bst
A ll
deut lich
ach t
hat ,
ut ion
s einen
l age
e uro
p ä
Program me
B ar
ch ten
Ar beits
Ge b
Re gel
schr if
nah men
Entsche id
N o
Me hr
at te
Präsident en
ant rag
demokrat ischen
Jahr en
ne ue
könn en.
J e
e ben
is ten
K ar
h ät
ze l
b ess
forder ungen
ör der
an trä
ier te
Gr en
ze ig
at ten
we ise
1 .
Aussch uß
k ur
sag en
1 2
ö t
Mit tel
Struktur fonds
pr iv
kt or
Pol itik
so zial
I de
f te
a hn
pro f
ou se
e very
ag re
u al
d one
he ther
ent ly
al ready
sel f
wh y
f ar
inc reas
se em
ut ure
d id
c it
cl ar
he l
v ed
l ack
c y
th us
ad vis
rapporte ur
prov ide
ta il
con cl
ation .
pro cess
effe ct
lo c
O n
F unds
guidelin es
ation ,
r ural
t al
lin e
Universit y
B ack
d ig
B en
Vor w
P e
Corbyn s
Un gar
prim ary
Jahr es
h off
i um
Bür ger
he b
reich en
H aus
k le
Ver ein
i ,
merk sam
isch er
nis se
l ü
da für
n un
f ang
P unkt
ges etzt
fr ü
1 8
p ass
1 3
Ja hre
so wie
An trag
zur ück
Sep tem
Septem ber
and ,
hal te
De b
aus ge
mü ss
l le
uns ere
hal t
N amen
er .
sag t,
zu g
. .
kl ar
ber ücksichtig
5 /
Regional politik
ver kehr
St and
ind est
G ü
et t
s id
Änderungs anträ
gl au
be g
is p
5 0
W as
Unterneh men
Ü ber
re al
Ge w
Geb ie
E x
st är
f lex
Wir t
au pt
wirtschaft lichen
US A
äl t
lo s
p p
cour se
ur ing
a ce
say s
pr inc
day .
pr ior
ud ing
adop ted
at tent
ing .
spe c
spec ific
there fore
a ir
i ther
r ight
incl u
con f
year s
posit ion
hel p
e ach
sup por
reas on
lar ge
Co un
ele ct
c i
b usin
acce pt
ur es
ar ds
h igh
gre ater
ct or
res s
si x
se cond
i th
est ab
h ol
ar o
aro und
sch o
am a
ess or
M iss
ip p
St ud
Th om
Mill ionen
B us
Bus h
Kandid at
T T
TT I
TTI P
IGA -
K ok
Kok k
Kokk inak
He aly
Ungar n
polic e
W ie
stell en
bes te
Kolle g
se hen
ste hen
fol g
l ä
r icht
Ar t
t ro
wä re
er ste
i der
g ere
gangen en
Dies e
Stra ß
sch on
o gen
ent spre
w ort
il it
Pr ü
Dienst ag
be gr
fall s
fahr en
Par te
Be deut
gen d
vor ,
i ß
h ör
tre ff
bei den
m ich
Be f
e hr
Gefahr gut
h ne
ex p
be im
str uktur
H er
schließ lich
g ra
ung .
l ang
Gren ze
ch s
ze hn
ge ht
inter national
le ,
transp or
r ie
w ach
Sta aten
F re
sp iel
Be it
br ing
lich keit
Koch ,
Änder ung
g ang
r g
gleich en
schaf ts
v ier
Wal es
zent r
länd lichen
k er
Inv est
wo hn
o per
v i
be fore
me et
w hether
T hat
star t
y o
qu ite
c ut
ap pe
sm ok
cer tain
t able
v ious
it em
T ues
spe ak
he ar
ic ally
c rit
disc uss
ear ly
ta x
ev en
ind ic
st ate
w ater
tra in
act ion
ing ,
co st
ir d
cur r
The y
th ree
y ing
dit ions
it t
l ong
wor th
c re
f our
hes ion
govern ment
S m
ter m
- K
Pol ize
ver öff
y s
Sp iel
änd ler
Sy r
min ister
F ühr
Kandid aten
S port
Wes tern
Metcash s
mill ion
Hung ary
1 7
w ün
I hnen
at ast
atast rop
n äch
b itte
r i
ke ,
it i
1 4
legen heit
z war
Re ch
f u
it ion
tre ten
f re
wirk lich
Er geb
euro pä
b in
ber eit
I hr
Mon at
R auch
gro ßen
st änd
A BC
Er klär
Erklär ung
E m
soll ten
ges e
feren z
Änder ungen
Z ie
Pro di
leg isl
i hm
er klär
m einer
nah me
Kommission ,
g ibt
M ö
d ank
wi es
da von
ver k
glich keit
w icht
k o
5- 0
1999 )
G em
lic k
Gü ter
( C
H armonis
b ild
P ers
be wer
b s
n or
sid i
Änderungsanträ ge
d rei
inn er
v ent
se qu
Bere ich
The ma
zeich ne
de ,
an ,
te chn
1 9
et wa
land ,
p ra
en g
all er
un n
D urch
i x
l ass
le v
be h
Reg ierung
priv ate
h ing
inv est
po tent
Be v
w ander
Min ister
St ad
f ind
ungs -
as i
og raph
ich te
s ess
on ce
w ish
ho pe
Y ou
H ouse
month s
quest ion
some thing
programm es
u ally
princ ip
m ay
A mer
yo ung
attent ion
in de
pl ace
op in
an other
pro per
dec ision
respon s
to p
feren ce
ist s
it .
pro ced
p ly
re present
ex ce
or y
ag ree
I s
Coun cil
r ul
c lo
busin ess
g ive
op en
ent er
ne cess
Commission er,
ach ie
con trib
gre at
at is
to war
ke y
comp an
st ates
m ind
j ob
tim e,
ab ly
w ing
k es
ce .
pl ann
fr i
fri end
pro d
is ed
polic ies
3 ,
3 .
Ob ama
Miss iss
Mississ ipp
J ohn
nach dem
M ich
F o
Au ßen
Je b
5 2
Ein e
C B
CB S
201 6
Thom as
C amer
Camer on
Lebens mittel
Th an
Kokkinak is
K y
Ky rg
Kyrg io
Vorw ahlen
nomin e
igran ts
cro ss
kon n
ein ge
p f
sp ra
Kolleg innen
er heb
w iss
Präsident in
K ön
ab il
wo ll
f ä
zu sam
at en,
ig t
in ne
ges tell
ver gangenen
z un
uns eren
B ü
ch en.
S en
ste h
Entscheid ung
L age
l än
le hn
icht s
ost en
Kon ferenz
lie gen
Parte i
enn en
au ßer
da zu
Deb atte
Vor sit
gesch l
ach e
up pe
w är
ier t,
dar um
Mö glichkeit
neh m
Arbeit spl
Gem ein
M indest
Sicherheits ber
is ation
te t,
b au
rit ten
it ä
Europä ische
wur den
lo ck
be ,
s einem
al e
Proble m
A kt
1 ,
fr ont
ding s
ier en,
an sit
Transp ort
ier ten
R is
Ris ik
wend ung
ind ustr
wen iger
am m
inner halb
N ot
u ge
wen ig
R es
Wirt schafts
b re
Ko h
Koh äs
er war
w ahr
st um
sozial en
An sicht
ver s
a he
S u
alle m
ein zu
h ält
En de
H äl
a .
ä d
ver di
p has
Gro ß
al es
dis ast
fe w
d uring
part -
re cent
it ed
ex pres
a th
su g
comm on
comp et
Parliament ,
a ,
s ign
incl uding
al ways
pub lic
act iv
inv ol
ben ef
per son
agen da
bu il
ref er
propo sed
polit ical
for e,
be come
ou ts
c ord
crit ic
is ing
on -
diff er
can not
to ge
toge ther
m ember
de clar
W hen
is m
harmonis ation
require ments
ra il
wi de
op port
opport un
min imum
v id
exam ple
r y
towar ds
ex per
import ance
J ust
compan ies
pe ct
th ird
D el
marke t
f ac
hig her
prod uct
m ed
her .
sh are
N et
Sch ie
Stud enten
G re
im e
G O
GO P
P ost
Wähl ern
Vor spr
amp ions
D ou
G es
h ändler
Than asi
Kyrgio s
fen ce
fo od
m igrants
h on
hon est
Sit z
io de
m als
all es
D och
un sch
- ,
ver schie
L ändern
S ri
L ank
z ahl
B es
geb ra
Don n
Donn erst
Donnerst ag
g t,
kle in
f ü
sam en
V iel
S inne
Po sit
F all
ß t
f en,
B et
pr ü
äch st
Des halb
d ort
T re
mach en
N icht
ver b
hal ten.
Ste ll
P al
z ogen
en en
om ent
zu fr
zufr ie
bar go
entspre chen
wurde ,
ä uß
J an
wurde .
t ag
re form
Bar n
C res
Cres po
ver fahren
g en.
ges am
A m
g lichen
ihr en
wo bei
soll te
un t
sein .
Vorsit zen
je der
M an
u er
al en
1 6
me l
pl ans
at ür
atür lich
her vor
kann ,
an .
örder ung
gefähr licher
Sch ien
B innen
Harmonis ierung
Aus bild
5/ E
Pers on
so wohl
W ett
mar kt
sidi ar
sy stem
Fra gen
Zeit r
le is
schließ end
au t
N or
gab en
sicher heit
di ge
gl ück
se chs
ma x
h ung
er k
Bedeut ung
isp iel
ev ent
c kt
s um
gr at
grat ul
st re
ander e
str eng
Risik o
se .
4 /
da bei
Au ch
F ol
me isten
R ah
Rah men
ig en,
H aupt
Ko ordin
Kohäs ions
2000 -
2000- 200
2000-200 6
4 4
Kön ig
m ut
ät ze
cap ital
fin an
ts .
d re
Bev öl
sp ol
ul t
sch ne
p ul
regional en
f -
ver trau
we l
gegen über
D ire
los igkeit
Häl fte
be de
Ber lin
B ern
S eit
land s
st ie
f ast
k s
be half
v ar
ag o
sit uation
fe el
ad v
princip le
leg al
accord ance
en v
as on
ic es
new s
e ither
en for
table d
pre vious
go ing
day s
m ilit
Con ference
at ure
ex pl
e ch
is he
ishe d
say ing
g ht
comm ent
du ce
H o
ir m
sit ting
to ld
ad d
m ight
l ight
ow n
ro w
necess ary
advis ers
stand ards
ibil ity
ch ange
sub st
and s
war d
ear ch
c ar
pe cial
e ver
f ie
fie ld
l on
loc al
po wer
comm ittee
i ly
estab lish
ch ar
co ordin
Co hesion
se en
atis f
U K
mat ch
c olle
potent ial
iz ens
te e
s k
beh ind
of ten
th or
er s.
s ha
ct ion
com ing
a way
Net any
Netany ah
Netanyah u
Was hing
Washing ton
Del ta
Mit arbeit
veröff entlich
O Ste
st u
Ne w
Fo x
P rem
Prem ier
og ul
I ow
ge ister
2 8
r und
Ch ampions
Le ague
G öt
Göt ze
: 0
G uar
Guar di
Guardi ol
Dou gl
m us
i as
te am
D If
DIf E
S uf
Suf j
Sufj an
di o
alb um
minis ters
sh ot
1 00
An d
J D
Sport s
Al ha
id a
Mor gan
St an
H ill
Hill ary
, 000
p resident
re tail
en thus
accord ing
candid ates
go al
tr ust
s ales
Aus spra
Ausspra che
l auf
näch sten
ins besondere
Union ,
den k
g ern
for dern
ihre m
L ös
Lös ung
wi er
wer de
h ang
j ähr
ar en
Rech ts
w and
G en
ch en,
Verein igten
ge leg
icht ,
et s
D ank
g n
in form
st it
w alt
ger ade
K r
europä ischen
we gen
il der
Schroedter ,
zusam men
W ort
äch lich
D en
L u
Br and
r auch
W er
ge geben
pr äsident
f en.
Mehr heit
anges ichts
ant wort
äuß erst
Pro f
Prü fung
Zie le
stell ung
ig ung
Z ust
om it
gr und
dar an
vo t
W or
ä ß
ig ,
Kollegen !
H än
ge führ
ein igen
Pro ze
Proze ß
führ en
müss en,
d lichen
lo ssen
ab zu
weit e
hab en,
be dau
l assen
Aussch uss
Hin b
Hinb lick
Straß e,
an c
tra gen
k om
Änderungs antrag
weit ere
lie ßen
Verkehrs sicherheit
unterstütz en
b al
g ute
Gr ün
Auf merksam
Aufmerksam keit
f er
itä ten
ich ten
be zie
ent liche
wer t
Bo den
er hö
Be i
De ut
Zeit punkt
dar f
l es
le ist
ed n
lo k
stär k
In ter
Reg ion
ä um
N ation
ier ungs
el t
König reich
Pl an
w in
En erg
Beschäftig ung
Her aus
wander ung
fe hl
Union .
spol itik
be zug
K rit
Sch l
ü t
und en
Rand lage
Pro je
ä uf
vis ion
Ver wendung
In sel
ä den
wahr schein
wahrschein lich
ed u
- F
g s
id ay
j o
su ff
es ted
part- sess
i ate
let ter
M y
Th urs
com es
in tro
k ind
d ate
Amer ic
cas e
ut ions
year ,
ve ment
bas is
pro te
dra ft
re ce
exam in
prov ed
acc ident
sel ves
appe ar
r ene
rene w
p ast
ex tre
s end
f uture
fin al
object ives
proced ure
spe ech
opin ion
re ally
them .
n on-
course ,
differ ent
- year
all ,
Ho wever,
ro le
ide a
se ver
ment ion
al low
dit ional
Pol ic
cost s
com ple
se ctor
Commission er
c arr
con ditions
ur ther
comm un
Ger man
fu ll
ent .
contin ue
W hat
n ame
st age
go ti
z er
iss ues
atisf ied
ch allen
plann ing
vie ws
cit izens
ta king
2 1
gener al
concl us
c ret
cret ary
B rit
c us
i -
w th
implement ation
a im
W h
stud y
au thor
ear n
er s,
w an
dam age
Republikan er
Polize i
F l
. 000
H a
on line
ik an
so ci
J ob
f ern
Ro ber
B an
N omin
Nomin ierung
re pub
repub likan
i ac
B und
Bund es
M ün
me ter
O ly
Guardiol a
Z ahn
Ar ch
R h
Rh ein
ar ch
B au
Schie ds
R ich
S A
Mar kt
Ein zel
Vorspr ung
1 1
c amp
p ict
him self
l ater
stor es
like ly
d ont
candid ate
vo ter
M un
Mun ich
c ame
b ro
Sitz ung
sp er
ch sel
W unsch
F ern
Lank a
j ün
hat te.
B ed
Sit uation
iti ative
Ev ans
Zusammen hang
tr iff
An ge
Ange legenheit
be f
schl ä
L änder
lo t
Gr unds
meine ,
at iv
te id
Präsidentin !
in .
ig es
vor zu
Gr und
Besch lü
s se
mach en.
bes ten
dafür ,
Bü ro
Mit two
Mittwo ch
sch utz
ein z
199 8
b ur
stat t
vor schrif
Stell ung
V ize
Vize präsident
Pal ac
Palac io
frü her
ge ,
zufrie den
em bargo
nicht ,
h en.
fol gt
ä f
vor .
Europ as
er inn
Ver trau
ins gesam
er arbeit
R at
off en
do ch
sp unkt
k rit
Hän sch
Mitglie der
ung en.
vor geschl
ander er
R oman
Str ateg
ch es
ges ag
gesag t,
wo llen
St reit
geh en.
K ont
j ahr
stimm en.
P P
PP E
n äm
näm lich
das ,
dis k
disk ut
hin ge
hinge wies
- St
geb en,
habe .
begr ü
le icht
hal ten,
ein zel
einzel n
durch geführ
wor den,
in ge
mor gen
ge hen
N atürlich
imm t
ak ze
akze pt
( A
(A 5-0
(A5-0 10
Ausschuss es
Regionalpolitik ,
Stand punkt
Sicherheitsber ater
Bef örderung
Schien e
erst ra
(C O
gan isation
Wett bewer
S ub
um gesetzt
Regel ungen
ihn en
Zeitr aum
ra ft
glau be,
K atastrop
Mon ate
T un
o v
vor liegen
zeit ig
st än
möglich st
s or
ent lichen
e ig
zu ,
wi d
Proble men
I S
9 00
Hin weis
Pr ior
stand s
bar en
z weite
bere ich
Deut sch
b en,
R olle
ver sch
gemein same
kon k
Gr uppe
im p
Proble me
geh en,
p a
in z
Aus dr
Ausdr uck
m einen
U hr
ger ungen
is k
A d
Stra ße
a kt
stell en,
Transp ar
Transpar enz
T em
Tem per
end ,
neu es
u ten
al ten
sch wer
Beit rag
is .
n ,
wirk ungen
ll .
We ise
Koordin ierung
Kohäsions fonds
g il
fon d
Ziel -
Z we
k äm
käm p
Ver bess
Verbess erung
ß nahmen
H and
Gebie te
ent wi
entwi c
entwic kel
Beschäftig ungs
um f
fin den,
n ahe
t t
Punk te
Re de
le it
H alb
F on
Fon ds
or en
Un gleich
so ur
ent ial
per s
di k
geh ör
H il
in land
wohn er
2 5
ä ne
in te
inte gr
u le
of t
Richt ung
G l
ail s
ent ,
h aus
prof it
pr ä
ple as
ile d
sub ject
Member s
var ious
a w
appro pr
reg ret
diff icult
fund ament
fundament al
report ,
i .
report .
ke e
R uss
activ ity
Th ese
person al
well .
meet ing
W edn
Wedn es
posit ive
al th
W hy
smok ing
seem s
quest ions
inclu ded
refer red
con tent
major ity
extre me
extreme ly
ha p
u ary
Par ty
strateg ic
fa v
fav our
who le
acce p
expl ain
sug gest
pro ce
proce ed
ion s.
me ans
at t
agre ement
f irm
regard ing
sever al
ach ing
declar ed
ex plan
ask ed
this ,
ation s.
bet ter
that .
p ay
le ct
examin ation
road ,
ct ive
transpor ted
opportun ities
ex cl
de gre
O ur
rul es
cl ass
struct ure
iv ing
l ay
s outh
ien ce
e y
tr ansit
con gratul
congratul ate
exce ll
excell ent
for ward
are a
reason s
es pecial
po se
report s
concl u
Fin ally,
itt le
S h
curr ent
br ief
ne ver
mar g
ef for
on str
rapporteur ,
lon ger
areas .
M ay
tem per
me an
n al
ag ing
ne goti
coordin ation
Ob ject
Object ive
ass ist
su c
suc cess
Fund s.
T ra
ser ious
po pul
ag r
agr icult
se ason
al most
iss u
le ast
programm es.
S he
- term
cont ro
project s
Wh ile
S ome
un employment
follow ing
end ing
ur b
i ke
f ree
scho ol
c alle
calle d
respon d
w it
he ad
i ra
f li
No tr
Notr uf
Prof essor
erz ähl
il ien
A my
Be hör
C leve
Mississipp i,
3 00
Schmid t,
G aut
Gaut ier
Schmid t
Lamb s
sp ä
ans as
h of
E l
ver such
U r
OSte en
- S
ra ce
F uture
T im
C hr
ber g
m ob
Führ ung
l ub
ll ar
Republikan ern
Iow a
Mar co
R ub
Rub io
ABC /
ABC/ Post
op f-
P ir
Pir ä
Pirä us
Oly m
3 5
Da vid
J er
le y
7 6
Po ts
Pots dam
Rauch en
use um
h ist
3 6
8 00
str ö
US -
Mich ig
Michig an
show s
i den,
Fra gest
Fragest unde
Labour -
Brit ain
B ilder
ide o
E -M
ic s
% ,
Just in
i ktor
Kar to
Karto ff
Alha y
ol es
H ar
Har ris
Harris on
Serb ien
M igran
Migran ten
igr ation
2 7
Dem okrat
Clinton ,
ehr lich
vertrau ens
vertrauens wür
9 11
fo und
h om
w oman
tr ying
n t
said .
Tues day
nomine e.
enthus i
enthusi ast
Ger many
s qu
wor ld
ar bit
S ince
at o
Serb ia
Hung ar
trust worth
me ,
Sch we
Sie ,
minute .
res se
wiss en,
jün g
on n
an gem
angem ess
Bür gern
wür den,
an s,
den ke,
stand en
k un
M eine
be triff
weis en
spro gram
st ra
Grunds atz
at iven
re cht
D ok
Dok ument
k einen
Be g
Bericht .
fä ll
T ex
st ets
ver treten
auf merksam
fa ßt
pro chen
gem acht
inform ation
e ll
so ,
viel en
gestell t
al sch
im in
ro ff
Ergeb nisse
wichtig sten
Beschlü sse
zun ächst
nie der
isch es
ge be
rich ten
je den
war um
re gel
ver ab
verab schie
aus sch
s sel
be le
nicht s
n omm
ch t,
leg en,
Rechts vorschrif
hat ten
fra gen
ständ igen
te ten
län ger
In d
Ind on
Indon es
lehn t
gro ße
ier t.
K osten
äf ts
Mon tag
Ver walt
Crespo ,
wün sch
Wahl per
Wahlper iode
g ing
B ill
dr ück
Zust imm
polit ische
T ät
Tät igkeit
Vertrau en
Ju li
war ,
l ern
An fang
hin sicht
hinsicht lich
Bere it
lie be
ier e
komm t
N ur
sag en.
Vorsitzen de
b zw
bzw .
j a
im men
J etzt
Strateg ie
geh t,
We g
Kont ro
ün ft
setz en,
Z um
lie gt
D E
setz en.
j em
wär en
f ach
sol che
Ste u
an zu
d ür
wicht ige
s inn
einzeln en
e igen
ge worden
Pro to
Proto ko
Protoko ll
ass ung
x ,
or g
br igen
F rem
Frem den
Fremden verkehr
R ates
Binnen was
Binnenwas s
Binnenwass erstra
D )
t ät
tät ig
Sch ul
o hne
erz iel
a )
fol ge
unter sch
Ch anc
ho hen
entsprechen den
F ür
Ö ster
Öster reich
tun nel
k ost
Tun nel
wicht igen
sein ,
müss en.
be glück
zeichne ten
da her
is se
Ch ar
er forder
An forderungen
s weise
Stra ßen
Be ispiel
i en,
Gefahrgut transpor
den ken
off ens
L ad
ch er
verk auf
des halb
an aly
2 .
it z
W ass
kt .
M är
er wä
erwä hn
t :
be ding
beding ungen
neh men
Beit rä
lo ss
kur z
Pr inz
vor r
vorr ang
aller dings
effe kt
besonder s
fin det
Ver z
An hän
stehen den
CEN ,
treff en
Durch führ
J un
u el
D ar
t ank
lass en,
weiter hin
ein mal
k rat
würde .
an ten
im at
ro st
Gr enz
ap pl
re in
d ritten
Aus wirkungen
p ack
Ver hand
l ungen
Präsident !
to ber
wur den.
auf ge
gr iff
Wal es,
Ziel- 1
Ziel-1 -
ind ung
ig t.
l u
Zus ätz
an teil
b rit
Plan ung
a be
Fre und
n .
sta at
Ma ßnahmen
hät ten
W ach
Wach stum
Dienst leist
Arbeitspl ätze
gr ö
grö ß
um fang
umfang reich
te te
gr enz
j en
jen igen,
Land wirtschaft
e llen
Bevöl k
Bevölk erung
R aum
In fra
Infra struktur
is on
hän g
it or
V ier
pro m
Bericht s
sp ie
wi der
Er reich
Unterneh mer
mit t
K omm
kon zentr
ag er
ste ht
b are
Berichterstatter in
Stad t
h äuf
häuf ig
Ein ige
bede ute
L ang
Bern ie
zeig t,
ver t
Sy stem
al er
lass en.
gese hen
da ch
H ier
habe ,
land es
Re form
spr uch
10 ,
ha pp
s il
sil ence
v ic
le as
b om
bom b
appropr iate
w rit
Parliament s
vi ol
ib ly
ann ual
f le
dra w
con s
inter est
know ,
specific ally
iv ed
ch an
act ually
t est
buil ding
ill ,
ab sol
our selves
V ice
ans wer
oc cas
this .
v ast
respons ible
milit ary
du c
stat ement
ad minis
adminis tr
Commission .
accep ted
comm it
en ough
present ed
so on
or ig
orig in
outs ide
s im
is ions
A c
Ac cord
Accord ing
call ,
ach ed
it self
suppor ted
do c
A f
Af ter
qu ar
pre par
gh ter
work ing
cor rect
m ann
mention ed
r on
clo se
to mor
tomor row
O f
ad ditional
no t,
or der
Polic y,
T our
F irst
ne e
gu ar
guar an
flex ibility
support .
in ste
inste ad
nor th
ic ip
ste p
well -
a v
time .
safety .
y et
enfor c
exper ience
im pro
techn ical
concern ed
require ment
example ,
E ast
con tain
proble ms
especial ly
proble m
de tail
detail s
re ma
rema ins
W ith
states .
employ e
employe es
ha ving
suff ici
al though
l ittle
ra ther
d ou
ein g
f urther
dem onstr
effect ive
a da
res pect
id es
sh ort
b ure
bure au
bureau c
ra c
h ard
lo wer
u ted
adv an
em phas
st op
m oment
par liament
commun ic
po or
re co
fund ing
edu c
en erg
res our
resour ces
f unds
subst ant
finan cial
con struct
propos als
challen ges
fa ce
in fra
ti -
dem ograph
ho t
dis trib
dis par
Se cretary
lo sing
gro wth
off ic
j ud
l ing
to ok
he ard
is es
per ip
perip her
peripher al
process .
l ate
in fl
off ici
offici als
author ities
ot ing
c ity
main ly
pl ac
P ub
pro b
ll ,
r ise
v en
p ie
direct ion
z or
Tre ff
scho ssen
Be am
be ton
s ü
könn ten
Behör den
unter rich
L amm
D o
sag ten,
4 -
spä ter
M us
Mus ik
er -
S ol
soci ated
L äden
W ährend
Ro y
beg inn
Syr ien
Gen er
Außen minister
C hin
Im mob
Immob ilien
au p
Su per
C lub
Trump .
S ach
republikan ischen
Wähl er,
as se
R ennen
K as
Ein wanderung
An gel
Qu ad
Quad rat
Quadrat meter
St u
T or
Olym p
ou ver
W elt
8 8
L in
pro vo
2 ,
st o
4 .
F rei
Frei handel
Freihandel s
Pr ime
Al b
bo ard
Premier ministers
ar ische
Sch atten
n ight
Gew inn
M P
Job urg
E-M ail
stie g
Um satz
V iktor
Pl atz
Kartoff el
IGA- Einzel
T enn
Tenn is
ü cht
O pen
qu et
C ha
Z a
Za un
af f
B iden,
vertrauenswür dig
co ver
prof essor
stud ents
p ick
ch o
re por
month ,
Syr ia
on s
c ris
ur n
week ,
points ,
suppor ters
imm igration
met re
P ira
Pira e
Pirae us
go t
Sm ok
tee th
em er
a e
ae olog
R hin
arbit r
arbitr ation
tra de
stor ies
P M
PM Q
PMQ s
sha do
shado w
pub lish
j ump
po t
pot ato
reg ister
register ed
cer y
retail ers
Hungar ian
voter s.
De z
wün sche
noch mals
hoff e,
ein iger
N atur
wor den.
bit ten
verschie denen
( Das
mehr ere
z ähl
am ,
Mon aten
au ern
mittel n
stehen de
su chen
Ev ans,
der art
kun ft
er ne
erne ut
gr unds
stell t
un zu
tun .
woll en,
d .
Beg inn
fäll t
m en,
as ,
n am
ver teid
mach en,
be faßt
A lex
Alex ander
N ik
Nik it
fre u
Z ug
Re cht
Sta ats
N ut
Grund lage
ak ten
Posit ion
An geb
Den noch
m einem
l änder
mö chten
Nach richten
lo o
i j
steh t.
schie den
ä u
W ar
War um
we der
Br ü
Brü ssel
b ung
Nicht rauch
L y
Ly n
ne ,
b reit
Palacio ,
be ant
beant wor
No ve
Nove m
Novem ber
er sch
W af
Waf fen
Ver gangen
Vergangen heit
so gar
Dies er
bis her
r ing
f s
Gesch äfts
Jan uar
be antrag
zun e
of ern
te t.
erinn ern,
im al
aus ,
wir ,
ür z
mö glichen
leg en.
außer halb
führ en.
Wor ten
ver ein
dan ach
Kolle ge
krit is
ver tre
2 2
18 0
he iß
Mein ung,
vorgeschl agen
Roman o
we iß
ge ord
geord ne
geordne ten
auf grund
Fe br
will ,
vern ünft
bei de
ab .
ün d
K ap
Kap ital
- Fraktion
abzu setzen.
G el
l ag
icht .
Po et
Poet ter
Poetter ing
lo g
t ut
i ber
nicht .
ob in
im me
k tr
ktr on
Ergeb nis
.. .
früher en
begrü ß
Ab schl
Viel leicht
vo ll
auf genommen
nehm en,
nehm en.
D inge
id ,
reich end
gro ßer
f alt
ü brigen
Gemein samen
an forderungen
8 /
(CO D)
Er st
3 5/E
Z weit
Zweit ens
b )
Wettbewer bs
untersch ied
national er
Ausbild ungs
k osten
Chanc en
Mindest nor
F lex
Flex ibil
antwort ung
Sub sidiar
Subsidiar ität
gem äß
B lock
an genommen
betriff t,
k raft
ges te
Katastrop he
kost et
fin anz
ab gesch
da durch
An t
Ant wort
vorliegen den
geb il
n ü
sequ ent
de f
c ke
ma ß
Prü f
str ument
Er hö
Erhö hung
zeig en,
B em
ein gebra
eig entlich
erforder lich
eben so
f äl
ne ben
fer t
Sch wier
Schwier igkeit
Ste lle
treff en,
Über ein
geh end
te ile
k ten
Prior ität
rä um
G ese
Gese ll
der en
hät te.
unterstütz en.
über ze
m ein
Wass er
Mär z
re ag
ke pt
It al
Ital ien
hn lich
R ack
le ch
ern .
pra kt
Beiträ ge
S wo
Swo bo
Swobo da
if ell
ifell os
Möglichkeit en
urs ach
Er ik
Erik a
führ en,
pe kt
arbeit en
O M
OM (
OM( 1999)
15 8
1999 /
9 4/
94/ 5
94/5 5/E
D isk
T er
Vor schrif
EU- Kommission
Ex per
Ma i
gr ün
muß ,
hin aus
er lau
min us
199 7
str u
G le
rit t
uf en
re lev
äl ter
Ber ücksichtig
Berücksichtig ung
We chsel
könn en,
Gr unde
ge leis
be handel
Er neu
Vor aus
V at
Vat an
T ats
kann .
ater ial
be kann
gu ten
besch le
beschle un
Verhand lungen
O k
gel ten
G ra
F est
dr än
lau t
teil ung
au ms
über h
überh aupt
Struktur fond
n immt
star k
Er folg
soll te.
Fin anz
Se ktor
hö her
In du
Indu str
el s
Al s
Energ ie
iel t
F lau
Flau tre
sozial e
erarbeit et
r an
zie llen
Sch af
Schaf fung
möglich keit
de ck
Ansicht ,
grenz ung
hoff en,
die jenigen,
h t.
zeit r
umf assen
u gen
Kommissar ,
länd liche
Heraus forderungen
ab häng
Men sch
Mensch en,
ün st
5 ,
Vier tel
A spe
Ö ff
all gem
d nung
Schl uß
Schluß fol
Schlußfol gerungen
Punk ten
m ul
könn te
i en.
Erreich ung
not wend
erklär t
ague ,
Par t
Part ner
her aus
M ed
pers ön
di en
her um
m ess
W o
D et
en th
ben e
ent r
Hil fe
dar in
In dik
Indik ator
d ukt
Arbeits losigkeit
br auch
h ungen
t ischen
8 9
reg ionen
äußerst er
Be kämp
Bekämp fung
Ju gend
Lang zeit
ich ,
beglück wünsch
beglückwünsch en.
phas e
ge ograph
ver teil
n ä
zurück .
M id
U .
erz ahl
sch ätz
L ast
auf ,
F le
enn t
A gr
re par
sequ en
po ten
än g
v ol
Vor stell
up pen
De c
period .
Al though
disast ers
requ ested
ser ve
concern ed,
ro se
ob serv
te le
O ne
every thing
in itiative
ty pe
Thurs day
ra ise
ta ins
red uct
reduct ion
ible .
for tun
fortun ate
ex e
en ch
In de
kee p
posit ions
show n
cour ts
ia ,
env ir
envir on
environ ment
igh t.
st ated
res ol
pl en
plen ary
invol vement
rece ived
chan nel
increas ed
legisl ation
qual ity
Br us
Brus sel
b our
absol ute
absolute ly
ke en
Vice -
serv ices
comm ents
us ing
hap pen
President s
Jan uary
Tues day.
Social ists
propo se
un an
unan im
ous ly
there fore,
expres s
conf iden
confiden ce
f am
rem ind
possible .
programme ,
There fore,
ask ing
agenda .
ch air
vot es
matter .
exce pt
th ou
thou ght
here .
other s
need s
doc ument
intro duce
h old
Social ist
re je
reje cted
rem o
add res
w ent
do ing
elect ron
electron ic
res ult
l ier
ap pre
re cord
m ot
Ev en
Min ut
sol ut
ref lect
them ,
Tour ism
water ways
train ing
way .
nee ded
Dire ctive
achie ve
increas e
res ul
e qual
curr ently
excl us
regul ation
be ar
sub sidiar
subsidiar ity
ance ,
ur ge
B y
for ce
duc ing
with out
de lay
bu ild
contin u
h uge
tra ff
P re
av ail
avail able
ap p
enforc ement
s c
look s
poin ted
f ight
impro ve
road s,
ium ,
ire d
res earch
year .
for d
inclu de
comp any
unt il
qu is
increas ing
which ,
the less
sign ific
safet y,
Mar ch
qu ick
Commission ,
It aly
li ve
mon itor
countr y,
transport .
k il
max imum
prior ity
object ive
c ir
cir c
circ um
circum st
ap ply
ty .
af fe
po st
de ad
sm all
ator y
l at
T wo
atur es
north ern
reg ions.
provide d
c old
cl im
n u
ch anges
inter nal
tain ing
States .
ar ily
it es
Un ited
E conom
certain ly
di versit
establish ment
contrib utions
parliament ary
communic ation
gro wing
Pr inc
reco gn
rel ation
d iss
f ig
invol ved
transp ar
ta kes
cent r
educ ation
p end
job s
it ,
draft ing
Res earch
De velopment
agre ed
co hes
cohes ion.
strateg y
star ting
popul ation
areas ,
so c
soc ie
net work
employment ,
cre ation
agricult ural
ities .
conclus ions
object iv
work .
n ess
part icip
z ed
distrib ution
m is
comple te
ies .
us .
L et
fo cus
guidelin es.
li fe
development ,
jud ge
ass ess
benef it
achie ving
indic ator
appro ach
sp ending
one .
play ed
ion s,
lea ving
long -term
des er
li ving
mon ey
who se
bas ed
level s
un less
at a
en l
Is ra
er schossen
H und
sei ,
and en
lie b
An gaben
Cleve land,
Universit ä
hin ter
tal ent
Gautier ,
Gesch ichte
a dem
Brand on
hat te,
La For
LaFor ge
Ar k
Ark ansas
Gre env
Greenv il
Greenvil le,
John son
auf .
200 9
5 00
ig .
Ha irst
Hairst on
Fre unde
l ,
war .
S ha
T och
Toch ter
Ab ig
Abig ail
M ike
h armon
Pub lik
Publik um
amer ikan
n ing
As sociated
P ress
To ys
U s
k rä
We ihn
Weihn ach
Weihnach ts
Pro du
4 5
ent fern
Mich a
Micha el
J .
D ian
Dian a
F il
Chr is
lo y
Rober t
Spiel berg
U N
- C
he f
Gener al
gleich e
Immobilien -M
Immobilien-M ogul
R ick
P err
Außen seit
Mon m
Monm outh
Qu inn
Quinn ip
Quinnip iac
letz te
GOP -
C N
CN N
CNN /
CNN/ O
CNN/O R
CNN/OR C
6 7
be geister
begeister t
Be geister
Begeister ung
4 3
4 7
bomb ast
News /
k u
hy po
hypo the
Car ly
F ior
Fior in
Fiorin a
Wal ker
4 6
- Umfrage
W ohn
Mün chen
Sp it
3 :0
Olymp ia
Olympia k
Olympiak os
Mar io
S er
war t
6 88
dar unter
D ort
Te am
Dougl as
Le wand
Lewand ow
Lewandow sk
Ide y
Idey e
2 6
. ).
M at
Mat th
Matth ias
S am
Z ä
stu die
Arch ä
K öl
ou lev
Tr ier
am t
B ahn
Lin dern
z ern
prä che
IS D
ISD S
Ges et
H amb
Lu x
Alb um
op ul
it ar
Y or
Yor k
I ll
Ill in
Illin o
k .
20 10
h aup
haup ts
haupts ächlich
Jer em
Jerem y
ab in
abin et
T U
TU C
Krit ik
T ory
Sm ith
Smith ,
respond ent
Ide e
Angel a
ob wohl
J o
e he
ehe mal
ide os
Sen den
Ihr en
A pp
2 4
@ b
@b b
@bb c
@bbc .
@bbc. co
@bbc.co .
@bbc.co. u
@bbc.co.u k
F T
FT S
FTS E
SA B
SAB Mill
B ur
Bur ber
Burber ry
Akt ien
Rich em
cor e
ans ion
Pe ter
Pe g
Peg ida
La den
Groß händler
Markt anteil
IGA-Einzel händler
1 20
Austral ian
T om
K ier
Kier ath
N ahr
Stan ley
201 7
fall en
Dougl ass
Ste ve
ll ater
W aw
Waw r
Wawr ink
Wawrink a
Healy .
C an
Cha os
fl ücht
Or b
( 13
Kandidat in
2 3
% .
G ouver
Gouver ne
Gouverne ur
Fl or
Flor ida
conf lic
ch ief
un iversit
him .
st aff
stud ent
h ome
r unn
dau ghter
ated ,
mus ic
ne ar
Americ an
r ied
hol iday
b ab
sh op
too .
est ate
m ogul
ay ing
number s
fa vor
an no
anno un
nation wide
St ill,
nomin ation,
camp a
campa ign
S ix
sp ot
squ are
par ed
G ree
wan ts
per for
perfor man
h it
Rhin e
C olog
Colog ne
emer gen
contro ver
controver sy
tal ks
critic ism
ret urn
leader ship
ac ro
acro ss
hom el
bre ak
h und
potato es
wh oles
wholes aler
gro cery
back ing
south ern
ref uge
ra zor
wi re
percent ),
percent ).
part ys
over all
G ov
Gov .
ä re
Sitzung sper
Sitzungsper iode
auf genomm
er ien
hat ten.
O pf
Natur k
Naturk atastrop
Naturkatastrop hen
beste ht
Schwe ige
P resse
Fern sehen
ex plo
zähl t
P onn
Ponn amb
Ponnamb al
wen igen
sch wier
schwier igen
derart ige
ein ver
einver standen
Ar ti
Arti kel
richt ung
sprogram me
bef ass
leg t
soll en
tro tz
gemein samen
wäre .
led ig
ledig lich
schl ag
b in,
le ider
j ungen
M ann
fest geleg
anz ös
zeich net
ent spr
Um we
Umwe lt
soll ,
wiss en
Pl en
ag ung
ist ischer
f alsch
imin al
iss en
Nut zen
Br ief
F akten
gen den
prü fen,
lie g
lieg t.
ge halten
Angeb ot
t ats
tats ächlich
en or
nieder länd
N ie
Ver b
er such
ersuch en,
tra gen,
ent schieden
Wes halb
Lu ft
äu de
prü ft
ge fund
nomm en,
Regel n
verabschie den,
v ö
ll ig
best imm
gegeben en
Stellung nahmen
gestell t.
zu ständigen
se ien
be zogen
M oment
gen au
be z
he ut
Entscheid ung,
Ver länger
Verlänger ung
Indones ien
ab ge
sen den
aus ges
soll te,
entsprechen de
lich .
in st
M ilit
u ld
ke its
g ü
demokrat ische
strateg ischen
zune hm
begr ün
polit ischen
Zustimm ung
ins ofern
s omit
legisl ative
gest al
gen ü
schließ ung
September ,
hl en
k ürz
E re
Ere ig
Rand e
B est
if iz
ver deut
ihr es
Bereit schaft
geb en.
Ver halten
verl ang
ß t.
je de
Fra kt
Al le
weiß ,
ib t.
mö ch
F ünf
jahr es
vor bereit
Des wegen
Sozial ist
Sozialist ischen
Fraktion ,
weiter er
Kapital ste
r ichtig
würde ,
ein deut
be .
hingewies en,
Ste uer
darum ,
dank en.
konn te
ele ktron
ge mel
de t.
Abschl uß
An aly
bedau ere
durchgeführ t
Posit ionen
Au ff
Auff assung
aus reichend
s äm
säm t
zu s
zus ätz
berücksichtig t.
Mindest anforderungen
Binnenwasserstra ßen
Kommissar in,
ehr te
Ausbild ung
Sicherheitsber at
Sicherheitsberat ern
For der
Or ganisation
Person en
li z
aus zu
Ab bau
ver z
in folge
gar ant
kt ,
le ment
Un s
Uns ere
L es
Les ung
wur den,
z .
kom p
angenommen en
Verkehr ,
k ein
spe z
spez if
ein ,
le b
le ben
an schließend
S ü
weg s
vent ion
fr ist
wen det
weit eren
Bereich ,
Au gen
wes en
stän dige
b ald
ausge zeichneten
fest ,
berücksichtig t
In strument
amp f
dar stellen
jeder zeit
jüng sten
über aus
m en.
S el
Sel bst
international en
erforderlich ,
be ispiel
beispiel sweise
kommen den
D R
wichtig .
wes halb
Be l
Bel g
gew es
O der
uro pä
Lad ung
gesch rie
klein en
Bet rie
Re i
Rei he
forder t
ue ll
Ein bezie
Einbezie hung
Verein bar
200 1,
wach sen
schl imm
Gefahrgut transport
ein räum
gre if
ständ ig
Gesell schaft
dar .
Überein stimmung
ein heit
S um
Ab änder
Abänder ungs
Berich ten
Berich te
Kommissar in
r as
komm en.
grunds ätz
komm e
Tr ansit
versch lech
ver bess
soll ten,
ger ing
Un ser
In stit
wichtig ,
beste hen
konk ret
z weiter
diskut ieren.
kur zen
Ab geordneten
D amen
be tra
zwe ifellos
An streng
Anstreng ungen
fäl le
ver ursach
Gew ähr
op tim
Ab schließend
war ten
e hn
8 3
Rechtsvorschrif ten
Verz ö
Arbeit en
In s
ie llen
Disk uss
Diskuss ion
unn öt
än ger
er halten
ug nisse
ent sche
Exper ten
Gefahrguttranspor te
akt uel
aktuel le
bezie hen
Not wend
Notwend igkeit
b t
sta aten,
Temper atur
besonder en
Region en.
N utz
Nutz ung
Gle ich
Sch ritt
gew ö
Min uten
er t.
komm ent
se its
Büro krat
Bürokrat ie
Bed ing
Beding ungen
n ör
nör dlichen
F rost
- 20
erheb lich
be für
befür wor
ag en,
s äum
end lich
le isten
Voraus setz
Voraussetz ungen
unkt ion
Binnen markt
Bereich e
L assen
eben falls
Rech nung
posit iv
bekann t
Nation en
exp ed
fra gen,
ein fach
schrif t
gew iss
gewiss er
Ok tober
erg än
Gra d
konk re
Bet ra
Betra cht
dr am
dram at
is ierung
verschie den
wid met
wichtig ste
gil t.
be trä
erwar ten
Ar mut
t ief
wirtschaft liche
der e
Zusätz lichkeit
Z ahlen
ig te
Mittel n
m ,
man gel
B lick
Industr ie
m eines
er neu
erneu er
erneuer baren
ges p
hät te
en k
lok alen
k ung
Zusammen hal
ern st
if t
Vorschl ä
Vorschlä ge
il er
strateg ie
or r
heb en,
qu ellen
ünst ig
Arbeitspl ätz
nahe zu
mach t.
wir te
Ne ben
steh t,
2 1.
Jahr h
Jahrh under
Jahrhunder t
allgem einen
R au
Rau mor
Bevöl ker
Bevölker ungs
Be acht
Beacht ung
berücksichtig en,
gel ang
griff en
beit rag
Berichterstatter in,
Su che
zum indest
üt ze
spie gel
Halb zeit
le i
notwend ig,
schaf fen,
mitt l
Ch ance
schne ll
Ungleich heit
ent sch
Komm un
Kommun ik
ver letz
Ver ordnung
Erneu erung
n ut
sch w
nach halt
nachhalt igen
Fin an
Qu al
P ot
H igh
ch -
Med ien
Durchführ ung
ich ten.
persön lichen
neh mer
sch wach
Invest oren
maß geb
D am
Dam it
er folg
mat ik
Be hand
Behand lung
gehör t
at en.
ble ibt
Ver antwortung
Er arbeit
Erarbeit ung
tr ie
m und
Re al
be ein
inter ess
g ess
Ver tre
Vertre ter
Zusammen halt
schaf ten
Ge legenheit
spre chen.
spl äne
vor hand
Er fahr
Pro dukt
part ner
Be zie
ank omm
Ver hält
Verhält nis
Lebens bedingungen
bei ge
f el
beits losigkeit
über ein
ges che
gesche hen,
an merk
anmerk en,
gan zen
zu stimmen.
Insel n
lie ben
An reg
Anreg ungen
200 3
Heraus forder
Herausforder ung
national en
ste chn
r u
auch ,
der zeit
aus .
Wirtschafts -
teil igt
zie m
ziem lich
ter rit
or ial
Frau en
Königreich s
Ide en
p h
schl agen
k einer
Steu erzahl
Gel der
Proje kte
vor haben
Invest it
Investit ions
Struktur politik
Ungleich gew
Ungleichgew ichte
inak ze
inakze p
inakzep ta
inakzepta bel
ter ,
insgesam t
z ieren
hin ,
wür den
erwar tet
i ent
o ts
al og
möglich er
S inn
gil t
priv aten
n ed
happ y
en jo
enjo y
a ded
fa iled
is e,
er ed
n at
nat ural
part-sess ion.
ter r
observ ed
pres s
tele vision
ago .
de ath
poss ibly
sug ges
sugges ted
concern ing
m iss
again .
gu id
par ag
parag raph
fa il
des p
rel ative
abil ity.
abil ity
proposal ,
Thurs day.
c ise
part-sess ion
Fr ench
gl ad
pleas ed
environment al
N ow
find ing
prote ct
exam ine
fact s
expres sed
concern ed.
inde ed
D ut
Dut ch
or s
he alth
f ire
Brussel s
buil dings
in struct
cas es
im proved
sel v
che ck
done .
regul ations
new sp
newsp a
newspa per
mess age
ar ms
consider ing
end or
there .
fact ,
future .
ex pen
dra wn
p ur
legisl ature
in it
init ial
unanim ously
commit ment
od y
year s.
ou t,
vo ted
Ju ly,
ev ents
President s,
sim ply
if y
el se
Vice- President
vo te.
be ha
beha vi
behavi our
un able
except ion
believe ,
or al
des cr
five -year
su per
am o
con ne
ject s
Group .
Wednes day
PPE -
PPE- DE
ate ful
tim es
kind .
speak ing
disc us
discus sed
fe llow
tax ,
appre ci
business ,
explan ation
f lo
clear ly
solut ion.
con sum
accept able
Tourism ,
adop ting
First ly,
ap point
p ed
compet ition
marke t.
guaran te
exclus ive
degre e
m od
bear ing
in di
indi vid
respons ibil
group s
implement ing
g iving
ent ry
or y,
par ts
Europe .
traff ic
ch ed
en act
add ress
sh ut
te x
tex t,
te xt
to ol
at ives
comment s.
like ,
mit ted
requirement s.
ity ,
n ature
ty p
typ es
transport ,
year s,
carr ying
dr ive
ship s
East ern
mor e,
car go
de li
sm aller
cer t
cert ific
conclu ded
compet it
any thing
inc or
incor por
incorpor ate
hig hl
pass ing
know n
str ing
string ent
relev ant
la id
ade qu
adequ ate
or ganisation
re ached
l ished
n one
gro und
stand ard
y -
Austr ia
c are
play s
countries ,
oper ation
pra ct
origin ally
sp ent
gr an
gran ted
marg ins
M ess
to ,
issue ,
im prov
demonstr ate
respon se
la ws
ma king
an ne
industr ial
today .
ob li
obli ged
ex ist
exist ing
Comm un
regul atory
procedure .
ex er
power s
lat est
transp aren
transparen cy
ou t.
v ac
be low
spe cial
in ten
serv ice
min ut
or es
im ag
consider ably
rem ember
consider ation
ho wever
ess ential
wh om
thank s
advan ced
road s
M ost
b road
it ing
EU ,
ma kes
issue .
name ly
so und
effor ts
go es
re aching
prov ision
negoti ations
require d
diversit y
ago ,
sp o
zer o
circumst an
circumstan ces
s om
som et
difficult ies
contain ed
d om
Wal es.
bas e
diss atisfied
ment ,
ure ,
centr al
development .
A no
Ano ther
polic y,
lik ed
serv ic
suffici ent
energ y
substant ial
colle ag
follow ed
ploy ment
A ff
econom y
sch em
schem es
employment .
off er
see king
Agr icult
Agricult ure
sour ces
sequen ces
infra structure
job s.
5 .
work ers
cent ur
f un
open ing
demograph ic
e qu
issu es,
carr ied
ex pe
expe cted
sp ir
rap id
ent re
entre pr
entrepr ene
si zed
marg in
mis sed
dispar ities
ies ,
administr ation
serv ative
part y
ten s
mind s
su st
sust ain
sustain able
med ia
le ft
at tra
invest or
pro sper
gre w
ra ised
re duce
S M
to wn
member s,
for get
direct ives
dit ion
infl u
co hesion
comm end
integr ated
ur ged
leader s
help ed
per man
perman ent
full y
com b
issu es.
al ong
plac ed
is land
reg ards
complete ly
countr y.
b ra
um ents
prote ction
h our
e ast
w om
people ,
ide as
ad ditions
mid -
- based
pie ce
struct ural
b t,
is lands
land .
mar k
six th
dec ade
str ong
gr ass
ou ter
outer most
me as
Kon fli
Konfli kt
l ungs
W ill
teil s
be vor
Isra el
erzähl te
Beam ten
beton en,
jem als
Lamb ,
T ür
Mitarbeit er
B ild
veröffentlich ten
Gew alt
Gesch ich
as st
Z ur
a ver
ges und
gesund heit
Universit ät
C amp
. 3
klar ,
Fr ü
be zeichne
ol ,
bring en.
ir at
N ä
Nä he
been det
ein ander
ze .
se m
es ter
isch -
St ar
z ing
krä fte
ü ckt
gesch äft
sch er
D ate
Prinz ess
Prinzess in
The ater
iert es
d ,
em e
Stev en
-C hef
milit är
militär ische
Groß brit
Großbrit ann
sit z
br and
o ber
ze igten
zwe is
zweis tell
frü h
gew innen
201 1
igen den
Außenseit er
Do llar
Mit te
ün dig
Prozent .
E t
Et wa
frü hen
D rit
Drit tel
ver är
verär ger
v s.
näch ste
Bush ,
sie ht
Temper ament
glau ben
richt ige
Z ahl
Vorw ahl
ge fra
gefra gt
kl us
amp ag
ampag ne
schlä gt
An ti-
K opf-
Kopf- an
Kopf-an -K
Kopf-an-K opf-
Kopf-an-Kopf- Rennen
Punk te,
gebil det
unterstütz en,
Carson ,
op pe
Se chs
Amer ikan
Amerikan er
Ne u
ustr ation
H ö
in es
Sy lt
k ers
Treff er
F C
ta kt
Welt me
0 .
verdi ent
Ser ie
is ters
Stad ion
it ed,
ic o
r id
ue llen
fe ld
schl ug
b all
( 35
Ob wohl
( 5
Lewandowsk i
z iert
Risiko ,
Zä hne
verl ieren
Potsdam er
Langzeit studie
Potsdam .
ent al
erklär te
un ge
Archä ol
Archäol ogen
oulev ard
M useum
Dienstag .
H ist
K ir
Bundes pol
Bundespol ize
Bundespolize i
über qu
ans at
ansat l
ansatl ant
Freihandels ab
Freihandelsab kommen
Schieds ger
Mal m
Malm strö
Pl äne
EU- Staaten
W ider
alle l
Geset ze
ie ß
Ges präche
Hamb urg
h t,
at i
Gre at
amerikan ischen
spiel t
Deb üt
Labour- Vorsitzen
Nation al
National hy
Nationalhy m
Nationalhym ne
B att
Batt le
St il
En g
Be grenzung
Nor th
unter lassen
des sen
w ,
lo se
b urg
neues ten
BBC -
V ideo
N um
veröffentlich en,
bit ten,
+ 44
P fund
wach stum
SABMill er
on i
0 ,
P er
Richem on
Ver k
en core
ir ma
hö here
K unden
Bieber -
pl at
H under
E wa
Viktor ia
G y
Fle isch
Kartoffel n
Aldi -
O st
Ein k
W A
Nahr ungs-
2016 ,
ges unk
e her
US- Open
F lü
Flü cht
Not stand
lin ge
ser b
ung arische
sü dlichen
y l
S z
St ache
Stache ld
Stacheld ra
Orb an,
ehemal ige
k andid
Unterstütz er
landes weit
An sich
Prozent )
V on
Demokrat ischen
Sander s.
d le
plann ed
conflic t
i ans
elect ion
ir l
offic ers
h ouse
do g
prob ably
tra ve
camp us
kil led
do or
sh o
sho oting
clo sed
fac ul
facul ty
lock ed
re leas
te ach
viol ence
sh ar
do ctor
work ed
tra ck
sing le
H is
runn ing
friend s
ol der
gu itar
f e,
re main
fa ir
play ing
cro w
repor ted
stor y
h ire
ch ance
ok es
Ab out
Princ ess
pre m
mo vie
cut ive
the at
people .
cur ity
fore ign
fli p
d rag
dou ble
nomin ation
w on
st aying
lo ad
do llar
percent .
enthusiast ic
s atisfied
On ly
up set
temper ament
wide ly
su l
president ,
Mon days
week .
inde pend
be ats
candidates .
candidates ,
lead s
outs ider
t wi
twi ce
poll ,
d ue
resident ial
Mor e
dre am
iac os
est im
di um
play er
performan ce
bring ing
for mer
de fence
ur es,
Smok ers
non- smok
non-smok ers,
too th
Arch aeolog
Cologne .
construct ion
sto od
ch urch
cross ing
Mal strö
fol k
pict ures
au di
audi ence
son gs
de but
an them
diff eren
back ed
be came
ll ing
un ch
v ideo
em ail
w age
earn ings
9 %
re ds
ke bab
me at
ahe ad
stor e
fo ot
s ur
ac ted
g ain
deser ves
rac quet
Serb ian
Hungary ,
enthusiast ically
quar ter
trustworth y
F reit
Freit ag
17 .
Dez ember
aufgenomm en,
we chsel
ium -
Opf er
sch re
ge worden.
Schweige minute
erheb en.
explo s
jüng ster
be kl
bekl agen
K um
Kum ar
Ponnambal am,
ab gest
rei ben
T od
über mitteln
auf fordern
f ten
fr ied
In itiative
gebra cht
folg en.
14 3
Un zu
lä ss
Angelegenheit ,
werde .
C un
Cun ha
jähr ige
Aus richtung
befass en,
Ab satz
vor schlä
er fü
o ten
soll en.
rel ativen
St abil
Stabil ität
ere i
erheb en,
handel t,
ansp re
Sta aten,
ver ur
verur teil
3 4
jähr igen
nam ens
H ick
festgeleg t
fr anzös
Z im
Zim er
Zimer ay
Zimeray ,
et ition
ein gere
selbst ,
ätz en,
Se gn
Segn i,
ger ne
Nikit in.
alle ,
Ger icht
R uß
Ruß land
stit ution
N un
geh t.
fest gestellt
j ur
Nikit in
n issen
Sch utz
ent wur
entwur f
bereit ,
Fern se
Dennoch ,
Z war
f inn
isch en,
Sen der
em p
gebe ten,
Nie der
ver fol
ann ung
gesch ic
geschic kt
P loo
Ploo ij
Plooij -
Plooij- v
Plooij-v an
G or
Gor sel
Gorsel ,
teil en,
Qu ä
Quä stor
Quästor en
Ihre m
Arbeits schutz
regel ungen
äl t,
qual ität
einz iges
aussch uß
ge treten
bur ger
geb äude
Brand schutz
ü bung
gefund en
fin den
bele hr
Lyn ne,
vö llig
G on
Gon z
Gonz le
Gonzle z
An fragen
an ischen
Vizepräsident in,
Dien ste
war en,
vor ange
vorange gangenen
denk en,
re ten
18 .
ersch ien
r en
ichtig keit
w ü
bez ü
heut igen
Waffen embargo
abge lehnt
zum al
ausges prochen
Em bargo
Embargo s
sen den.
Ab lehn
Ablehn ung
ver antwort
Milit är
her stell
herstell er
D ring
gese hen.
end gü
endgü lt
endgült igen
1 10
Sozial demokratische
beantrag t,
Verwalt ungs
R ed
Vor stellung
Program ms
gesam te
Sozial demokratischen
he ll
aus drück
f and,
Zus age
tr it
k r
Bedeut ung,
In iti
mon op
monop ol
bes it
zwe imal
spra ch
Am t
insgesam t.
S omit
Zeit ,
lern en
Fr ist
Ereig nisse
ifiz ierung
verdeut lichen
m ma
Ent weder
Lage ,
K l
m äß
verein bar
er fahr
offen bar
Da her
erst a
Tagesordnung spunkt
konn ten
lä ßt.
Je der
imm en,
4 22
St immen
En th
Enth alt
Aus nahme
ein ig,
ver fahr
S ache
Prodi ,
Prozeß ,
pro chen.
Ver fahren
Parlament ,
besch re
Febr uar
vor legen.
Kontro lle
komm t,
möch te,
Frakt ionen
hör t
In halt
vernünft iger
s ach
gemein sam
schl age
ab. )
be treff
betreff end
m ünd
münd liche
An frage
Kapitalste uer
PPE /
PPE/ DE
PPE/DE -Fraktion
den ?
re ise
ab gesetzt
gr uppe
In form
Inform ation
E V
EV P
- E
jeden falls
bar ,
W ur
Wur tz
log isch
L iber
k olle
kolle gen
T obin
ab ,
16 4
16 6
St imme
Kar te
gemel det
hin zu
verk ün
dür fen.
abzu geben.
get an
H inter
eigen en
ger uf
ge fall
gefall en,
le id,
Co x
Cox .
gese hen,
um s
gebe ten
Kolle gen,
sämt liche
lä u
läu ter
l ange
Co x,
Hänsch ,
f rei
da gegen
akzept iere
wenn gleich
Vor be
S org
Sorg falt
ändern .
änder ten
(A5-010 5/
(A5-0105/ 1999)
Er la
Erla ß
(C 5-0
(C5-0 20
(C5-020 8/
(C5-0208/ 1999
1998 /
1998/ 0
1998/0 10
1998/010 6
1998/0106 (COD)
1998/0106(COD) ).
Binnenwasserstra ße
form al
9 6
96 /
96/ 35/E
gere cht
be auf
beauf trag
ver pf
verpf lich
Zweitens :
erziel en
Sicherheit ,
Gü tern
c )
Chancen gleich
Chancengleich heit
D ritten
Dritten s
Richtlinie ,
lie gt,
Mindestnor men
r än
Flexibil itä
Flexibilitä ts
bei .
außer ord
außerord entlich
über nommen,
st ö
komp liz
kompliz ierte
bild ung
kom ple
ein stimm
einstimm ig
Zustimm ung.
In kraft
Inkraft treten
g liche
M ir
T auern
zahl reich
zahlreich e
finanz iel
finanziel le
auf geb
z erst
zerst ör
Sü den
be wirk
T aus
be last
Pr ä
Katastrop hen
schaf fen
fü g
recht zeitig
dür fen
beg nü
begnü gen,
schaf fen.
ach ten,
Vor gaben
V o
Vo ll
Ein en
ü cke
schließ en,
zu ständige
Tex t
vorzu legen,
Zu kunft
sor gen,
dank en,
Prüf ungs
nomm en
wes entlichen
bal dige
max im
unterstütz t.
Bem erk
eingebra chten
An gleich
Angleich ung
Mindestnor men.
gew isse
ver ständ
Char ak
or te
g än
gän ge
A DR
Grün de,
wid men
fu hr
Um stän
gewes en
wäre ,
Sch iff
o ste
oste uropä
osteuropä ischen
offens icht
offensicht lich
Au ßer
Außer dem
Con tain
Contain er
ord n
ordn ungs
gegen wär
gegenwär t
gegenwärt ig
Schwierigkeit en
verb und
verkauf en
führ t.
Er f
Erf assung
Akt iv
Aktiv itäten
For m
er t
IS O
eig entliche
get an,
G est
Gest atten
außer dem
angemess ene
ander th
anderth alb
D ad
Dad urch
vor über
Sicherheits as
pe kten
bef örder
ver ste
Person en,
kon front
9 5/
95/ 35/E
Nor men
be w
Fre u
einheit liche
schein t
Abänderungs antrag
zu erst
gratul ieren,
viel leicht
wen ige
Zu erst
überze ug
überzeug t,
u cht
erhö h
erhöh te
se he
19 .
besch äft
ras ch
alle in
grundsätz lich
Verkehrs bereich
Flexibil ität
an stre
anstre ben
isch ,
Deutsch land,
erwähn t.
Transit länder
verbess ern.
Zusammen arbeit
Zusammenarbeit ,
Instit ut
hervor ra
hervorra gend
hervorragend .
dank en
Herr en,
Verkehrs wesen
einräum t.
S imp
Simp son
nie mals
gew onn
vo llen
betra chte
mar gen
muß .
Herr en
anges prochen
s ens
fin den.
Mar gar
Margar ine
pa ar
Prinz ip
dar stell
ge prüft
L auf
zie le
wer de,
Berichterstatter ,
12 .
12. 00
stat t.
(A5-010 4/
(A5-0104/ 1999)
( K
(K OM(1999)
C 5-
C5- 000
C5-000 4/
C5-0004/ 1999
1999/ 00
1999/00 83
1999/0083 (COD)
94/55/E G
Verzö gerungen
An wendung
Anhän ge
entspre ch
entsprech end
Zeitraum ,
ändern ,
unnöt ige
Gemein schaft
Über gang
Ter min
stre icht
ung en,
ho c
Vorschrif ten,
begr enz
Gebie ten.
Bef ugnisse
eigen e
Vorschrif ten
M od
Mod al
Modal itäten
tragen en
Durchführ ungs
Jun i
st amm
K omit
Komit olog
Komitolog ie
F ä
Fä llen
Er wä
Erwä g
eindeut ig
form ul
max imal
f ix
Dar über
ver stärk
hingewies en.
erlau bt
Mitglied staaten,
sch är
u um
tank s,
er lassen,
vorrang ig
Temperatur en
ge arbeit
gearbeit et
transport iert
T ank
enn ium
Plen um
L ie
gewö hnlich
S icht
gut ,
berücksichtig t,
k alten
kl imat
klimat ischen
be treffen
best änd
Grenz wert
L appl
Lappl and
- 40
ive au
bei zu
erlau ben,
f and
Straß en,
Schien en
geleis tet
spre chen,
Ver säum
Versäum nis
g ä
hoff en
St ück
er ungen
techn ischer
posit iven
Binnenmarkt es
Men gen
effekt ive
ab schließend
Ar i
Vatan en.
An nahme
Tats ache
Teil en
M aterial
Ver pack
Regel ung
i bel
gestal tet
Vizepräsident in
Wirtschafts k
Wirtschaftsk ommission
exped it
Harmonis ierungs
Harmonisierungs best
Harmonisierungsbest re
Harmonisierungsbestre b
Harmonisierungsbestreb ungen
Organisation en
ig en.
D enn
mach t
H alt
weiter gehen
sicher lich
sinn vo
schrift lich
z t.
K om
Nor m
( CEN
(CEN )
forder ten
not wen
notwen dige
ungs bereich
gelten den
er möglichen
Viel falt
Vatan en
akzept ieren
konkre te
ge zogen
u gen,
man ch
manch mal
ter is
ier ungen
leg ungen
Sch ließ
Schließ lich
stärk eren
par lament
ar ischen
Änderungsanträ gen
komm en,
unter bre
unterbre ite
(A5-010 8/
(A5-0108/ 1999)
Mit teilung
Zeitr aums
3 44
C 5-0
C5-0 12
C5-012 2
C5-0122 /
C5-0122/ 1999
1999/ 2
1999/2 12
1999/212 7
1999/2127 (CO
1999/2127(CO S
1999/2127(COS )
ge widmet
vertre te,
beträ cht
Strukturfond sprogram
Strukturfondsprogram m
Ziel-1- Region
er kann
erkann t.
Über w
Überw indung
gew alt
Schwierigkeit en,
Zwe if
kämp fen
h il
f t.
ste igt.
Ar m
Re ich
weit reichen
as is
Land es
Tats ach
Tatsach e,
Gewähr ung
Da bei
ergän zen
Finanz ierungs
g ibt.
drän gt
Sektor ,
K raft
Bereit stellung
ein bezogen
g abe
er ör
ter t
unterschied lichen
Blick win
Blickwin kel
höher en
v olle
Frage ,
gew ün
gewün sch
gewünsch t,
Wachstum s
se ktor
Hand els
Inter ne
Re icht
Reicht um
teil weise
ge worden,
an chen
E le
Dienstleist ungen
invest iert
führen de
E ra
Era chten
Erachten s
F örderung
for men
entwickel t
reichen de
geleis tete
Kolleg in
Angelegenheit en
vor geleg
Sozial wirtschaft
finan ziellen
Program men
Beschäftigungs möglichkeit
St är
sa h
potent iellen
gen ann
genann ten
zie hen,
Grün de
n ennen
be darf
P fe
Pfe iler
Beschäftigungs strategie
fond s.
bedau er
E S
ES F
ESF -
ESF- Inter
vent ionen
verk nü
Plan ungs
Planungs zeitr
erst mals
Dies es
ind r
jähr lichen
A ktion
k orr
korr ig
Aus gang
Ausgang spunkt
Ver änder
Veränder ungen
win den
wirt schafts
Ein komm
Einkomm ens
Einkommens quellen
all gemein
sp är
lich en,
abhäng igen
an geb
ver stär
Ab wanderung
ung ünstig
wir kt.
en de
Hin dern
Fünf tel
aus macht.
Land wirte
zusätz liche
Ein kl
Einkl ang
Aspe kt
Krit erien
Raumor dnung
ausge wo
ausgewo gen
erwar tet,
er reich
ind es
Halbzeit bewer
Halbzeitbewer t
Halbzeitbewert ung
ver lei
heiß t
wirk lichen
mittl eren
wir ken
Er reichen
Ungleichheit en
Er schließung
Arbeitsplätz en
entsch lossen
Ein satz
Te chn
net ze
wohl ge
wohlge mer
schaf t,
öff entlichen
schaf ft
P fl
Pfl icht,
Parte i,
H ague,
verletz t
mit glie
mitglie d
W ul
Wul f-
Wulf- Ma
Wulf-Ma th
Wulf-Math ies
Or dnung
sich ern,
Ziel-1- Regionen
umfangreich e
zentr ale
konzentr ieren.
f ör
för dern
effekt iv
e b
heraus finden,
Qual if
Qualif ik
High -
High- Te
High-Te ch-
ver fü
zu folge
le hr
l icht,
b ü
bü ro
büro krat
err ichten.
We ge
Prior itäten
Politik en
zw ang
Fol ge
leg ung
In ner
Inner halb
Ein heit
Aspe kte
ber ück
berück sicht
flex ible
i als
beitrag en.
gel ing
geling t,
ar men
struktur schwach
strukturschwach en
maßgeb lich
fest igen
setz bare
umfassen den
ge ehrte
einge gangen
prakt ische
ger aten,
Det ail
enth alten
P has
Phas e
Unter schie
Unterschie de
Programme .
befürwor tet
Be vor
Z entr
Proje k
bereit ung
gen de
ver gess
vergess en,
strateg ische
Struktur -
Zusammenhal ts
r ück
Indikator en
erk enn
her vor,
entwickel ten
sp ät
Re vision
Be wert
Bewert ung
ko ordin
vor genommen
im ens
imens ion
f unktion
Kommunik ation
Erfahr ung
zu stimm
zustimm en,
Em p
u .
lok ale
k ör
kör per
national e
Wie der
Bezie hungen
st äd
städ tischen
R äum
St äd
Städ te
be wohner
je weil
jeweil igen
trag en.
Staats -
ip fel
for t
19 89
199 4
wes entlich
Europa ,
Möglichkeit ,
erfolg reich
ähr ungs
ie t
exp and
fre ien
ge k
regional e
bede uten
richt ungen
gesch al
geschal teten
beige tragen,
ar beitslosigkeit
vor zeitig
Sch ule
bis lang
s ätze
st imme
er mut
ig t,
Gl ück
lie ber
wär en,
M c
Mc Car
McCar th
last en
Hil fs
Bes onder
Besonder s
Am ster
Amster dam
Verhalten s
de x
weis en.
Det ails
lauf en
V ie
Seit e
geschl agen
un mittel
unmittel bare
ver suchen
beein fl
be finden,
Entwicklung spolitik
öff entliche
sub sidi
är en
n atürlich
bin den.
An ges
Anges ichts
an schein
anschein end
Ab sicht
Mitglie ds
Er schein
Erschein ung
Öff entlich
Öffentlich keit
E bene
bedeute t
wahrscheinlich ,
nä her
Ziel s
R edu
age .
vorliegen de
lo bal
Wirt schaft
Ge bo
vorhand enen
Ge brauch
ge z
be mü
Haupt grün
Hauptgrün de
territ orial
ges chen
er greif
ergreif en,
W est
di re
fehl t
di enen
gew ähl
gewähl ten
Steuerzahl er
Zusätz en
Zu sch
f ließen
r ies
Proje kt
Sch wer
Schwer punkt
stär ker
verl ag
Ver such
ent gegen
deutlich ,
Strukturpolitik en
T ro
Tro tz
Insel regionen
verdi en
ben ach
benach teiligt
bau en
t aus
Hinweis e,
st ich
art ig
M assen
ir repar
äng st
D aten
se ch
t in
d lich
ute t
Vorstell ung,
wes entliche
M ut
freu en,
He imat
gr uppen
Ma de
Z un
Zun ächst
Or ient
Orient ierung
An spruch
at alog
wür den.
sess ion
ad j
Fr iday
Dec ember
1999 ,
m aterial
suff ered
ser ies
tr u
d read
dread ful
me ant
vic tim
terr ible
stor m
P leas
Pleas e
ris e,
th en,
( The
aw are
you ,
writ e
expres sing
urg ing
see k
pe ace
il i
Y es,
ent ire
R ule
in ad
inad miss
guid ance
con tains
qu o
pen alt
penalt ies
du ced
t ar
ually .
desp ite
m ere
mere ly
pre cise
precise ly
present ation
id ing
se t,
un fortunate
unfortunate ly
exe c
- old
princ i
princi pl
principl es
he ld
Inde ed,
cons ist
Russ ia,
too ,
Now ,
appe al
resol utions
so le
w r
wr ong
cr iminal
ar ies
finding s.
set ting
posit ion,
adopted ,
first ly
com pl
wor d
channel s
But ,
on e,
s ent
month .
Qu a
Qua est
Wednes day.
l ight.
ad here
pass es
ele cted
selv es.
opin ions
appear ed
gro unds
answer ed
cas e.
inter vent
occas ion,
present ,
some what
proper ly
today s
ref using
said ,
c ou
expen se
request s
ific ation
ul es
rel ating
Mon day
administr ative
request ,
course .
Th en
us ual
procedure ,
initial ly
expl ic
explic it
reit er
b ody
Tre at
bas ically
d ict
dict ates
appro ve
pre p
prep are
cit i
citi zen
citizen s.
en ded
dec isions
else where
so .
represent ed
atten d
some one
in -
de p
dep th
now .
chair man
re call,
out come
ab st
abst ent
but ,
every one
Commission s
deb ated
fr ame
frame work
descr ib
Febr uary
February .
well ,
possible ,
p ath
reason able
amo unt
Group s.
together .
( Parliament
wish es
gr ateful
al read
alread y.
per fe
perfe ct
perfect ly
mann er
ad vert
advert ising
debate .
coun ted
ear lier
rul ing
indic ated
appreci ate
if ,
allow ed
use ful
analy s
flo or
either .
lea ve
Minut es
explain ed
sol ution
proceed ing
vot es.
correct ly
res er
reser v
do ,
amen ded
wel come
harmonis ing
water way.
C ,
or gan
train ing,
Se cond
Second ly,
d ist
resul ting
struct ures
l abour
Th ird
Third ly,
directive ,
guarante es
mod est
wel com
read ing
atis fact
transp o
transpo sed
cor respon
arr ange
rel ated
Polic y
Transport ,
concern s
force ,
intro ducing
au se
ens ures
implement ed
endor se
m em
h um
hum an
li ves
ro y
continu ed
month s,
st ret
p at
th ous
thous ands
l im
bro ke
train ed
enact ing
la w
app lie
applie d
sequ ently
enforcement .
poin t.
se al
today ,
tunnel s
future ,
advis ors
transport ation
subst ance
saf e
in iti
sub mitted
also ,
say ,
rail ways
import an
are ,
accident s
oc cur
occur red
Belg ium,
ob vious
risk s
ent ail
F urther
Further more,
deli ver
ment .
r ule
companies ,
af ford
m ix
problem s.
certific ates
activ ities
tre at
te en
g ives
competit ive
ed ge
inter im
prior it
priorit ise
as pect
aspect s
ire ,
regul ar
right ly
vol um
risk s,
unk now
Th ose
good s.
pre fer
prefer red
estab lished
v al
val ue
This ,
none theless
se a.
deal ing
quick ly
standard s.
princip le,
rul es.
S we
Sh ould
in adequate
wor se
countries .
under stand
oper ate
m ag
mag n
magn ific
inclu des
ist ic
Ver y
brief ly,
prior ities
end .
brief ly
p ain
pain t
gen u
genu ine
hol ding
disast er,
ter ms
proble m.
re pe
repe at
speak ers
p .
p. m.
94/55/E C
[ C
[C OM(1999)
] .
ay s
directive .
anne x
annex es
un necessary
dead lin
prov isions
appl ic
able ,
proced ures
regulation s,
im pose
exper ts
res h
com it
comit olog
comitolog y
rel ate
ref eren
referen ce
month s.
temper atures
-20 C
inten ded
tank ers
con stru
constru cted
tain ed
cit ing
ve ,
road .
now ,
act s
bureauc rac
Con sequent
Consequent ly,
comm itte
committe e.
f rost
rat ings
La pl
Lapl and
rat ing
beg in
hand ,
conf ident
way s,
contrib ution
ance .
dra wing
ada pt
fin ally
Commun ity
changes .
ure ly
nature .
dec is
per spe
perspe ctive
benef ic
benefic ial
are a,
ex tra
pr ere
prere quis
prerequis ites
pack aging
affe cted
establish ing
ack now
acknow led
