{"industr": 0, "Karto": 1, "Wales.": 2, "ckt": 3, "gabe": 4, "Development": 5, "FTSE": 6, "inakzeptabel": 7, "descr": 8, "ground": 9, "Entscheidung": 10, "überze": 11, "vorliegenden": 12, "bedeute": 13, "entsche": 14, "reiben": 15, "bewirk": 16, "Rich": 17, "erb": 18, "outsider": 19, "Archäol": 20, "llater": 21, "Fund": 22, "they": 23, "reser": 24, "Plooij-van": 25, "Verkehrssicherheit": 26, "honest": 27, "aussch": 28, "18": 29, "Politiken": 30, "Lambs": 31, "bur": 32, "incorporate": 33, "zeichnet": 34, "Versäumnis": 35, "Brus": 36, "hat,": 37, "Vorsprung": 38, "enough": 39, "Sel": 40, "lass": 41, "stark": 42, "dr": 43, "Einheit": 44, "gehör": 45, "Brüssel": 46, "imme": 47, "50": 48, "Kum": 49, "large": 50, "ary": 51, "eine": 52, "Parte": 53, "be": 54, "Ro": 55, "Boden": 56, "as": 57, "degre": 58, "ideas": 59, "maßgeb": 60, "Europ": 61, "dec": 62, "United": 63, "liked": 64, "to,": 65, "Deshalb": 66, "allgem": 67, "Schmid": 68, "funding": 69, "origin": 70, ":0": 71, "sel": 72, "Parlament": 73, "stated": 74, "vor": 75, "working": 76, "parag": 77, "sitz": 78, "lev": 79, "Malströ": 80, "Langzeit": 81, "told": 82, "Sozialdemokratischen": 83, "someone": 84, "kl": 85, "While": 86, "grenz": 87, "Program": 88, "ge": 89, "nominee.": 90, "gegeben": 91, "ält": 92, "benachteiligt": 93, "stamm": 94, "darunter": 95, "contain": 96, "examin": 97, "Prinzip": 98, "genden": 99, "ganisation": 100, "ida": 101, "ünft": 102, "Gestatten": 103, "Ser": 104, "contained": 105, "bürokrat": 106, "7": 107, "gro": 108, "Kommiss": 109, "Ergeb": 110, "Bedingungen": 111, "einge": 112, "month": 113, "Katastrop": 114, "n.": 115, "OM": 116, "gehört": 117, "months,": 118, "gewisse": 119, "roy": 120, "scher": 121, "highl": 122, "now.": 123, "fäl": 124, "1999/212": 125, "hervor,": 126, "Möglichkeiten": 127, "partys": 128, "Ungar": 129, "staaten,": 130, "discussed": 131, "Entsche": 132, "good": 133, "aten.": 134, "east": 135, "präche": 136, "loss": 137, "group": 138, "harmonis": 139, "afford": 140, "weise": 141, "set": 142, "sinnvo": 143, "may": 144, "ordnungs": 145, "get": 146, "83": 147, "gang": 148, "Ange": 149, "anderen": 150, "Pe": 151, "ional": 152, "Kyrgios": 153, "waren": 154, "Europe.": 155, "Gebo": 156, "berücksichtigt.": 157, "atürlich": 158, "more,": 159, "leider": 160, "FC": 161, "Regelung": 162, "Gespräche": 163, "attra": 164, "Tre": 165, "Arch": 166, "schließen,": 167, "erwartet": 168, "k.": 169, "hesion": 170, "accordance": 171, "road,": 172, "Finanzierungs": 173, "seek": 174, "ourselves": 175, "stän": 176, "Schweige": 177, "wohlgemer": 178, "Nutzen": 179, "tex": 180, "freu": 181, "Har": 182, "ab": 183, "Bet": 184, "goal": 185, "Subsidiar": 186, "dition": 187, "Sicherheits": 188, "Frü": 189, "firstly": 190, "]": 191, "Mai": 192, "Sri": 193, "Studenten": 194, "sollten,": 195, "bitten": 196, "all": 197, "ESF-": 198, "oc": 199, "en,": 200, "klein": 201, "verlei": 202, "Guar": 203, "Bericht.": 204, "jüngsten": 205, "too.": 206, "12": 207, "pot": 208, "Anforderungen": 209, "parliament": 210, "bel": 211, "Führung": 212, "Vo": 213, "Österreich": 214, "seits": 215, "atures": 216, "quet": 217, "somewhat": 218, "bas": 219, "Mr": 220, "power": 221, "worse": 222, "Amsterdam": 223, "Tem": 224, "umfangreich": 225, "chen.": 226, "OSte": 227, "Roman": 228, "Beginn": 229, "amt": 230, "ese": 231, "licher": 232, "Öster": 233, "Michael": 234, "Planungszeitr": 235, "Fl": 236, "Kandidaten": 237, "Jeremy": 238, "hinge": 239, "Brandschutz": 240, "Programm": 241, "ansat": 242, "alsch": 243, "Monate": 244, "playing": 245, "relating": 246, "Walker": 247, "citizens.": 248, "value": 249, "Phase": 250, "understand": 251, "..": 252, "werden": 253, "ik": 254, "tun": 255, "berücksichtigt": 256, "was": 257, "Rah": 258, "präsident": 259, "vertrete,": 260, "include": 261, "tains": 262, "Chance": 263, "Halb": 264, "Perr": 265, "lich": 266, "Steven": 267, "geord": 268, "frage": 269, "kind": 270, "her.": 271, "work.": 272, "Gesetze": 273, "jederzeit": 274, "abin": 275, "endgü": 276, "verdien": 277, "losing": 278, "sequen": 279, "Brandon": 280, "ors": 281, "possible": 282, "Ha": 283, "fore": 284, "Wenn": 285, "ungen.": 286, "zun": 287, "ference": 288, "during": 289, "verlang": 290, "fonds.": 291, "persön": 292, "Sitzungsper": 293, "required": 294, "Dezember": 295, "ve": 296, "victim": 297, "danken": 298, "privaten": 299, "soon": 300, "gestal": 301, "Tro": 302, "Sicherheitsas": 303, "Ar": 304, "cretary": 305, "weitere": 306, "arms": 307, "vorrang": 308, "Abschluß": 309, "einräum": 310, "inakze": 311, "kann": 312, "Diana": 313, "tin": 314, "wes": 315, "ansatl": 316, "Stud": 317, "ghter": 318, "wer": 319, "einverstanden": 320, "E-M": 321, "now": 322, "Biden": 323, "hel": 324, "llar": 325, "citizens": 326, "nee": 327, "ti": 328, "ön": 329, "Rhein": 330, "Matth": 331, "involved": 332, "ey": 333, "Mess": 334, "Änderungs": 335, "worden.": 336, "ef": 337, "daß": 338, "Zeitraums": 339, "Sum": 340, "fact,": 341, "verschiedenen": 342, "ft": 343, "National": 344, "ital": 345, "Theater": 346, "planned": 347, "Binnenwasserstraßen": 348, "light": 349, "Debatte": 350, "zunächst": 351, "fen.": 352, "view": 353, "Con": 354, "Reich": 355, "läßt.": 356, "US-": 357, "te,": 358, "But": 359, "uding": 360, "Bürger": 361, "ats": 362, "erinnern,": 363, "sustain": 364, "nachdem": 365, "With": 366, "Verkehrsbereich": 367, "obwohl": 368, "Schiedsger": 369, "votes": 370, "betriff": 371, "granted": 372, "poss": 373, "atast": 374, "bestehen": 375, "ag": 376, "prioritise": 377, "town": 378, "Binnenwass": 379, "facts": 380, "Vorsitzen": 381, "lich.": 382, "heard": 383, "dealing": 384, "reise": 385, "jetzt": 386, "Biden,": 387, "raph": 388, "Nutzung": 389, "isk": 390, "geht.": 391, "Bes": 392, "ason": 393, "geführ": 394, "wollen,": 395, "Drit": 396, "them": 397, "betreff": 398, "veröffentlich": 399, "gram": 400, "sweise": 401, "entr": 402, "verstärk": 403, "(The": 404, "Freit": 405, "Hairston": 406, "hig": 407, "Second": 408, "suchen": 409, "ien": 410, "müssen": 411, "eindeutig": 412, "Erachten": 413, "Zweitens": 414, "cau": 415, "21.": 416, "verkauf": 417, "ell": 418, "Raumor": 419, "£": 420, "ci": 421, "Ungleich": 422, "Camer": 423, "solut": 424, "gemel": 425, "bureaucrac": 426, "frü": 427, "Group.": 428, "without": 429, "atten": 430, "sess": 431, "verabschie": 432, "N": 433, "tell": 434, "differ": 435, "davon": 436, "stru": 437, "sever": 438, "Bevöl": 439, "zweiter": 440, "Universitä": 441, "uß": 442, "finden": 443, "ree": 444, "4-": 445, "profit": 446, "Vorwahlen": 447, "aller": 448, "obli": 449, "P": 450, "early": 451, "confident": 452, "5/E": 453, "jedoch": 454, "important": 455, "ish": 456, "Pers": 457, "1,": 458, "widmet": 459, "einander": 460, "Bere": 461, "wishes": 462, "unter": 463, "regional": 464, "pose": 465, "bekl": 466, "Präsidentin": 467, "itte": 468, "ISD": 469, "isions": 470, "unds": 471, "Serie": 472, "Einige": 473, "enter": 474, "electronic": 475, "if,": 476, "ihrem": 477, "en": 478, "Mindestnor": 479, "ichts": 480, "vergess": 481, "och": 482, "überqu": 483, "ots": 484, "zuständigen": 485, "ough": 486, "beglück": 487, "Australian": 488, "getan": 489, "JD": 490, "schafft": 491, "jede": 492, "February": 493, "mma": 494, "annung": 495, "ify": 496, "Mario": 497, "My": 498, "merksam": 499, "Rober": 500, "Ho": 501, "principles": 502, "erhö": 503, "earnings": 504, "ics": 505, "colleag": 506, "ann": 507, "Object": 508, "Programms": 509, "stre": 510, "entrepr": 511, "Halbzeit": 512, "u": 513, "schaf": 514, "berg": 515, "Piräus": 516, "verabschieden,": 517, "must": 518, "Maßnahmen": 519, "Frei": 520, "unterrich": 521, "monopol": 522, "vast": 523, "sch": 524, "actually": 525, "ktor": 526, "Republic": 527, "greater": 528, "transparen": 529, "Meine": 530, "sche": 531, "unden": 532, "Stabil": 533, "By": 534, "Forder": 535, "Agr": 536, "(A5-0": 537, "Prior": 538, "leaving": 539, "ine": 540, "pres": 541, "Transport,": 542, "days": 543, "greif": 544, "nichts": 545, "him": 546, "Ungleichgewichte": 547, "Carson,": 548, "Olympiak": 549, "Lewandowsk": 550, "Prä": 551, "werde.": 552, "cret": 553, "C5-0122/": 554, "th": 555, "wert": 556, "prerequisites": 557, "remain": 558, "Rand": 559, "Real": 560, "parliamentary": 561, "mund": 562, "liegt.": 563, "analys": 564, "finden,": 565, "94/": 566, "säm": 567, "formal": 568, "ident": 569, "fragen,": 570, "richt": 571, "LaFor": 572, "hin,": 573, "Ky": 574, "Clin": 575, "feren": 576, "ät": 577, "exp": 578, "einstimm": 579, "(A5-0105/1999)": 580, "million": 581, "proposals": 582, "today": 583, "-based": 584, "Mö": 585, "held": 586, "ä": 587, "Two": 588, "uation": 589, "ached": 590, "ersta": 591, "erzahl": 592, "High": 593, "Präsident,": 594, "wholes": 595, "erinn": 596, "Sitzungsperiode": 597, "35": 598, "sam": 599, "erstra": 600, "Grenz": 601, "beschle": 602, "partner": 603, "Ansicht,": 604, "courts": 605, "racquet": 606, "wichtigste": 607, "Olympia": 608, "Vatanen.": 609, "Projekt": 610, "Evans": 611, "between": 612, "festgestellt": 613, "bene": 614, "Verein": 615, "früh": 616, "Ruß": 617, "hervorragend.": 618, "a": 619, "single": 620, "further": 621, "irst": 622, "vent": 623, "w": 624, "election": 625, "EVP": 626, "Betrie": 627, "dass": 628, "lament": 629, "manchmal": 630, "Don": 631, "Kokk": 632, "dis": 633, "ihre": 634, "less": 635, "Hamb": 636, "confidence": 637, "disc": 638, "matter.": 639, "ustr": 640, "Suche": 641, "exam": 642, "gefall": 643, "erklärte": 644, "away": 645, "Koordinierung": 646, "verständ": 647, "ischer": 648, "verletzt": 649, "ay": 650, "Be": 651, "teilung": 652, "16": 653, "Erreich": 654, "Europas": 655, "account": 656, "reas": 657, "imin": 658, "dit": 659, "hlen": 660, "Serbian": 661, "Debüt": 662, "changes.": 663, "Erklärung": 664, "bst": 665, "wicht": 666, "Einsatz": 667, "Dian": 668, "After": 669, "prä": 670, "Transit": 671, "regul": 672, "17.": 673, "gestaltet": 674, "rein": 675, "potent": 676, "contribution": 677, "pass": 678, "uary": 679, "nicht,": 680, "Press": 681, "into": 682, "...": 683, "imm": 684, "bewohner": 685, "mod": 686, "ide": 687, "voters": 688, "wit": 689, "resour": 690, "änger": 691, "ember": 692, "mid": 693, "Coun": 694, "istischer": 695, "schlimm": 696, "einz": 697, "examination": 698, "beige": 699, "inste": 700, "various": 701, "content": 702, "stich": 703, "einigen": 704, "notwend": 705, "Sport": 706, "offensichtlich": 707, "player": 708, "IGA": 709, "tief": 710, "lassen,": 711, "übermitteln": 712, "ku": 713, "Member": 714, "Mann": 715, "rie": 716, "arr": 717, "Januar": 718, "wendung": 719, "Demokratischen": 720, "icht.": 721, "bedau": 722, "5,": 723, "schre": 724, "beitragen.": 725, "concern": 726, "tar": 727, "brand": 728, "Nur": 729, "regionalen": 730, "dagegen": 731, "probably": 732, "Initi": 733, "Gl": 734, "American": 735, "uum": 736, "legenheit": 737, "led": 738, "ous": 739, "Subsidiarität": 740, "C5-000": 741, "Therefore,": 742, "Berich": 743, "Juli": 744, "work": 745, "neuen": 746, "stellt": 747, "Kontrolle": 748, "anderthalb": 749, "Mitarbeiter": 750, "losigkeit": 751, "deutlich,": 752, "see": 753, "Cox": 754, "GOP": 755, "princip": 756, "him.": 757, "Mitte": 758, "begeister": 759, "bomb": 760, "conc": 761, "older": 762, "Flexibil": 763, "etwa": 764, "area,": 765, "länder": 766, "(A5-0104/": 767, "iden,": 768, "change": 769, "mittl": 770, "inter": 771, "staying": 772, "cont": 773, "adopted,": 774, "okrat": 775, "gü": 776, "hingewiesen.": 777, "Sanders.": 778, "registered": 779, "assist": 780, "wirklichen": 781, "atz": 782, "ged": 783, "keep": 784, "quis": 785, "she": 786, "europä": 787, "German": 788, "herstell": 789, "nah": 790, "27": 791, "based": 792, "Programme": 793, "recogn": 794, "fundament": 795, "compl": 796, "cer": 797, "clar": 798, "Uhr": 799, "Auffassung": 800, "included": 801, "p.m.": 802, "ability.": 803, "provo": 804, "Konferenz": 805, "Professor": 806, "anzös": 807, "importan": 808, "decision": 809, "stories": 810, "ods": 811, "vergangenen": 812, "fordern": 813, "Rolle": 814, "coordination": 815, "Inner": 816, "scho": 817, "velop": 818, "wurde": 819, "Gründe,": 820, "grundsätz": 821, "Nieder": 822, "gez": 823, "zerst": 824, "ikan": 825, "beantragt,": 826, "Chris": 827, "margen": 828, "irm": 829, "using": 830, "hör": 831, "typ": 832, "fam": 833, "comb": 834, "om": 835, "Bed": 836, "Mindest": 837, "pur": 838, "Ihre": 839, "consider": 840, "Wur": 841, "Syria": 842, "jects": 843, "obin": 844, "speakers": 845, "hätte.": 846, "ject": 847, "One": 848, "vorliegen": 849, "üt": 850, "se": 851, "string": 852, "up": 853, "Bürgern": 854, "comit": 855, "ungen": 856, "ble": 857, "fri": 858, "Qu": 859, "obliged": 860, "Angebot": 861, "schär": 862, "flexible": 863, "Amerikaner": 864, "Jetzt": 865, "stimmen.": 866, "ther": 867, "properly": 868, "zufrieden": 869, "9": 870, "buildings": 871, "ISDS": 872, "gleichen": 873, "Binnen": 874, "aro": 875, "Erika": 876, "primary": 877, "verk": 878, "Gonz": 879, "existing": 880, "amm": 881, "appreciate": 882, "ited,": 883, "äch": 884, "questions": 885, "Wulf-": 886, "Israel": 887, "Wach": 888, "terr": 889, "North": 890, "waren,": 891, "Stand": 892, "previous": 893, "unzu": 894, "Arbeitsplätz": 895, "Wählern": 896, "debut": 897, "situation": 898, "begrenz": 899, "erfahr": 900, "Archäologen": 901, "strument": 902, "carr": 903, "Tagesordnungspunkt": 904, "geling": 905, "pen": 906, "sind": 907, "focus": 908, "Änder": 909, "meet": 910, "full": 911, "ue": 912, "fordert": 913, "Wulf-Mathies": 914, "bedauer": 915, "policies": 916, "ücht": 917, "gut": 918, "Markt": 919, "princi": 920, "area": 921, "negoti": 922, "Erlaß": 923, "concerns": 924, "Palacio": 925, "Bevölker": 926, "duce": 927, "ratic": 928, "issues": 929, "alt": 930, "along": 931, "Is": 932, "Stadion": 933, "rän": 934, "arbitr": 935, "Fall": 936, "jeder": 937, "immt": 938, "Wurtz": 939, "aspects": 940, "sah": 941, "services": 942, "entwickelten": 943, "Flücht": 944, "Straße,": 945, "but,": 946, "laid": 947, "1998/0106(COD)).": 948, "her": 949, "strateg": 950, "here.": 951, "por": 952, "ial": 953, "construction": 954, "rost": 955, "within": 956, "church": 957, "tragen.": 958, "sollte": 959, "89": 960, "Priorität": 961, "stret": 962, "erne": 963, "win": 964, "Fä": 965, "dium": 966, "brigen": 967, "Should": 968, "uns": 969, "sehen": 970, "Erik": 971, "gt,": 972, "Öffentlichkeit": 973, "acknow": 974, "pictures": 975, "schieden": 976, "Sitz": 977, "ines": 978, "Transp": 979, "Außenseit": 980, "ck": 981, "Auch": 982, "Wahlper": 983, "gre": 984, "Schroedter,": 985, "betra": 986, "verste": 987, "ory": 988, "possibly": 989, "oment": 990, "rece": 991, "hist": 992, "constru": 993, "holding": 994, "next": 995, "Tats": 996, "Schwe": 997, "Inhalt": 998, "ri": 999, "peace": 1000, "fu": 1001, "attend": 1002, "voters.": 1003, "originally": 1004, "plann": 1005, "got": 1006, "hoffe,": 1007, "Dok": 1008, "men": 1009, "Luft": 1010, "jahr": 1011, "folgen.": 1012, "express": 1013, "hand": 1014, "dnung": 1015, "ud": 1016, "beein": 1017, "unable": 1018, "Prodi,": 1019, "ister": 1020, "schnell": 1021, "Sufj": 1022, "180": 1023, "König": 1024, "cle": 1025, "fav": 1026, "gesag": 1027, "gefunden": 1028, "kel": 1029, "bislang": 1030, "vertreten": 1031, "Beförderung": 1032, "indr": 1033, "machen,": 1034, "Al": 1035, "different": 1036, "standard": 1037, "ays": 1038, "for": 1039, "Inseln": 1040, "Dez": 1041, "debate.": 1042, "Rick": 1043, "hat": 1044, "Accord": 1045, "erlau": 1046, "Illin": 1047, "Wawr": 1048, "wäre": 1049, "würde": 1050, "ating": 1051, "Arbeitsplätze": 1052, "Sports": 1053, "Bevölkerungs": 1054, "ably": 1055, "gebra": 1056, "er.": 1057, "übrigen": 1058, "sources": 1059, "ible.": 1060, "Immobilien": 1061, "rose": 1062, "Club": 1063, "maximal": 1064, "erschossen": 1065, "irrepar": 1066, "ß": 1067, "Dut": 1068, "daher": 1069, "aup": 1070, "schlagen": 1071, "ity.": 1072, "circumstances": 1073, "Zentr": 1074, "beständ": 1075, "Sozialwirtschaft": 1076, "ergreif": 1077, "ausge": 1078, "U.": 1079, "problems": 1080, "kör": 1081, "agenda.": 1082, "applie": 1083, "ench": 1084, "örder": 1085, "Treat": 1086, "Minut": 1087, "imp": 1088, "Ereig": 1089, "shooting": 1090, "growth": 1091, "assung": 1092, "Met": 1093, "Verbess": 1094, "fahr": 1095, "happen": 1096, "Dort": 1097, "begr": 1098, "ides": 1099, "bzw.": 1100, "trie": 1101, "Zweitens:": 1102, "abst": 1103, "lieb": 1104, "Rei": 1105, "financial": 1106, "sit": 1107, "an,": 1108, "Grün": 1109, "flücht": 1110, "Gleich": 1111, "information": 1112, "Europäischen": 1113, "Frage,": 1114, "Brü": 1115, "teen": 1116, "ug": 1117, "Ausschuss": 1118, "gen": 1119, "ast": 1120, "geschl": 1121, "ohn": 1122, "voll": 1123, "theless": 1124, "Crespo,": 1125, "Clinton": 1126, "näch": 1127, "insgesamt.": 1128, "Bild": 1129, "Team": 1130, "zwang": 1131, "nel": 1132, "Innerhalb": 1133, "trä": 1134, "yo": 1135, "unmittelbare": 1136, "duc": 1137, "ürz": 1138, "nehmen,": 1139, "coordin": 1140, "grocery": 1141, "month,": 1142, "Prü": 1143, "ouse": 1144, "de": 1145, "sug": 1146, "vorhaben": 1147, "ions,": 1148, "Dam": 1149, "part-session.": 1150, "Doch": 1151, "Angelegenheit": 1152, "umfassen": 1153, "ded": 1154, "Mitarbeit": 1155, "og": 1156, "äl": 1157, "(CEN": 1158, "Worten": 1159, "ruling": 1160, "program": 1161, "Umsatz": 1162, "ern": 1163, "yet": 1164, "werde": 1165, "market.": 1166, "Hinweis": 1167, "Kr": 1168, "Parlaments": 1169, "schemes": 1170, "Fakten": 1171, "Mittwo": 1172, "rejected": 1173, "96": 1174, "indung": 1175, "hire": 1176, "used": 1177, "ut": 1178, "Tür": 1179, "Staats": 1180, "French": 1181, "urged": 1182, "increasing": 1183, "Gor": 1184, "dream": 1185, "Ansich": 1186, "Ausdruck": 1187, "spär": 1188, "gegenwär": 1189, "Kollegen": 1190, "ehemalige": 1191, "Gewalt": 1192, "SABMiller": 1193, "Do": 1194, "1997": 1195, "way.": 1196, "long": 1197, "delay": 1198, "rück": 1199, "lehr": 1200, "anz": 1201, "Planungs": 1202, "beste": 1203, "proposed": 1204, "ator": 1205, "possible.": 1206, "Antrag": 1207, "Freitag": 1208, "prochen": 1209, "record": 1210, "der": 1211, "sole": 1212, "hear": 1213, "omin": 1214, "Gre": 1215, "städtischen": 1216, "Ponnambalam,": 1217, "enthusiast": 1218, "Diskussion": 1219, "kein": 1220, "pe": 1221, "controversy": 1222, "Vorstell": 1223, "stärkeren": 1224, "eher": 1225, "Drittel": 1226, "controver": 1227, "Kollegen!": 1228, "floor": 1229, "17": 1230, "technical": 1231, "Lage": 1232, "cent": 1233, "verletz": 1234, "broke": 1235, "dog": 1236, "subst": 1237, "Kapital": 1238, "199": 1239, "glad": 1240, "Ter": 1241, "dar": 1242, "details": 1243, "insofern": 1244, "satisfied": 1245, "ES": 1246, "alle,": 1247, "mann": 1248, "Zähne": 1249, "maxim": 1250, "einzelnen": 1251, "outcome": 1252, "De": 1253, "Geschichte": 1254, "er,": 1255, "return": 1256, "affe": 1257, "18.": 1258, "bt": 1259, "ico": 1260, "bildung": 1261, "Prinzessin": 1262, "goes": 1263, "ks": 1264, "asking": 1265, "Zusammenarbeit,": 1266, "Febr": 1267, "mark": 1268, "oder": 1269, "Fr": 1270, "Mississippi,": 1271, "lau": 1272, "kolle": 1273, "believe,": 1274, "können,": 1275, "sollen.": 1276, "trade": 1277, "Septem": 1278, "eigentlich": 1279, "vorzu": 1280, "eff": 1281, "gratul": 1282, "Blickwin": 1283, "Koch": 1284, "m,": 1285, "anträ": 1286, "Cleveland,": 1287, "erfü": 1288, "pack": 1289, "Fremdenverkehr": 1290, "gegen": 1291, "Koch,": 1292, "Ver": 1293, "ien,": 1294, "Tom": 1295, "paar": 1296, "sing": 1297, "nommen": 1298, "declar": 1299, "regions": 1300, "is.": 1301, "Alhay": 1302, "Städ": 1303, "hier": 1304, "matter": 1305, "refusing": 1306, "unanimously": 1307, "besteht": 1308, "issues.": 1309, "glichkeit": 1310, "envir": 1311, "inadmiss": 1312, "majority": 1313, "Wettbewer": 1314, "Änderungsanträge": 1315, "äuf": 1316, "ite": 1317, "Br": 1318, "schaffen": 1319, "viele": 1320, "Wahl": 1321, "person": 1322, "C5-012": 1323, "report,": 1324, "agung": 1325, "ibt": 1326, "Lux": 1327, "Zusammenhal": 1328, "substantial": 1329, "Harmonisierungsbestre": 1330, "Lewand": 1331, "ichte": 1332, "PPE/DE-Fraktion": 1333, "traffic": 1334, "Transport": 1335, "gibt": 1336, "Schritt": 1337, "Disk": 1338, "Hunder": 1339, "aying": 1340, "ild": 1341, "spläne": 1342, "Weihn": 1343, "unterstützt.": 1344, "Erarbeitung": 1345, "ati": 1346, "live": 1347, "gemeinsamen": 1348, "given": 1349, "gew": 1350, "Af": 1351, "ental": 1352, "su": 1353, "lungen": 1354, "left": 1355, "Binnenwasserstraße": 1356, "ient": 1357, "ance": 1358, "beh": 1359, "Thursday.": 1360, "nt": 1361, "Den": 1362, "Kont": 1363, "help": 1364, "camp": 1365, "he": 1366, "decade": 1367, "Prime": 1368, "veröffentlichten": 1369, "Mad": 1370, "you": 1371, "14": 1372, "ermöglichen": 1373, "report.": 1374, "Bevölk": 1375, "ass": 1376, "1999/": 1377, "wide": 1378, "zern": 1379, "ele": 1380, "hät": 1381, "bearing": 1382, "Punkte,": 1383, "eines": 1384, "ias": 1385, "mö": 1386, "schaften": 1387, "Aldi": 1388, "sea.": 1389, "non-smokers,": 1390, "insbesondere": 1391, "reichen": 1392, "Monday": 1393, "wegen": 1394, "sequent": 1395, "Sozialist": 1396, "verlag": 1397, "appear": 1398, "ches": 1399, "Zwe": 1400, "PPE-DE": 1401, "neuesten": 1402, "urn": 1403, "absolute": 1404, "News/": 1405, "speak": 1406, "unnöt": 1407, "Sinn": 1408, "mentioned": 1409, "2": 1410, "Details": 1411, "danach": 1412, "@bbc.": 1413, "händler": 1414, "sixth": 1415, "agen": 1416, "time.": 1417, "suffered": 1418, "Erfahrung": 1419, "hypothe": 1420, "become": 1421, "republikan": 1422, "Most": 1423, "Unterstütz": 1424, "von": 1425, "etzt": 1426, "halb": 1427, "reduce": 1428, "belast": 1429, "ADR": 1430, "hoffen,": 1431, "well,": 1432, "weis": 1433, "aging": 1434, "sto": 1435, "sagte,": 1436, "lub": 1437, "ory,": 1438, "Liber": 1439, "risks,": 1440, "ilder": 1441, "League": 1442, "Monmouth": 1443, "rat": 1444, "ign": 1445, "habe,": 1446, "wenige": 1447, "inten": 1448, "Industr": 1449, "Treff": 1450, "open": 1451, "since": 1452, "bare": 1453, "Gautier,": 1454, "dom": 1455, "öff": 1456, "Donnerstag": 1457, "Lauf": 1458, "margins": 1459, "Ausschusses": 1460, "ask": 1461, "dra": 1462, "bef": 1463, "Opf": 1464, "principl": 1465, "Ziel-": 1466, "effect": 1467, "C5-": 1468, "vorlegen.": 1469, "degree": 1470, "stit": 1471, "haben,": 1472, "ons": 1473, "schie": 1474, "fix": 1475, "jüng": 1476, "hervor": 1477, "introduce": 1478, "irma": 1479, "critic": 1480, "zen": 1481, "resh": 1482, "Tag": 1483, "Marco": 1484, "atür": 1485, "Ausschuß": 1486, "acknowled": 1487, "sagten,": 1488, "outside": 1489, "Burber": 1490, "gra": 1491, "Group": 1492, "fonds": 1493, "marke": 1494, "countries": 1495, "Problemen": 1496, "Arkansas": 1497, "authorities": 1498, "-S": 1499, "da": 1500, "ja": 1501, "ament": 1502, "really": 1503, "glau": 1504, "minister": 1505, "past": 1506, "Stan": 1507, "begrün": 1508, "Pfe": 1509, "Jeder": 1510, "bs": 1511, "ures,": 1512, "ium,": 1513, "Tun": 1514, "like": 1515, "los": 1516, "kürz": 1517, "Democratic": 1518, "einheit": 1519, "cess": 1520, "huge": 1521, "erstmals": 1522, "Third": 1523, "allowed": 1524, "cre": 1525, "economy": 1526, "atis": 1527, "anstre": 1528, "implemented": 1529, "Kollege": 1530, "Aber": 1531, "Haus": 1532, "Da": 1533, "wurde,": 1534, "ously": 1535, "CB": 1536, "zw": 1537, "Stabilität": 1538, "Verhaltens": 1539, "High-": 1540, "wäre.": 1541, "ort": 1542, "(Das": 1543, "befürwor": 1544, "meisten": 1545, "appoint": 1546, "@bbc.co.uk": 1547, "adequ": 1548, "Programmen": 1549, "reason": 1550, "Ziele": 1551, "Mc": 1552, "trust": 1553, "Umstän": 1554, "konkret": 1555, "beizu": 1556, "initiative": 1557, "krit": 1558, "hon": 1559, "di": 1560, "However,": 1561, "pa": 1562, "Kolle": 1563, "nie": 1564, "ip": 1565, "erforderlich": 1566, "Sinne": 1567, "Mill": 1568, "ausgezeichneten": 1569, "Lage,": 1570, "prem": 1571, "CE": 1572, "mind": 1573, "),": 1574, "wär": 1575, "resul": 1576, "national": 1577, "fach": 1578, "sid": 1579, "Vice-President": 1580, "genomm": 1581, "dex": 1582, "geschen": 1583, "wing": 1584, "ism": 1585, "subsidiarity": 1586, "94/55/EC": 1587, "hung": 1588, "territ": 1589, "Verhältnis": 1590, "rg": 1591, "wären": 1592, "twi": 1593, "hom": 1594, "konkre": 1595, "Not": 1596, "What": 1597, "lu": 1598, "out": 1599, "ness": 1600, "ten,": 1601, "Gruppe": 1602, "political": 1603, "set,": 1604, "pleased": 1605, "Syrien": 1606, "safety,": 1607, "agenda": 1608, "programmes": 1609, "outermost": 1610, "every": 1611, "ifell": 1612, "guidelin": 1613, "necess": 1614, "minus": 1615, "geschalteten": 1616, "beklagen": 1617, "Pirä": 1618, "explo": 1619, "Lapland": 1620, "baldige": 1621, "higher": 1622, "zweis": 1623, "perfor": 1624, "Ac": 1625, "Beschlüsse": 1626, "ces": 1627, "wohn": 1628, "bez": 1629, "grew": 1630, "ampag": 1631, "example,": 1632, "z": 1633, "perspective": 1634, "again": 1635, "out,": 1636, "halten": 1637, "dram": 1638, "legislation": 1639, "Nun": 1640, "at": 1641, "hätten": 1642, "candidates,": 1643, "once": 1644, "Randlage": 1645, "govern": 1646, "ohne": 1647, "Mein": 1648, "Erklär": 1649, "überein": 1650, "meinem": 1651, "ABC/": 1652, "ped": 1653, "demograph": 1654, "Our": 1655, "samen": 1656, "ter,": 1657, "hy": 1658, "Präsidenten": 1659, "mer": 1660, "wever": 1661, "ig.": 1662, "fact": 1663, "effekt": 1664, "umf": 1665, "co": 1666, "Notr": 1667, "senden": 1668, "bre": 1669, "face": 1670, "vote.": 1671, "mem": 1672, "inad": 1673, "Gouverneur": 1674, "Sit": 1675, "sector": 1676, "immigration": 1677, "US-Open": 1678, "Very": 1679, "E-Mail": 1680, "befürwortet": 1681, "silence": 1682, "what": 1683, "oting": 1684, "weiter": 1685, "occur": 1686, "einräumt.": 1687, "pt": 1688, "unan": 1689, "ior": 1690, "teris": 1691, "Unser": 1692, "iert,": 1693, "Ad": 1694, "Frem": 1695, "Ok": 1696, "wend": 1697, "(C5-0208/": 1698, "ert": 1699, "kalten": 1700, "Stell": 1701, "with": 1702, "Gebieten.": 1703, "expe": 1704, "grass": 1705, "bewer": 1706, "cap": 1707, "years,": 1708, "Erla": 1709, "Then": 1710, "ünst": 1711, "Bundes": 1712, "notwendig,": 1713, "why": 1714, "worth": 1715, "21": 1716, "constructed": 1717, "wohlge": 1718, "Zus": 1719, "Wirtschaftskommission": 1720, "sociated": 1721, "ending": 1722, "aver": 1723, "lop": 1724, "sicherlich": 1725, "fall": 1726, "Netanyahu": 1727, "ra": 1728, "Antwort": 1729, "guidelines": 1730, "sichtig": 1731, "Notruf": 1732, "möchte": 1733, "Zeitraum": 1734, "Plan": 1735, "tre": 1736, "verur": 1737, "Verwaltungs": 1738, "iting": 1739, "base": 1740, "stimm": 1741, "Meinung,": 1742, "met": 1743, "teach": 1744, "increase": 1745, "laws": 1746, "gefragt": 1747, "Album": 1748, "almost": 1749, "hnlich": 1750, "soll": 1751, "zune": 1752, "geste": 1753, "major": 1754, "Fraktionen": 1755, "welcome": 1756, "letzte": 1757, "Militär": 1758, "statt": 1759, "Americ": 1760, "gebeten,": 1761, "wurden,": 1762, "ugen,": 1763, "Bill": 1764, "Fernsehen": 1765, "tert": 1766, "comm": 1767, "Gewährung": 1768, "rag": 1769, "Erf": 1770, "ill": 1771, "10": 1772, "parlament": 1773, "Schlußfolgerungen": 1774, "leit": 1775, "Dennoch": 1776, "Proze": 1777, "erklär": 1778, "gen.": 1779, "officials": 1780, "beginn": 1781, "his": 1782, "respond": 1783, "mitteln": 1784, "helped": 1785, "ander": 1786, "ium": 1787, "ähr": 1788, "man": 1789, "arbeiten": 1790, "können": 1791, "case.": 1792, "development,": 1793, "Arti": 1794, "beats": 1795, "ision": 1796, "lag": 1797, "antwortung": 1798, "jahres": 1799, "Angleich": 1800, "Chr": 1801, "ands": 1802, "Schwierigkeiten,": 1803, "Exper": 1804, "Ebene": 1805, "Man": 1806, "fon": 1807, "Museum": 1808, "feld": 1809, "Erwäg": 1810, "alog": 1811, "accident": 1812, "inte": 1813, "sü": 1814, "mehr": 1815, "Ziels": 1816, "denn": 1817, "Sha": 1818, "Publikum": 1819, "kung": 1820, "wegs": 1821, "Ä": 1822, "Frakt": 1823, "habe.": 1824, "diversity": 1825, "disk": 1826, "befassen,": 1827, "Wirtschafts-": 1828, "Potsdam": 1829, "ßt.": 1830, "baren": 1831, "disaster,": 1832, "sil": 1833, "ning": 1834, "Wawrinka": 1835, "ufen": 1836, "fand,": 1837, "Quaest": 1838, "ace": 1839, "committee.": 1840, "ommission": 1841, "gain": 1842, "ifizierung": 1843, "Thema": 1844, "US": 1845, "erwartet,": 1846, "elect": 1847, "ried": 1848, "labour": 1849, "Änderungsantrag": 1850, "schafts": 1851, "itor": 1852, "emphas": 1853, "c": 1854, "piece": 1855, "consideration": 1856, "Erarbeit": 1857, "füg": 1858, "loy": 1859, "amb": 1860, "Ziel-1": 1861, "deut": 1862, "social": 1863, "EU-": 1864, "Gov": 1865, "det.": 1866, "Aspekte": 1867, "Wirtschaft": 1868, "taken": 1869, "State": 1870, "incor": 1871, "aufge": 1872, "Aktivitäten": 1873, "gebil": 1874, "reduct": 1875, "Voraussetz": 1876, "Platz": 1877, "law": 1878, "leads": 1879, "Research": 1880, "Zust": 1881, "LaForge": 1882, "fli": 1883, "became": 1884, "drän": 1885, "answered": 1886, "Veränder": 1887, "appro": 1888, "candidates.": 1889, "stär": 1890, "Universit": 1891, "ha": 1892, "Europäische": 1893, "erforderlich,": 1894, "diff": 1895, "There": 1896, "subject": 1897, "Erst": 1898, "konzentr": 1899, "Flau": 1900, "seiner": 1901, "quo": 1902, "hell": 1903, "Cameron": 1904, "non-smok": 1905, "ändern": 1906, "Nik": 1907, "komme": 1908, "Strategie": 1909, "TTIP": 1910, "ute": 1911, "Great": 1912, "Beschäftigungsstrategie": 1913, "ährungs": 1914, "begnügen,": 1915, "States.": 1916, "WA": 1917, "potential": 1918, "Bern": 1919, "Wul": 1920, "isch": 1921, "ersten": 1922, "Berichte": 1923, "lehnt": 1924, "zufrie": 1925, "ived": 1926, "mot": 1927, "down": 1928, "Energie": 1929, "angemessene": 1930, "berücksichtig": 1931, "zahlreich": 1932, "lassen": 1933, "tut": 1934, "risks": 1935, "mut": 1936, "gruppen": 1937, "FT": 1938, "Richtlin": 1939, "Sm": 1940, "Zustimmung.": 1941, "Grund": 1942, "ährend": 1943, "cert": 1944, "insgesam": 1945, "ature": 1946, "ankomm": 1947, "sent": 1948, "effor": 1949, "unmittel": 1950, "Chin": 1951, "sequently": 1952, "pol": 1953, "sales": 1954, "TU": 1955, "regards": 1956, "ächlich": 1957, "exe": 1958, "Arbeitsschutz": 1959, "besten": 1960, "ach": 1961, "Regionen": 1962, "bekannt": 1963, "Probleme": 1964, "Berichterstatter,": 1965, "countr": 1966, "immer": 1967, "1999/0083": 1968, "l,": 1969, "instead": 1970, "anderth": 1971, "Further": 1972, "suppor": 1973, "Zustimm": 1974, "ho": 1975, "geh": 1976, "verschie": 1977, "politische": 1978, "agr": 1979, "vorschlä": 1980, "prom": 1981, "grat": 1982, "dik": 1983, "expressing": 1984, "habe": 1985, "alth": 1986, "akzept": 1987, "Medien": 1988, "Februar": 1989, "netze": 1990, "igen.": 1991, "höheren": 1992, "explained": 1993, "either": 1994, "Steu": 1995, "Parlament,": 1996, "message": 1997, "unterbre": 1998, "ausreichend": 1999, "sämt": 2000, "issues,": 2001, "strong": 2002, "Thomas": 2003, "Hin": 2004, "verpflich": 2005, "always": 2006, "iacos": 2007, "nehmen": 2008, "atives": 2009, "wichtigen": 2010, "ement": 2011, "Orientierung": 2012, "op": 2013, "Hairst": 2014, "wendet": 2015, "Smokers": 2016, "kept": 2017, "support.": 2018, "Kommunikation": 2019, "Artikel": 2020, "durchgeführ": 2021, "nach": 2022, "dou": 2023, "ller": 2024, "einheitliche": 2025, "tunnel": 2026, "imension": 2027, "Wass": 2028, "implementation": 2029, "chan": 2030, "vertrauenswürdig": 2031, "Abänder": 2032, "iere": 2033, "ursach": 2034, "He": 2035, "Bel": 2036, "fehlt": 2037, "funds": 2038, "Indeed,": 2039, "t:": 2040, "advisors": 2041, "thro": 2042, "Wege": 2043, "Umwe": 2044, "operation": 2045, "ent.": 2046, "atisfact": 2047, "Qualif": 2048, "Lang": 2049, "Brand": 2050, "prep": 2051, "Council": 2052, "ow": 2053, "send": 2054, "Healy.": 2055, "erwähnt.": 2056, "ab.": 2057, "until": 2058, "Schul": 2059, "shop": 2060, "would": 2061, "anstreben": 2062, "meeting": 2063, "geleistete": 2064, "ight.": 2065, "embargo": 2066, "eingere": 2067, "curity": 2068, "ken": 2069, "Voll": 2070, "den,": 2071, "supporters": 2072, "lern": 2073, "raise": 2074, "approach": 2075, "Recht": 2076, "say": 2077, "zer": 2078, "gefund": 2079, "Landwirte": 2080, "Marktanteil": 2081, "of": 2082, "chance": 2083, "klimatischen": 2084, "voter": 2085, "Material": 2086, "temperatures": 2087, "kunft": 2088, "000": 2089, "mob": 2090, "würde,": 2091, "short": 2092, "vs.": 2093, "men,": 2094, "U": 2095, "min": 2096, "Another": 2097, "ague": 2098, "demonstr": 2099, "faßt": 2100, "despite": 2101, "enthusiastically": 2102, "Frost": 2103, "zusam": 2104, "Art": 2105, "West": 2106, "Nachrichten": 2107, "derartige": 2108, "Häl": 2109, "case": 2110, "wird": 2111, "licht,": 2112, "positive": 2113, "Democ": 2114, "Waffen": 2115, "Bedeutung,": 2116, "Abbau": 2117, "maß": 2118, "Protokoll": 2119, "uro": 2120, "Armut": 2121, "optim": 2122, "ant": 2123, "Abigail": 2124, "dem": 2125, "Bush,": 2126, "hoc": 2127, "Hinblick": 2128, "richtung": 2129, "September": 2130, "Gren": 2131, "ing": 2132, "Dad": 2133, ".000": 2134, "ence": 2135, "Beit": 2136, "Jerem": 2137, "extreme": 2138, "io": 2139, "cher": 2140, "qualität": 2141, "late": 2142, "A": 2143, "Schule": 2144, "sozialen": 2145, "einige": 2146, "strategie": 2147, "ifellos": 2148, "tax,": 2149, "Pfeiler": 2150, "denk": 2151, "Somit": 2152, "isters": 2153, "certific": 2154, "Massen": 2155, "Mitglied": 2156, "comment": 2157, "issue.": 2158, "denken,": 2159, "kes": 2160, "mag": 2161, "tatsächlich": 2162, "sp": 2163, "i-": 2164, "nämlich": 2165, "sper": 2166, "reiter": 2167, "nachhalt": 2168, "Vie": 2169, "lieber": 2170, "reco": 2171, "forder": 2172, "300": 2173, "fin": 2174, "eing": 2175, "acceptable": 2176, "bear": 2177, "implementing": 2178, "regionen": 2179, "Beiträ": 2180, "wurde.": 2181, "Prof": 2182, "11": 2183, "Mensch": 2184, "respon": 2185, "John": 2186, "iode": 2187, "king": 2188, "100": 2189, "ws": 2190, "shows": 2191, "General": 2192, "Cohesion": 2193, "completely": 2194, "gewisser": 2195, "border": 2196, "erste": 2197, "companies": 2198, "be,": 2199, "iac": 2200, "outer": 2201, "ihrer": 2202, "ague,": 2203, "binden.": 2204, "kte": 2205, "number": 2206, "Freund": 2207, "Rau": 2208, "study": 2209, "ideos": 2210, "comitolog": 2211, "tool": 2212, "IS": 2213, "Thom": 2214, "reg": 2215, "enforcement.": 2216, "penalties": 2217, "einbezogen": 2218, "sind,": 2219, "state": 2220, "direct": 2221, "staff": 2222, "prakt": 2223, "4": 2224, "1998": 2225, "wieder": 2226, "E": 2227, "Daten": 2228, "estab": 2229, "dread": 2230, "setzen.": 2231, "vo": 2232, "ansp": 2233, "PM": 2234, "Kl": 2235, "ausschuß": 2236, "Hung": 2237, "guaran": 2238, "ländlichen": 2239, "competit": 2240, "außerdem": 2241, "over": 2242, "Lappland": 2243, "oman": 2244, "nur": 2245, "45": 2246, "hingewiesen,": 2247, "Grunds": 2248, "spolitik": 2249, "hot": 2250, "uell": 2251, "Dou": 2252, "Regionalpolitik,": 2253, "Zusam": 2254, "Juni": 2255, "antwort": 2256, "kten": 2257, "hersteller": 2258, "geleistet": 2259, "Modalitäten": 2260, "Mor": 2261, "bringing": 2262, "negotiations": 2263, "merk": 2264, "prepare": 2265, "decis": 2266, "effective": 2267, "pick": 2268, "In": 2269, "Erhöhung": 2270, "sicher": 2271, "Behand": 2272, "vorangegangenen": 2273, "näm": 2274, "dlichen": 2275, "Agricult": 2276, "protect": 2277, "erkann": 2278, "step": 2279, "143": 2280, "Lin": 2281, "Friday": 2282, "Abstimmung": 2283, "Än": 2284, "formen": 2285, "schrif": 2286, "December": 2287, "icht,": 2288, "atastrop": 2289, "berücksichtigen,": 2290, "eng": 2291, "t": 2292, "durch": 2293, "te.": 2294, "that.": 2295, "crow": 2296, "allgemein": 2297, "wirken": 2298, "cted": 2299, "sprechen,": 2300, "giving": 2301, "edoch": 2302, "zor": 2303, "finden.": 2304, "SM": 2305, "ierungen": 2306, "Schieds": 2307, "Ge": 2308, "mitt": 2309, "oni": 2310, "light.": 2311, "ers.": 2312, "requ": 2313, "however,": 2314, "employment,": 2315, "bab": 2316, "ESF-Inter": 2317, "treffen,": 2318, "sen": 2319, "lement": 2320, "tragenen": 2321, "coun": 2322, "Gemein": 2323, "Kolleg": 2324, "gel": 2325, "other": 2326, "frühen": 2327, "Le": 2328, "gelten": 2329, "Fünf": 2330, "music": 2331, "staat": 2332, "instruct": 2333, "onstr": 2334, "socie": 2335, "Freihandelsabkommen": 2336, "ct": 2337, "Dinge": 2338, "confiden": 2339, "Gorsel": 2340, "ahlen": 2341, "wr": 2342, "ails": 2343, "eigen": 2344, "erk": 2345, "vertre": 2346, "Quinnipiac": 2347, "now,": 2348, "zuerst": 2349, "contro": 2350, "Frau": 2351, "ven": 2352, "beding": 2353, "Weg": 2354, "ised": 2355, "damit": 2356, "inak": 2357, "inv": 2358, "employees": 2359, "Prozent.": 2360, "treat": 2361, "agreed": 2362, "em": 2363, "want": 2364, "attent": 2365, "Zusätzen": 2366, "uellen": 2367, "688": 2368, "alles": 2369, "(C5-020": 2370, "Zun": 2371, "tet": 2372, "describ": 2373, "Ja": 2374, "Just": 2375, "Enth": 2376, "ör": 2377, "sechs": 2378, "Partei": 2379, "saf": 2380, "wesen": 2381, "margin": 2382, "Parliament,": 2383, "Mus": 2384, "med": 2385, "Tim": 2386, "ships": 2387, "mitglie": 2388, "früher": 2389, "me,": 2390, "Rub": 2391, "berück": 2392, "Still,": 2393, "gezogen": 2394, "dan": 2395, "rappor": 2396, "correspon": 2397, "regelungen": 2398, "Poettering": 2399, "transported": 2400, "u.": 2401, "komment": 2402, "ed": 2403, "student": 2404, "prerequis": 2405, "ziert": 2406, "denken": 2407, "lic": 2408, "Seit": 2409, "mangel": 2410, "mir": 2411, "beglückwünschen.": 2412, "CN": 2413, "debated": 2414, "(CEN)": 2415, "item": 2416, "line": 2417, "Belgium,": 2418, "Margar": 2419, "inc": 2420, "Mengen": 2421, "iert": 2422, "ath": 2423, "door": 2424, "explic": 2425, "wider": 2426, "Abgeordneten": 2427, "ying": 2428, "disasters": 2429, "stat": 2430, "ungen,": 2431, "24": 2432, "beendet": 2433, "isl": 2434, "setzbare": 2435, "ed.": 2436, "Unterschie": 2437, "igen,": 2438, "llen": 2439, "lassen.": 2440, "Presse": 2441, "annual": 2442, "Washington": 2443, "Und": 2444, "Schaffung": 2445, "einziges": 2446, "Struktur": 2447, "Pal": 2448, "ld": 2449, "enthus": 2450, "exclus": 2451, "protection": 2452, "verbessern.": 2453, "Ne": 2454, "ae": 2455, "ds": 2456, "mis": 2457, "countries,": 2458, "grundsätzlich": 2459, "26": 2460, "k": 2461, "costs": 2462, "Funds": 2463, "Investitions": 2464, "icip": 2465, "Bürokratie": 2466, "Enthalt": 2467, "nut": 2468, "möchte,": 2469, "erlauben,": 2470, "handelt,": 2471, "val": 2472, "Colog": 2473, "phase": 2474, "Während": 2475, "problem.": 2476, "zu": 2477, "Kopf-an-Kopf-Rennen": 2478, "beauftrag": 2479, "gewünscht,": 2480, "Gouverne": 2481, "soci": 2482, "ira": 2483, "minimum": 2484, "Kohäs": 2485, "nennen": 2486, "prochen.": 2487, "sollte.": 2488, "ises": 2489, "Labour": 2490, "Schmidt": 2491, "ues": 2492, "abgelehnt": 2493, "zufolge": 2494, "areas,": 2495, "uten": 2496, "est": 2497, "Namen": 2498, "accoun": 2499, "proved": 2500, "verz": 2501, "lished": 2502, "reported": 2503, "Gemeinsamen": 2504, "gehen": 2505, "omit": 2506, "cash": 2507, "festgeleg": 2508, "meas": 2509, "rei": 2510, "arbeit": 2511, "hand,": 2512, "CBS": 2513, "perfectly": 2514, "by": 2515, "ßt": 2516, "resident": 2517, "folk": 2518, "Aussprache": 2519, "commun": 2520, "griff": 2521, "er": 2522, "where": 2523, "ty.": 2524, "dieses": 2525, "Fonds": 2526, "wa": 2527, "Auswirkungen": 2528, "Änderungsanträgen": 2529, "ig": 2530, "ker": 2531, "95/": 2532, "safe": 2533, "final": 2534, "al": 2535, "amo": 2536, "cargo": 2537, "offic": 2538, "].": 2539, "keits": 2540, "-20C": 2541, "Ch": 2542, "colle": 2543, "iveau": 2544, "All": 2545, "taus": 2546, "Arbeits": 2547, "för": 2548, "Ponnambal": 2549, "ouver": 2550, "ungarische": 2551, "retail": 2552, "Novem": 2553, "Prinzess": 2554, "158": 2555, "zusammen": 2556, "orig": 2557, "tain": 2558, "cold": 2559, "Hänsch": 2560, "lo": 2561, "anden": 2562, "Zunächst": 2563, "kandid": 2564, "Infrastruktur": 2565, "vorhandenen": 2566, "regions.": 2567, "25": 2568, "vorschrif": 2569, "invest": 2570, "per": 2571, "Demokrat": 2572, "criticism": 2573, "Vizepräsident": 2574, "Unzu": 2575, "mul": 2576, "spät": 2577, "experience": 2578, "Co": 2579, "viol": 2580, "(": 2581, "darstell": 2582, "rail": 2583, "besonderen": 2584, "ref": 2585, "established": 2586, "todays": 2587, "international": 2588, "preferred": 2589, "ihren": 2590, "rise,": 2591, "waterways": 2592, "Führ": 2593, "Red": 2594, "Tatsache": 2595, "Bezie": 2596, "Eink": 2597, "represented": 2598, "minis": 2599, "transpo": 2600, "Kollegen,": 2601, "hen": 2602, "freien": 2603, "done": 2604, "arbitration": 2605, "Only": 2606, "hum": 2607, "lage": 2608, "äne": 2609, "Harmonisierungs": 2610, "ehn": 2611, "do": 2612, "bau": 2613, "Ur": 2614, "p.": 2615, "verkaufen": 2616, "deser": 2617, "Mitglie": 2618, "bedeuten": 2619, "ünd": 2620, "Vorschriften": 2621, "Bilder": 2622, "European": 2623, "Embargos": 2624, "laut": 2625, "Bereit": 2626, "plement": 2627, "Gefahrgut": 2628, "unterlassen": 2629, "monitor": 2630, "ausdrück": 2631, "Amer": 2632, "bereit": 2633, "frame": 2634, "Conference": 2635, "CNN": 2636, "happ": 2637, "however": 2638, "bureau": 2639, "sein": 2640, "Er": 2641, "Ausrichtung": 2642, "Erachtens": 2643, "unterschied": 2644, "Anfang": 2645, "möglicher": 2646, "competitive": 2647, "Konfli": 2648, "Richemon": 2649, "Orient": 2650, "squ": 2651, "pecial": 2652, "lle": 2653, "doctor": 2654, "Iow": 2655, "razor": 2656, "Prozent": 2657, "hm": 2658, "Pegida": 2659, "richten": 2660, "Sü": 2661, "gn": 2662, "igung": 2663, "Kunden": 2664, "Oder": 2665, "(CO": 2666, "länger": 2667, "news": 2668, "erfolgreich": 2669, "term": 2670, "Eng": 2671, "kommen.": 2672, "rightly": 2673, "For": 2674, "types": 2675, "(A5-010": 2676, "verein": 2677, "exper": 2678, "macht.": 2679, "Schutz": 2680, "verschlech": 2681, "Förderung": 2682, "across": 2683, "x": 2684, "Lösung": 2685, "suggest": 2686, "getan,": 2687, "ben": 2688, "tim": 2689, "de,": 2690, "sagen": 2691, "mittleren": 2692, "system": 2693, "d.": 2694, "liebe": 2695, "Stevens": 2696, "Vizepräsidentin": 2697, "vorrangig": 2698, "sektor": 2699, "not,": 2700, "Gefahrguttransporte": 2701, "sowie": 2702, "Union": 2703, "99": 2704, "Even": 2705, "amended": 2706, "Bundespol": 2707, "befass": 2708, "Hier": 2709, "Wednes": 2710, "Tochter": 2711, "Cleve": 2712, "capital": 2713, "ett": 2714, "bo": 2715, "zieren": 2716, "ennt": 2717, "gemeldet": 2718, "beeinfl": 2719, "house": 2720, "ideo": 2721, "imum": 2722, "Köl": 2723, "non-": 2724, "andid": 2725, "annexes": 2726, "igh": 2727, "Geschich": 2728, "that": 2729, "sehr": 2730, "Ideen": 2731, "your": 2732, "denke,": 2733, "würden": 2734, "erheben,": 2735, "planning": 2736, "schließ": 2737, "Länder": 2738, "reports": 2739, "3": 2740, "äftig": 2741, "uture": 2742, "teilweise": 2743, "PPE/": 2744, "distribution": 2745, "ale": 2746, "dle": 2747, "nehmen.": 2748, "regel": 2749, "enn": 2750, "ploy": 2751, "Ich": 2752, "gelang": 2753, "enz": 2754, "Tät": 2755, "3:0": 2756, "zwe": 2757, "incorpor": 2758, "(C5-0": 2759, "Robert": 2760, "look": 2761, "Pre": 2762, "ex": 2763, "überaus": 2764, "sed": 2765, "half": 2766, "vol": 2767, "particularly": 2768, ")": 2769, "schossen": 2770, "friends": 2771, "will": 2772, "rul": 2773, "artig": 2774, "therefore": 2775, "chen,": 2776, "ledig": 2777, "Fest": 2778, "120": 2779, "zing": 2780, "four": 2781, "zusätz": 2782, "ßnahmen": 2783, "gangen": 2784, "ob": 2785, "talent": 2786, "mal": 2787, "conclusions": 2788, "Sicherheit,": 2789, "Delta": 2790, "principle": 2791, "städ": 2792, "Reicht": 2793, "Sicherheitsberatern": 2794, "Sender": 2795, "had": 2796, "nächste": 2797, "Jun": 2798, "1999)": 2799, "-C": 2800, ".).": 2801, "wirk": 2802, "low": 2803, "suc": 2804, "Palac": 2805, "oper": 2806, "role": 2807, "Modal": 2808, "part-session": 2809, "channel": 2810, "Instit": 2811, "steht.": 2812, "Amerikan": 2813, "klär": 2814, "nation": 2815, "itt": 2816, "Indu": 2817, "two": 2818, "Gütern": 2819, "clim": 2820, "East": 2821, "ually": 2822, "esch": 2823, "chn": 2824, "ersuchen,": 2825, "temperament": 2826, "darum,": 2827, "Dienstleistungen": 2828, "Das": 2829, "objectives": 2830, "treffen": 2831, "advan": 2832, "year": 2833, "ich,": 2834, "ung.": 2835, "500": 2836, "Kierath": 2837, "Mitteln": 2838, "oste": 2839, "Immobilien-M": 2840, "Policy,": 2841, "Mitglieds": 2842, "which": 2843, "ird": 2844, "Prentiss": 2845, "fun": 2846, "excell": 2847, "ansion": 2848, "F": 2849, "investor": 2850, "Kyrgio": 2851, "enforc": 2852, "geschrie": 2853, "jährige": 2854, "wechsel": 2855, "cohesion": 2856, "x,": 2857, "schlage": 2858, "impro": 2859, "Schwer": 2860, "risk": 2861, "songs": 2862, "könnte": 2863, "Inter": 2864, "Lindern": 2865, "ündig": 2866, "Stadt": 2867, "Lebensbedingungen": 2868, "Plooij": 2869, "relevant": 2870, "Ladung": 2871, "seit": 2872, "Tuesday": 2873, "President,": 2874, "gestellt": 2875, "beispiel": 2876, "nehm": 2877, "Erfolg": 2878, "Einkl": 2879, "Binnenwas": 2880, "legt": 2881, "leas": 2882, "serb": 2883, "schaffen.": 2884, ".3": 2885, "legungen": 2886, "Publik": 2887, "continue": 2888, "clearly": 2889, "wesentlichen": 2890, "Munich": 2891, "Groß": 2892, "Sicherheitsberat": 2893, "views": 2894, "concl": 2895, "reached": 2896, "initially": 2897, "Nut": 2898, "zwei": 2899, "Ko": 2900, "jump": 2901, "Kopf-an-K": 2902, "idea": 2903, "vö": 2904, "Techn": 2905, "Fre": 2906, "asst": 2907, "ateful": 2908, "onn": 2909, "ent": 2910, "Zaun": 2911, "erneuer": 2912, "assen": 2913, "strategy": 2914, "2001,": 2915, "dien": 2916, "äs": 2917, "kt": 2918, "ies,": 2919, "vorgeleg": 2920, "Verkehrs": 2921, "ience": 2922, "Gautier": 2923, "or": 2924, "leave": 2925, "ger": 2926, "begin": 2927, "Grad": 2928, "Ihrem": 2929, "wrong": 2930, "kur": 2931, "vertrau": 2932, "stärk": 2933, "pul": 2934, "Vergangen": 2935, "nimmt": 2936, "entlich": 2937, "auern": 2938, "drawing": 2939, "This": 2940, "ft.": 2941, "ank": 2942, "Consequently,": 2943, "spending": 2944, "sub": 2945, "häufig": 2946, "Strateg": 2947, "selves.": 2948, "asse": 2949, "hinsichtlich": 2950, "länd": 2951, "aufgenommen": 2952, "ution": 2953, "Lynne,": 2954, "First": 2955, "companies,": 2956, "beiden": 2957, "stie": 2958, "procedure": 2959, "dessen": 2960, "Inv": 2961, "fried": 2962, "Olymp": 2963, "opinion": 2964, "Jahrhunder": 2965, "Aktien": 2966, "gliche": 2967, "Charak": 2968, "leg": 2969, "-old": 2970, "weit": 2971, "aching": 2972, "Umwelt": 2973, "ou": 2974, "tem": 2975, "%,": 2976, "paragraph": 2977, "falsch": 2978, "fördern": 2979, "Strukturfonds": 2980, "weiß,": 2981, "2003": 2982, "Flü": 2983, "Mehrheit": 2984, "öt": 2985, "process.": 2986, "Umsetzung": 2987, "officers": 2988, "February.": 2989, "drafting": 2990, "Plen": 2991, "Neben": 2992, "importance": 2993, "vorhand": 2994, "geschäft": 2995, "wage": 2996, "vorange": 2997, "Präsidentin,": 2998, "eit": 2999, "population": 3000, "euro": 3001, "New": 3002, "Betra": 3003, "jud": 3004, "leicht": 3005, "hört": 3006, "The": 3007, "Deb": 3008, "schlä": 3009, "drängt": 3010, "genau": 3011, "Bev": 3012, "part-sess": 3013, "guar": 3014, "erkenn": 3015, "public": 3016, "2000-": 3017, "ichten": 3018, "request,": 3019, "20": 3020, "Kön": 3021, "regular": 3022, "13": 3023, "found": 3024, "mon": 3025, "wichtig.": 3026, "following": 3027, "Serbien": 3028, "uring": 3029, "expen": 3030, "Sicher": 3031, "ofern": 3032, "Sylt": 3033, "geprüft": 3034, "internal": 3035, "ding": 3036, "ensure": 3037, "fahren": 3038, "includes": 3039, "haben.": 3040, "ehrlich": 3041, "Koordin": 3042, "isierung": 3043, "finanzielle": 3044, "States": 3045, "Wunsch": 3046, "den?": 3047, "let": 3048, "Smith,": 3049, "Veränderungen": 3050, "Pläne": 3051, "counted": 3052, ":": 3053, "oten": 3054, "stood": 3055, "take": 3056, "spre": 3057, "allen": 3058, "Arbeitsplätzen": 3059, "Pflicht,": 3060, "lier": 3061, "hre": 3062, "ischen": 3063, "werden.": 3064, "Tenn": 3065, "tätig": 3066, "parts": 3067, "strategische": 3068, "ama": 3069, "Au": 3070, "kun": 3071, "Quästoren": 3072, "cas": 3073, "Punkte": 3074, "republikanischen": 3075, "Pub": 3076, "zeig": 3077, "wier": 3078, "gil": 3079, "Olym": 3080, "Zeit": 3081, "Staats-": 3082, "Denn": 3083, "ument": 3084, "er-": 3085, "uf": 3086, "whose": 3087, "penalt": 3088, "Ihr": 3089, "military": 3090, "Partner": 3091, "anschein": 3092, "endgült": 3093, "more": 3094, "Quinnip": 3095, "Energ": 3096, "le": 3097, "Tuesday.": 3098, "diskut": 3099, "uck": 3100, "widely": 3101, "Bürokrat": 3102, "SAB": 3103, "gh": 3104, "Thurs": 3105, "possible,": 3106, "Bedeutung": 3107, "OM(1999)": 3108, "später": 3109, "ada": 3110, "4/": 3111, "framework": 3112, "observ": 3113, "rene": 3114, "yl": 3115, "And": 3116, "only": 3117, "tete": 3118, "ech": 3119, "z.": 3120, "kleinen": 3121, "C5-0004/": 3122, "already": 3123, "No": 3124, "weiß": 3125, "series": 3126, "Absatz": 3127, "ausgewogen": 3128, "201": 3129, "high": 3130, "beschleun": 3131, "Analy": 3132, "Reform": 3133, "ziellen": 3134, "icht": 3135, "itäten": 3136, "mo": 3137, "anmerken,": 3138, "praktische": 3139, "men.": 3140, "ful": 3141, "Piraeus": 3142, "166": 3143, "tats": 3144, "act": 3145, "ents": 3146, "us.": 3147, "firm": 3148, "mittel": 3149, "Indikatoren": 3150, "T": 3151, "ome": 3152, "occas": 3153, "angemess": 3154, "wur": 3155, "lands": 3156, "Bekämpfung": 3157, "Kier": 3158, "draw": 3159, "unserer": 3160, "hne": 3161, "Erneu": 3162, "Opfer": 3163, "unterbreite": 3164, "env": 3165, "ler": 3166, "weder": 3167, "Arm": 3168, "igran": 3169, "Toch": 3170, "outs": 3171, "derzeit": 3172, "Durchführ": 3173, "Ansicht": 3174, "warum": 3175, "Q": 3176, "tomorrow": 3177, "ständ": 3178, "g": 3179, "Mitteilung": 3180, "know": 3181, "opportun": 3182, "circumst": 3183, "ße": 3184, "kämp": 3185, "sidiar": 3186, "Rande": 3187, "plan": 3188, "talks": 3189, "urg": 3190, "spielt": 3191, "well.": 3192, "befür": 3193, "star": 3194, "Regelungen": 3195, "ap": 3196, "vorgenommen": 3197, "trained": 3198, "thank": 3199, "congratul": 3200, "ord": 3201, "repor": 3202, "those": 3203, "serve": 3204, "report": 3205, "crossing": 3206, "Tunnel": 3207, "Ly": 3208, "unkt": 3209, "Seite": 3210, "ennen": 3211, "gewöhnlich": 3212, "22": 3213, "analy": 3214, "ar": 3215, "abinet": 3216, "Staaten": 3217, "5": 3218, "Pot": 3219, "Vor": 3220, "Reihe": 3221, "cir": 3222, "proced": 3223, "Notstand": 3224, "wirkt.": 3225, "Commissions": 3226, "ere": 3227, "something": 3228, "hatte,": 3229, "Zä": 3230, "Del": 3231, "dre": 3232, "Hungary,": 3233, "klar": 3234, "Hick": 3235, "Metcashs": 3236, "osteuropäischen": 3237, "tragen": 3238, "Rede": 3239, "Durchführungs": 3240, "offici": 3241, "unn": 3242, "ins": 3243, "seal": 3244, "76": 3245, "W": 3246, "percent": 3247, "ev": 3248, "Lamb,": 3249, "Durch": 3250, "Grenzwert": 3251, "procedure.": 3252, "belehr": 3253, "sowohl": 3254, "log": 3255, "trying": 3256, "appre": 3257, "ib": 3258, "stands": 3259, "answer": 3260, "s": 3261, "Lewandow": 3262, "Produ": 3263, "o": 3264, "Or": 3265, "regulations,": 3266, "future.": 3267, "sized": 3268, "wever,": 3269, "Sorg": 3270, "dere": 3271, "techn": 3272, "Clintons": 3273, "numbers": 3274, "schaft": 3275, "Joburg": 3276, "Strukturfond": 3277, "ändler": 3278, "sound": 3279, "uss": 3280, "stage": 3281, "exce": 3282, "sup": 3283, "Besonders": 3284, "guarantees": 3285, "gesund": 3286, "Beschäftigungs": 3287, "Anstreng": 3288, "super": 3289, "Carson": 3290, "ong": 3291, "Mitglieder": 3292, "Sanders": 3293, "priority": 3294, "ust": 3295, "Ü": 3296, "Open": 3297, "Weihnach": 3298, "ehr": 3299, "Plooij-": 3300, "Kraft": 3301, "isch-": 3302, "occurred": 3303, "Britain": 3304, "essor": 3305, "Akt": 3306, "Posit": 3307, "transportation": 3308, "Repub": 3309, "percent).": 3310, "dies": 3311, "krä": 3312, "abzugeben.": 3313, "bei": 3314, "Befugnisse": 3315, "Schweigeminute": 3316, "igt": 3317, "Erfahr": 3318, "estate": 3319, "Idey": 3320, "Dadurch": 3321, "Emp": 3322, "Aktiv": 3323, "deserves": 3324, "lead": 3325, "Schien": 3326, "nal": 3327, "ungs": 3328, "likan": 3329, "jungen": 3330, "Lapl": 3331, "Kumar": 3332, "transpor": 3333, "disparities": 3334, "dist": 3335, "Kopf-an-Kopf-": 3336, "sider": 3337, "folgt": 3338, "ü": 3339, "gewö": 3340, "Temperaturen": 3341, "endgültigen": 3342, "minut": 3343, "Trumps": 3344, "0": 3345, "94/5": 3346, "excellent": 3347, "ll,": 3348, "gefährlicher": 3349, "hinsicht": 3350, "Je": 3351, "dafür,": 3352, "trustworth": 3353, "sogar": 3354, "Star": 3355, "relate": 3356, "roads,": 3357, "Schwier": 3358, "first": 3359, "this,": 3360, "mor": 3361, "Kartoffeln": 3362, "therefore,": 3363, "we": 3364, "Vat": 3365, "sicht": 3366, "Raum": 3367, "haup": 3368, "Trump": 3369, "gehen.": 3370, "Müller": 3371, "oppe": 3372, "daughter": 3373, "explicit": 3374, "plans": 3375, "substance": 3376, "außerord": 3377, "second": 3378, "Außerdem": 3379, "endlich": 3380, "too,": 3381, "like,": 3382, "date": 3383, "reform": 3384, "Kommissarin": 3385, "concerning": 3386, "way": 3387, "import": 3388, "nahmen": 3389, "endor": 3390, "ting": 3391, "Unterschiede": 3392, "ieren,": 3393, "betrifft,": 3394, "citizen": 3395, "selbst": 3396, "Bereitstellung": 3397, "Nationalhymne": 3398, "begrüß": 3399, "unser": 3400, "Michigan": 3401, "itiative": 3402, "expres": 3403, "provisions": 3404, "carried": 3405, "ched": 3406, "911": 3407, "Segni,": 3408, "Lamm": 3409, "today,": 3410, "Rechtsvorschrif": 3411, "Block": 3412, "shall": 3413, "hope": 3414, "resolutions": 3415, "fence": 3416, "relation": 3417, "Kartoffel": 3418, "Schienen": 3419, "opportunities": 3420, "Ob": 3421, "universit": 3422, "policy": 3423, "südlichen": 3424, "expense": 3425, "15": 3426, "neues": 3427, "jem": 3428, "cor": 3429, "So": 3430, "darf": 3431, "weiteren": 3432, "Binnenwasserstra": 3433, "ation": 3434, "nochmals": 3435, "pp": 3436, "finding": 3437, "halte": 3438, "already.": 3439, "ack": 3440, "ible": 3441, "Gew": 3442, "wh": 3443, "werde,": 3444, "ear": 3445, "resources": 3446, "ihres": 3447, "zel": 3448, "ies": 3449, "force": 3450, "ities": 3451, "Num": 3452, "lin": 3453, "Rechtsvorschriften": 3454, "Flexibilitä": 3455, "cris": 3456, "Protoko": 3457, "volum": 3458, "vielleicht": 3459, "meiner": 3460, "krat": 3461, "nature.": 3462, "Beiträge": 3463, "beziehen": 3464, "You": 3465, "Rennen": 3466, "disast": 3467, "gewidmet": 3468, "schen": 3469, "ight": 3470, "nü": 3471, "ukt": 3472, "compet": 3473, "issue,": 3474, "interess": 3475, "ro": 3476, "tunnels": 3477, "bit": 3478, "unsere": 3479, "anischen": 3480, "ply": 3481, "ester": 3482, "nomination": 3483, "private": 3484, "b": 3485, "ability": 3486, "alread": 3487, "should": 3488, "finally": 3489, "Position": 3490, "amount": 3491, "ick": 3492, "potato": 3493, "Gefahr": 3494, "Isra": 3495, "tt": 3496, "bess": 3497, "erheben.": 3498, "Nikit": 3499, "season": 3500, "Flexibilitäts": 3501, "closed": 3502, "bedauere": 3503, "Syr": 3504, "Schatten": 3505, "Sicherheitsberater": 3506, "Men": 3507, "Deswegen": 3508, "konkrete": 3509, "Fe": 3510, "Six": 3511, "fond": 3512, "gegenwärtig": 3513, "explan": 3514, "Präsidentin!": 3515, "23": 3516, "Punkt": 3517, "trag": 3518, "also,": 3519, "amen": 3520, "Prozeß,": 3521, "kurz": 3522, "vision": 3523, "bin": 3524, "Sozialistischen": 3525, "weitergehen": 3526, "gemeinsame": 3527, "investiert": 3528, "mit": 3529, "Königreichs": 3530, "position": 3531, "integrated": 3532, "Zim": 3533, "anything": 3534, "Nationalhym": 3535, "i,": 3536, "Trier": 3537, "audience": 3538, "denen": 3539, "emer": 3540, "ult": 3541, "Hilfe": 3542, "Nove": 3543, "setting": 3544, "voted": 3545, "Mississipp": 3546, "fra": 3547, "assess": 3548, "beg": 3549, "llow": 3550, "Kok": 3551, "Clinton,": 3552, "C5-0004/1999": 3553, "contributions": 3554, "weiterer": 3555, "geht,": 3556, "urs": 3557, "objective": 3558, "individ": 3559, "entwur": 3560, "gen,": 3561, "Über": 3562, "abge": 3563, "perfect": 3564, "ibel": 3565, "Bau": 3566, "ople": 3567, "ein,": 3568, "kurzen": 3569, "saying": 3570, "tern": 3571, "absolutely": 3572, "arbeitslosigkeit": 3573, "lay": 3574, "heut": 3575, "Presidents": 3576, "erreich": 3577, "ike": 3578, "oft": 3579, "rect": 3580, "gestellt.": 3581, "hen.": 3582, "unterstützen": 3583, "Donnerst": 3584, "iß": 3585, "Hinweise,": 3586, "Die": 3587, "40": 3588, "unanim": 3589, "Zusammenarbeit": 3590, "said": 3591, "beigetragen,": 3592, "hard": 3593, "konzentrieren.": 3594, "ison": 3595, "ländliche": 3596, "inland": 3597, "osten": 3598, "Commission": 3599, "entry": 3600, "Un": 3601, "stop": 3602, "hing": 3603, "shar": 3604, "prim": 3605, "opf-": 3606, "loo": 3607, "ebenso": 3608, "Bereitschaft": 3609, "Lank": 3610, "dazu": 3611, "gar": 3612, "simply": 3613, "kebab": 3614, "mein": 3615, "körper": 3616, "Krit": 3617, "Vorschlag": 3618, "Nahr": 3619, "regionale": 3620, "Per": 3621, "iges": 3622, "sie": 3623, "getreten": 3624, "landes": 3625, "burger": 3626, "ändern.": 3627, "som": 3628, "whom": 3629, "Lanka": 3630, "Montag": 3631, "zustimmen.": 3632, "n": 3633, "lik": 3634, "ving": 3635, "Washing": 3636, "Zahlen": 3637, "y,": 3638, "ären": 3639, "Sie,": 3640, "die": 3641, "wenngleich": 3642, "packaging": 3643, "growing": 3644, "rop": 3645, "bü": 3646, "hö": 3647, "a,": 3648, "effektive": 3649, "use": 3650, "Arbeitslosigkeit": 3651, "muß": 3652, "Folge": 3653, "herum": 3654, "among": 3655, "steigt.": 3656, "Ungarn": 3657, "conditions": 3658, "clo": 3659, "streicht": 3660, "anteil": 3661, "Gesellschaft": 3662, "Flexibilität": 3663, "accep": 3664, "ätz": 3665, "Ponn": 3666, "würde.": 3667, "ff": 3668, "führen,": 3669, "sorgen,": 3670, "flex": 3671, "eben": 3672, "explos": 3673, "agricult": 3674, "Waf": 3675, "Hungar": 3676, "Mike": 3677, "fang": 3678, "earch": 3679, "oral": 3680, "Pirae": 3681, "storm": 3682, "Lamb": 3683, "kee": 3684, "course.": 3685, "ice": 3686, "circumstan": 3687, "uch": 3688, "2011": 3689, "especial": 3690, "port": 3691, "Romano": 3692, "Sicherhe": 3693, "vert": 3694, "che": 3695, "Rauch": 3696, "@b": 3697, "Ungleichgew": 3698, "1998/010": 3699, "stehende": 3700, "administration": 3701, "pict": 3702, "bleibt": 3703, "sequ": 3704, "möglichen": 3705, "ure": 3706, "macht": 3707, "forward": 3708, "Amt": 3709, "sämtliche": 3710, "hervorragend": 3711, "wichtig,": 3712, "Dollar": 3713, "policy,": 3714, "kon": 3715, "wie": 3716, "t.": 3717, "say,": 3718, "potatoes": 3719, "ften": 3720, "Pir": 3721, "kommt,": 3722, "ald": 3723, "Waw": 3724, "end,": 3725, "frost": 3726, "umgesetzt": 3727, "äude": 3728, "Menschen,": 3729, "völlig": 3730, "2010": 3731, "Sub": 3732, "Jahren": 3733, "new": 3734, "eingebra": 3735, "jedenfalls": 3736, "appropr": 3737, "winden": 3738, "ot": 3739, "Vertre": 3740, "Jahr": 3741, "sei": 3742, "entsprechend": 3743, "atur": 3744, "würden,": 3745, "gewähl": 3746, "stütz": 3747, "substant": 3748, "Unternehmen": 3749, "Kom": 3750, "inform": 3751, "berücksicht": 3752, "ausgewo": 3753, "freuen,": 3754, "Gov.": 3755, "quest": 3756, "Flex": 3757, "Sektor": 3758, "höher": 3759, "itar": 3760, "Swo": 3761, "stehen": 3762, "strategic": 3763, "hatte.": 3764, "several": 3765, "Wirtschaftsk": 3766, "aff": 3767, "speech": 3768, "Wir": 3769, "Aus": 3770, "candid": 3771, "broad": 3772, "worden": 3773, "Vergangenheit": 3774, "ehe": 3775, "ould": 3776, "heben,": 3777, "verbund": 3778, "Zimeray": 3779, "Tod": 3780, "Waffenembargo": 3781, "Gouver": 3782, "gebracht": 3783, "Ma": 3784, "geschlagen": 3785, "Änderungsanträ": 3786, "Warum": 3787, "Temperament": 3788, "beträ": 3789, "reichende": 3790, "q": 3791, "southern": 3792, "Land": 3793, "verär": 3794, "cou": 3795, "verfü": 3796, "streng": 3797, "nä": 3798, "inn": 3799, "läu": 3800, "adop": 3801, "great": 3802, "end": 3803, "fehl": 3804, "Stück": 3805, "Et": 3806, "atalog": 3807, "ic": 3808, "check": 3809, "gebildet": 3810, "months": 3811, "Donn": 3812, "Kommissarin,": 3813, "bor": 3814, "cro": 3815, "Wirt": 3816, "immen,": 3817, "Char": 3818, "Dienstleist": 3819, "mitted": 3820, "SA": 3821, "glie": 3822, "hn": 3823, "cial": 3824, "Rahmen": 3825, "9%": 3826, "Bü": 3827, "front": 3828, "quick": 3829, "rating": 3830, "Commissioner,": 3831, "Industrie": 3832, "Bar": 3833, "bezeichne": 3834, "kommen": 3835, "debate": 3836, "dritten": 3837, "Räum": 3838, "Toys": 3839, "Cox.": 3840, "Kosten": 3841, "entsprech": 3842, "tät": 3843, "poor": 3844, "road.": 3845, "carrying": 3846, "el": 3847, "together": 3848, "2009": 3849, "period.": 3850, "heb": 3851, "Naturk": 3852, "Vorschlä": 3853, "ras": 3854, "employe": 3855, "Lebens": 3856, "spra": 3857, "vers": 3858, "stets": 3859, "Investoren": 3860, "gefra": 3861, "nung": 3862, "entschlossen": 3863, "appropriate": 3864, "soll,": 3865, "elected": 3866, "verkün": 3867, "ti-": 3868, "ince": 3869, "peri": 3870, "ter": 3871, "con": 3872, "Pots": 3873, "rit": 3874, "erz": 3875, "Stelle": 3876, "gl": 3877, "lok": 3878, "Bund": 3879, "sour": 3880, "sidi": 3881, "ty": 3882, "Kohäsionsfonds": 3883, "Dennoch,": 3884, "comments.": 3885, "son": 3886, "proposal": 3887, "dont": 3888, "Zahl": 3889, "Proto": 3890, "hol": 3891, "dieser": 3892, "Kommissar": 3893, "Entscheidung,": 3894, "herausfinden,": 3895, "fen,": 3896, "smoking": 3897, "Außenminister": 3898, "tooth": 3899, "proceeding": 3900, "linge": 3901, "nun": 3902, "rules.": 3903, "drei": 3904, "wichtig": 3905, "Problem": 3906, "share": 3907, "rauch": 3908, "Woch": 3909, "wirtschaftlichen": 3910, "anscheinend": 3911, "Those": 3912, "offens": 3913, "head": 3914, "namely": 3915, "prosper": 3916, "Änderung": 3917, "temper": 3918, "Gonzle": 3919, "@bbc.co": 3920, "müss": 3921, "erien": 3922, "ak": 3923, "ern.": 3924, "klar,": 3925, "y.": 3926, "Ausdr": 3927, "vis": 3928, "beglückwünsch": 3929, "mus": 3930, "prior": 3931, "igkeit": 3932, "lichen": 3933, "Swobo": 3934, "later": 3935, "cross": 3936, "älter": 3937, "Wal": 3938, "Wort": 3939, "28": 3940, "D)": 3941, "activities": 3942, "internationalen": 3943, "gesehen,": 3944, "konnten": 3945, "Regionen.": 3946, "below": 3947, "Stacheld": 3948, "Stimme": 3949, "Reichtum": 3950, "Millionen": 3951, "Douglas": 3952, "appe": 3953, "griffen": 3954, "none": 3955, "Cologne": 3956, "rap": 3957, "ück": 3958, "großen": 3959, "field": 3960, "resulting": 3961, "System": 3962, "heutigen": 3963, "Schie": 3964, "time,": 3965, "prüfen,": 3966, "interim": 3967, "type": 3968, "ion": 3969, "after": 3970, "Fox": 3971, "eindeut": 3972, "repeat": 3973, "independ": 3974, "then": 3975, "Risik": 3976, "arischen": 3977, "Beachtung": 3978, "kämpfen": 3979, "ungünstig": 3980, "Verkehr,": 3981, "fest,": 3982, "Zeit,": 3983, "write": 3984, "ry": 3985, "bitten,": 3986, "elektron": 3987, "agen,": 3988, "IGA-Einzelhändler": 3989, "dict": 3990, "Es": 3991, "ost": 3992, "aten,": 3993, "His": 3994, "build": 3995, "Nominierung": 3996, "cise": 3997, "waterway.": 3998, "nomine": 3999, "ation,": 4000, "weisen": 4001, "möglichkeit": 4002, "free": 4003, "Positionen": 4004, "car": 4005, "äußerst": 4006, "hap": 4007, "ll": 4008, "signific": 4009, "unterstütz": 4010, "par": 4011, "jenigen,": 4012, "Erreichung": 4013, "ativ": 4014, "1999/00": 4015, "Prodi": 4016, "Ungleichheiten": 4017, "ive": 4018, "i": 4019, "could": 4020, "Dieses": 4021, "directive": 4022, "ly": 4023, "ritt": 4024, "Brussel": 4025, "that,": 4026, "Abschl": 4027, "Steve": 4028, "wire": 4029, "gran": 4030, "Experten": 4031, "called": 4032, "employment": 4033, "audi": 4034, "having": 4035, "44": 4036, "gleich": 4037, "le,": 4038, "hnen": 4039, "ängst": 4040, "Beschäftigungsmöglichkeit": 4041, "d,": 4042, "Guardi": 4043, "zt": 4044, "ris": 4045, "ütz": 4046, "is,": 4047, "Fo": 4048, "Durchführung": 4049, "Jer": 4050, "Nationen": 4051, "Sch": 4052, "violence": 4053, "gesunk": 4054, "Ele": 4055, "vorüber": 4056, "pre": 4057, "woman": 4058, "poin": 4059, "geschickt": 4060, "ia,": 4061, "transport.": 4062, "1999,": 4063, "demokratischen": 4064, "lect": 4065, "Naturkatastrophen": 4066, "uar": 4067, "ische": 4068, "because": 4069, "ieren": 4070, "ater": 4071, "Temper": 4072, "sum": 4073, "killed": 4074, "danger": 4075, "House": 4076, "vot": 4077, "Now": 4078, "development.": 4079, "roff": 4080, "inclu": 4081, "ssel": 4082, "rapporte": 4083, "Raumordnung": 4084, "gs": 4085, "Sicherheit": 4086, "resse": 4087, "2016,": 4088, "enjo": 4089, "nehmer": 4090, "zustimmen,": 4091, "asked": 4092, "möchten": 4093, "übung": 4094, "additions": 4095, "-F": 4096, "ities.": 4097, "did": 4098, "ht": 4099, "ple": 4100, "Alb": 4101, "three": 4102, "Dies": 4103, "fe": 4104, "ür": 4105, "stechn": 4106, "punkt": 4107, "sein,": 4108, "Sol": 4109, "erung": 4110, "this.": 4111, "ith": 4112, "Of": 4113, "Viertel": 4114, "nomination,": 4115, "O": 4116, "prod": 4117, "excl": 4118, "clear": 4119, "besonders": 4120, "indes": 4121, "2.": 4122, "Aktion": 4123, "wichtige": 4124, "heißt": 4125, "entwurf": 4126, "service": 4127, "ens": 4128, "adopting": 4129, "just": 4130, "imal": 4131, "Richt": 4132, "lasten": 4133, "desp": 4134, "vorgeschlagen": 4135, "liz": 4136, "Binnenmarktes": 4137, "towards": 4138, "Sh": 4139, "Dienstag.": 4140, "vernünftiger": 4141, "gest": 4142, "lim": 4143, "If": 4144, "zeichne": 4145, "Dokument": 4146, "wi": 4147, "wohl": 4148, "Gem": 4149, "geb": 4150, "Par": 4151, "w,": 4152, "Europa": 4153, "provision": 4154, "minute.": 4155, "Struktur-": 4156, "media": 4157, "sol": 4158, "näher": 4159, "Italien": 4160, "harmonising": 4161, "etwas": 4162, "Verhand": 4163, "€": 4164, "iv": 4165, "lernen": 4166, "Vorspr": 4167, "Frauen": 4168, "Notwend": 4169, "Gr": 4170, "defence": 4171, "Bemerk": 4172, "so": 4173, "Beamten": 4174, "diese": 4175, "appeal": 4176, "experts": 4177, "armon": 4178, "comitology": 4179, "Zimeray,": 4180, "sh": 4181, "entlichen": 4182, "ein": 4183, "zerstör": 4184, "precisely": 4185, "e": 4186, "offenbar": 4187, "kommenden": 4188, "submitted": 4189, "Jahrh": 4190, "Mittel": 4191, "fight": 4192, "Entwicklung": 4193, "Ordnung": 4194, "ix": 4195, "towar": 4196, "grö": 4197, "Harmonis": 4198, "feel": 4199, "vertrauenswür": 4200, "CNN/ORC": 4201, "hl": 4202, "Tues": 4203, "country,": 4204, "aus,": 4205, "Dienst": 4206, "untersch": 4207, "ferenz": 4208, "akzeptieren": 4209, "verteil": 4210, "Aldi-": 4211, "zähl": 4212, "interest": 4213, "ification": 4214, "Damit": 4215, "bevor": 4216, "uge": 4217, "Gelder": 4218, "ücke": 4219, "Ziel-1-Region": 4220, "ampions": 4221, "zuständige": 4222, "räum": 4223, "Abig": 4224, "36": 4225, "certain": 4226, "areas": 4227, "Institut": 4228, "briefly,": 4229, "Welt": 4230, "ganz": 4231, "central": 4232, "ommiss": 4233, "load": 4234, "Indonesien": 4235, "utz": 4236, "wid": 4237, "zufr": 4238, "ABC": 4239, "Parliament": 4240, "ance.": 4241, "Vice-": 4242, "Ger": 4243, "beförder": 4244, "reich": 4245, "ehemal": 4246, "wurden": 4247, "transport,": 4248, "Qua": 4249, "solution": 4250, "Schroed": 4251, "f-": 4252, "od": 4253, "imens": 4254, "states.": 4255, "years.": 4256, "entwickelt": 4257, "zweifellos": 4258, "auf": 4259, "Fraktion": 4260, "Selbst": 4261, "video": 4262, "Barn": 4263, "abhängigen": 4264, "be.": 4265, "ahead": 4266, "igration": 4267, "prof": 4268, "legen,": 4269, "no": 4270, "danken.": 4271, "Justin": 4272, "July,": 4273, "ität": 4274, "regulatory": 4275, "entwic": 4276, "candidate": 4277, "fair": 4278, "ago.": 4279, "considering": 4280, "Fragestunde": 4281, "schließung": 4282, "amp": 4283, "Groups.": 4284, "earlier": 4285, "darin": 4286, "logisch": 4287, "Nähe": 4288, "which,": 4289, "ations": 4290, "zeigten": 4291, "Zug": 4292, "passing": 4293, "attention": 4294, "besit": 4295, "ready": 4296, "else": 4297, "festgelegt": 4298, "Um": 4299, "Germany": 4300, "allerdings": 4301, "Peter": 4302, "zed": 4303, "Vorschl": 4304, "hef": 4305, "ichten.": 4306, "implement": 4307, "ift": 4308, "Chanc": 4309, "Ergebnis": 4310, "entspre": 4311, "jährigen": 4312, "ucht": 4313, "arbit": 4314, "an": 4315, "correct": 4316, "ia": 4317, "vote": 4318, "means": 4319, "pain": 4320, "development": 4321, "adminis": 4322, "Verhält": 4323, "smok": 4324, "utet": 4325, "week.": 4326, "schne": 4327, "fre": 4328, "sollen": 4329, "than": 4330, "before": 4331, "gemeinsam": 4332, "ings": 4333, "zahl": 4334, "legen.": 4335, "least": 4336, "ployment": 4337, "Kandidatin": 4338, "fo": 4339, "Unsere": 4340, "Minutes": 4341, "phas": 4342, "3,": 4343, "out.": 4344, "Florida": 4345, "last": 4346, "unemployment": 4347, "so,": 4348, "etition": 4349, "regulation": 4350, "uppe": 4351, "Woche": 4352, "gesam": 4353, "gangenen": 4354, "darum": 4355, "Vorgaben": 4356, "bezie": 4357, "vorr": 4358, "einver": 4359, "arch": 4360, "geschehen,": 4361, "Nach": 4362, "führt.": 4363, "expedit": 4364, "you,": 4365, "spr": 4366, "vie": 4367, "bt,": 4368, "Future": 4369, "entre": 4370, "möglich": 4371, "certainly": 4372, "beitslosigkeit": 4373, "ford": 4374, "ten.": 4375, "Göt": 4376, "Gefahrguttransport": 4377, "Heraus": 4378, "course,": 4379, "alten": 4380, "benefit": 4381, "stimmung": 4382, "presented": 4383, "Berichterstatterin,": 4384, "ved": 4385, "alle": 4386, "erforder": 4387, "kehr": 4388, "school": 4389, "Premier": 4390, "atisf": 4391, "Nomin": 4392, "Tobin": 4393, "Ill": 4394, "Kritik": 4395, "-E": 4396, "ch": 4397, "Berichts": 4398, "einzeln": 4399, "ians": 4400, "effe": 4401, "Läden": 4402, "Tourism": 4403, "nationalen": 4404, "hen,": 4405, "Harmonisierungsbestreb": 4406, "events": 4407, "fie": 4408, "Vorstellung": 4409, "Kon": 4410, "studie": 4411, "110": 4412, "on-": 4413, "Chancen": 4414, "Alex": 4415, "Video": 4416, "m.": 4417, "iet": 4418, "wir,": 4419, "aufgrund": 4420, "difficulties": 4421, "einmal": 4422, "Wahlperiode": 4423, "&": 4424, "princ": 4425, "ov": 4426, "Außenseiter": 4427, "Stellung": 4428, "Vorschriften,": 4429, "ist": 4430, "jo": 4431, "Viktor": 4432, "offensicht": 4433, "Fern": 4434, "unktion": 4435, "ific": 4436, "entwickel": 4437, "fand": 4438, "gewiss": 4439, "besondere": 4440, "schlug": 4441, "examine": 4442, "vergessen,": 4443, "lieg": 4444, "pro": 4445, "hoff": 4446, "apply": 4447, "stra": 4448, "people,": 4449, "deshalb": 4450, "Konflikt": 4451, "our": 4452, "Arbeitspl": 4453, "gefähr": 4454, "gess": 4455, "consum": 4456, "latest": 4457, "wachstum": 4458, "ab.)": 4459, "1998/0106(COD)": 4460, "as,": 4461, "iktor": 4462, "Med": 4463, "ist,": 4464, "releas": 4465, "Blick": 4466, "missed": 4467, "ms": 4468, "Annahme": 4469, "fünf": 4470, "angenommenen": 4471, "amend": 4472, "ging": 4473, "Halbzeitbewert": 4474, "break": 4475, "als": 4476, "bereich": 4477, "ili": 4478, "cost": 4479, "difficult": 4480, "Ponnamb": 4481, "Me": 4482, "few": 4483, "network": 4484, "Regional": 4485, "%.": 4486, "ene": 4487, "gän": 4488, "while": 4489, "television": 4490, "ict": 4491, "intro": 4492, "erzielen": 4493, "teeth": 4494, "benach": 4495, "ess": 4496, "stitution": 4497, "from": 4498, "sind.": 4499, "wü": 4500, "kommt": 4501, "entfern": 4502, "business,": 4503, "oulev": 4504, "trave": 4505, "ize": 4506, "close": 4507, "has": 4508, "os": 4509, "ok": 4510, "Net": 4511, "gewalt": 4512, "ifiz": 4513, "USA": 4514, "in-": 4515, "5-": 4516, "jobs": 4517, "acted": 4518, "ernst": 4519, "politik": 4520, "0.": 4521, "+44": 4522, "Hilfs": 4523, "arily": 4524, "Contain": 4525, "Unterstützung": 4526, "cho": 4527, "Indik": 4528, "Verwalt": 4529, "We": 4530, "seem": 4531, "ieren.": 4532, "Mit": 4533, "row": 4534, "Simpson": 4535, "advertising": 4536, "Sam": 4537, "französ": 4538, "mals": 4539, "teils": 4540, "miss": 4541, "Guardiola": 4542, "Hungarian": 4543, "support": 4544, "Gon": 4545, "rural": 4546, "genann": 4547, "says": 4548, "seen": 4549, "Polize": 4550, "vi": 4551, "Ländern": 4552, "hän": 4553, "2016": 4554, "Unter": 4555, "points": 4556, "müssen,": 4557, "rise": 4558, "indic": 4559, "Anwendung": 4560, "remo": 4561, "ol": 4562, "El": 4563, "Beispiel": 4564, "unch": 4565, "Consequent": 4566, "Angelegenheit,": 4567, "ire,": 4568, "residential": 4569, "police": 4570, "geleis": 4571, "another": 4572, "lehn": 4573, "tel": 4574, "land.": 4575, "Quästor": 4576, "said,": 4577, "Qual": 4578, "Stil": 4579, "entail": 4580, "-term": 4581, "Ausbild": 4582, "Ihren": 4583, "activity": 4584, "Chaos": 4585, "422": 4586, "renew": 4587, "cur": 4588, "lex": 4589, "heiß": 4590, "Schroedter": 4591, "jeweil": 4592, "Planung": 4593, "avail": 4594, "Steuerzahl": 4595, "Musik": 4596, "lange": 4597, "aum": 4598, "politischen": 4599, "34": 4600, "triff": 4601, "Th": 4602, "safet": 4603, "Minuten": 4604, "erarbeitet": 4605, "Now,": 4606, "aus.": 4607, "Uns": 4608, "net": 4609, "peripheral": 4610, "believe": 4611, "Zukunft": 4612, "Fin": 4613, "europäischen": 4614, "Europa,": 4615, "Umfrage": 4616, "art": 4617, "Gü": 4618, "Netany": 4619, "Tour": 4620, "chairman": 4621, "Europe": 4622, "standards.": 4623, "tag": 4624, "gehend": 4625, "aufmerksam": 4626, "Bereiche": 4627, "woll": 4628, "natural": 4629, "minds": 4630, "Gericht": 4631, "body": 4632, "hour": 4633, "under": 4634, "vier": 4635, "concerned,": 4636, "ies.": 4637, "health": 4638, "ritten": 4639, "appl": 4640, "ze.": 4641, "inadequate": 4642, "schätz": 4643, "Abänderungsantrag": 4644, ").": 4645, "erwä": 4646, "Sitzung": 4647, "Australia": 4648, "quality": 4649, "econom": 4650, "steh": 4651, "cke": 4652, "a)": 4653, "vom": 4654, "hin": 4655, "adem": 4656, "ließ": 4657, "unterschiedlichen": 4658, "geruf": 4659, "Wähler": 4660, "recht": 4661, "Bem": 4662, "Beacht": 4663, "diss": 4664, "nächsten": 4665, "C5-0": 4666, "Crespo": 4667, "ang": 4668, "Verhalten": 4669, "prüft": 4670, "ever": 4671, "went": 4672, "failed": 4673, "transposed": 4674, "perip": 4675, "Wasser": 4676, "ile": 4677, "an.": 4678, "zogen": 4679, "korrig": 4680, "and": 4681, "Polic": 4682, "ise,": 4683, "lung": 4684, "Flor": 4685, "proceed": 4686, "Voraus": 4687, "Fra": 4688, "Can": 4689, "Wednesday": 4690, "vollen": 4691, "present": 4692, "wanderung": 4693, "it.": 4694, "Mod": 4695, "1.": 4696, "überzeugt,": 4697, "(A5-0105/": 4698, "ugnisse": 4699, "backing": 4700, "dukt": 4701, "zumal": 4702, "sprach": 4703, "breit": 4704, "Aspekt": 4705, "angenommen": 4706, "acro": 4707, "Reg": 4708, "Fon": 4709, "nör": 4710, "dead": 4711, "geworden,": 4712, "hingewies": 4713, "cohes": 4714, "holiday": 4715, "sugges": 4716, "weg": 4717, "Glück": 4718, "Nä": 4719, "Herr": 4720, "verpf": 4721, "wahrschein": 4722, "mach": 4723, "5.": 4724, "poll,": 4725, "amerikanischen": 4726, "been": 4727, "zustimm": 4728, "schließend": 4729, "Spit": 4730, "foot": 4731, "Freihandelsab": 4732, "den": 4733, "dern": 4734, "geben": 4735, "fert": 4736, "Obwohl": 4737, "(A5-0108/1999)": 4738, "mogul": 4739, "Streit": 4740, "tal": 4741, "großer": 4742, "ograph": 4743, "Sozialdemokratische": 4744, "tank": 4745, "think": 4746, "lon": 4747, "erst": 4748, "äden": 4749, "richtig": 4750, "umfang": 4751, "zug": 4752, "inakzepta": 4753, "neben": 4754, "very": 4755, "rapid": 4756, "zweite": 4757, "ame": 4758, "Gründe": 4759, "nonetheless": 4760, "tele": 4761, "err": 4762, "prote": 4763, "richtige": 4764, "citi": 4765, "95/35/E": 4766, "y": 4767, "(C5-0208/1999": 4768, "ij": 4769, "wollen": 4770, "Brief": 4771, "gilt.": 4772, "precise": 4773, "achieve": 4774, "powers": 4775, "committe": 4776, "Archä": 4777, "form": 4778, "approve": 4779, "cl": 4780, "J.": 4781, "bele": 4782, "Stev": 4783, "zero": 4784, "impose": 4785, "Stad": 4786, "raft": 4787, "lish": 4788, "Bericht": 4789, "ausges": 4790, "worked": 4791, "inakzep": 4792, "Berichterstat": 4793, "job": 4794, "nisse": 4795, "staaten": 4796, "basis": 4797, "aries": 4798, "damage": 4799, "Möglichkeit": 4800, "repar": 4801, "through": 4802, "fest": 4803, "akten": 4804, "Daher": 4805, "bede": 4806, "gä": 4807, "ilit": 4808, "hatten.": 4809, "900": 4810, "fragen": 4811, "kann.": 4812, "indicated": 4813, "bargo": 4814, "iven": 4815, "auffordern": 4816, "Burberry": 4817, "stum": 4818, "wün": 4819, "ran": 4820, "there": 4821, "1999": 4822, "isches": 4823, "zusätzliche": 4824, "Produkt": 4825, "conflict": 4826, "Städte": 4827, "effektiv": 4828, "garant": 4829, "TT": 4830, "igt,": 4831, "C5-0122": 4832, "?": 4833, "judge": 4834, "einzu": 4835, "Wider": 4836, "geograph": 4837, "Berichterstatterin": 4838, "employ": 4839, "newspa": 4840, "dann": 4841, "Schl": 4842, "training,": 4843, "speaking": 4844, "igt.": 4845, "00": 4846, "widmen": 4847, "Poet": 4848, "That": 4849, "eren": 4850, "Grenze": 4851, "Zusätz": 4852, "Wett": 4853, "fr": 4854, "gerecht": 4855, "keiner": 4856, "Mir": 4857, "igenden": 4858, "Her": 4859, "iz": 4860, "schwierigen": 4861, "nommen,": 4862, "merely": 4863, "Micha": 4864, "entschieden": 4865, "struct": 4866, "Batt": 4867, "Ent": 4868, "ys": 4869, "zwar": 4870, "part-": 4871, "nomm": 4872, "kommen,": 4873, "Verlängerung": 4874, "Natürlich": 4875, "ne,": 4876, "jur": 4877, "nicht": 4878, "schrift": 4879, "es.": 4880, "Ablehn": 4881, "sein.": 4882, ";": 4883, "back": 4884, "ired": 4885, "amerikan": 4886, "Bef": 4887, "Orb": 4888, "Für": 4889, "Arbeiten": 4890, "board": 4891, "gem": 4892, "gleiche": 4893, "ction": 4894, "än": 4895, "erungen": 4896, "urb": 4897, "unterstützen.": 4898, "integr": 4899, "Jugend": 4900, "s,": 4901, "how": 4902, "nis": 4903, "glich": 4904, "respect": 4905, "Mal": 4906, "nature": 4907, "ke,": 4908, "Verpack": 4909, "Commissioner": 4910, "came": 4911, "Labour-": 4912, "end.": 4913, "aupt": 4914, "ht.": 4915, "isp": 4916, "ir": 4917, "Fünftel": 4918, "bes": 4919, "iti": 4920, "wirklich": 4921, "wan": 4922, "Gesell": 4923, "leben": 4924, "igen": 4925, "äß": 4926, "Vertrau": 4927, "haus": 4928, "Objective": 4929, "Herren,": 4930, "cht,": 4931, "begeistert": 4932, "behalf": 4933, "January": 4934, "main": 4935, "Bedeut": 4936, "education": 4937, "ogen": 4938, "Vereinigten": 4939, "wander": 4940, "Guardiol": 4941, "ipfel": 4942, "CEN": 4943, "long-term": 4944, "ert.": 4945, "percent.": 4946, "Versäum": 4947, "ta": 4948, "too": 4949, "ätze": 4950, "safety.": 4951, "Bernie": 4952, "are,": 4953, "änder": 4954, "gruppe": 4955, "erneu": 4956, "sitting": 4957, "Healy": 4958, "neue": 4959, "ungsbereich": 4960, "aware": 4961, "Peg": 4962, "propose": 4963, "atisfied": 4964, "Tex": 4965, "Einkomm": 4966, "grund": 4967, "stimme": 4968, "L": 4969, "Büro": 4970, "Job": 4971, "Lyn": 4972, "wach": 4973, "Anfragen": 4974, "Sp": 4975, "keinen": 4976, "ieß": 4977, "team": 4978, "allow": 4979, "volle": 4980, "Rates": 4981, "vern": 4982, "utions": 4983, "construct": 4984, "Jahres": 4985, "un": 4986, "zurück": 4987, "fa": 4988, "Fragen": 4989, "serious": 4990, "gr": 4991, "everything": 4992, "dramat": 4993, "Einkommensquellen": 4994, "ising": 4995, "sagte": 4996, "2000-200": 4997, "matik": 4998, "darauf": 4999, "brauch": 5000, "dire": 5001, "estim": 5002, "Tauern": 5003, "referred": 5004, "Personen": 5005, "sagt,": 5006, "requested": 5007, "i.": 5008, "geschic": 5009, "spol": 5010, "[C": 5011, "Zusammenhalts": 5012, "Directive": 5013, "beträcht": 5014, "one": 5015, "Bush": 5016, "lossen": 5017, "stärker": 5018, "sens": 5019, "stellen,": 5020, "Leitlin": 5021, "beits": 5022, "ans,": 5023, "gan": 5024, "Metcash": 5025, "sten": 5026, "Situation": 5027, "ungs-": 5028, "halten,": 5029, "überh": 5030, "Hänsch,": 5031, "März": 5032, "bedingungen": 5033, "reference": 5034, "Thanasi": 5035, "useum": 5036, "muß.": 5037, "wholesaler": 5038, "sim": 5039, "York": 5040, "Natur": 5041, "Rhine": 5042, "gemacht": 5043, "tun.": 5044, "hinaus": 5045, "App": 5046, "Weltme": 5047, "soc": 5048, "geschal": 5049, "sech": 5050, "neh": 5051, "accidents": 5052, "genuine": 5053, "mean": 5054, "introducing": 5055, "thanks": 5056, "requirement": 5057, "vic": 5058, "conf": 5059, "H": 5060, "wenig": 5061, "1": 5062, "Committee": 5063, "chair": 5064, "deliver": 5065, "Großbrit": 5066, "lang": 5067, "country.": 5068, "fire": 5069, "R": 5070, "behaviour": 5071, "sprogram": 5072, "strukturschwachen": 5073, "PPE-": 5074, "competition": 5075, "genü": 5076, "v": 5077, "legal": 5078, "projects": 5079, "ducing": 5080, "orte": 5081, "asi": 5082, "Finally,": 5083, "ur": 5084, "Koh": 5085, "leis": 5086, "spl": 5087, "Vertreter": 5088, "cases": 5089, "finanziel": 5090, "Gefahrguttranspor": 5091, "j": 5092, "operate": 5093, "ity,": 5094, "alen": 5095, "Heimat": 5096, "zeitr": 5097, "Pr": 5098, "ill,": 5099, "am": 5100, "invol": 5101, "Anspruch": 5102, "neu": 5103, "Öffentlich": 5104, "ites": 5105, "lower": 5106, "ustration": 5107, "BBC": 5108, "ales": 5109, "velopment": 5110, "sa": 5111, "abschließend": 5112, "flip": 5113, "Te": 5114, "Halt": 5115, "News": 5116, "wel": 5117, "diesen": 5118, "Unterneh": 5119, "trit": 5120, "old": 5121, "am,": 5122, "außerordentlich": 5123, "Steuerzahler": 5124, "ause": 5125, "wirt": 5126, "ives": 5127, "ktr": 5128, "us": 5129, "Gese": 5130, "She": 5131, "Johnson": 5132, "water": 5133, "smaller": 5134, "mess": 5135, "himself": 5136, "Einklang": 5137, "press": 5138, "anne": 5139, "Betracht": 5140, "read": 5141, "iel": 5142, "Zeitpunkt": 5143, "referen": 5144, "iminal": 5145, "period": 5146, "At": 5147, "hatten": 5148, "Why": 5149, "C5-0122/1999": 5150, "zumindest": 5151, "auszu": 5152, "Madam": 5153, "changes": 5154, "polit": 5155, "Verbesserung": 5156, "addres": 5157, "Fleisch": 5158, "istic": 5159, "students": 5160, "Wer": 5161, "aterial": 5162, "sieht": 5163, "gerungen": 5164, "n,": 5165, "ch-": 5166, "Halbzeitbewertung": 5167, "Erschließung": 5168, "then,": 5169, "ted": 5170, "-K": 5171, "spez": 5172, "Kommun": 5173, "Ant": 5174, "transit": 5175, "regulations": 5176, "comp": 5177, "communication": 5178, "Anregungen": 5179, "teil": 5180, "Einbeziehung": 5181, "sinn": 5182, "Finanz": 5183, "ts.": 5184, "Erscheinung": 5185, "$": 5186, "Anreg": 5187, "teten": 5188, "unknow": 5189, "verknü": 5190, "anges": 5191, "incl": 5192, "ktron": 5193, "beant": 5194, "berücksichtigt,": 5195, "gewün": 5196, "C,": 5197, "en.": 5198, "Ev": 5199, "agree": 5200, "wobei": 5201, "third": 5202, "char": 5203, "ts": 5204, "Bevor": 5205, "Donald": 5206, "lie": 5207, "wenn": 5208, "terms": 5209, "Since": 5210, "spir": 5211, "according": 5212, "if": 5213, "problem": 5214, "Oly": 5215, "war": 5216, "votes.": 5217, "96/35/E": 5218, "iff": 5219, "High-Te": 5220, "Republican": 5221, "Risiko,": 5222, "Malmströ": 5223, "quarter": 5224, "pat": 5225, "behind": 5226, "veröffentlichen,": 5227, "Cha": 5228, "ziehen,": 5229, "Wähler,": 5230, "Brussels": 5231, "ativen": 5232, "kann,": 5233, "iled": 5234, "Western": 5235, "principle,": 5236, "them.": 5237, "stor": 5238, "erheb": 5239, "det": 5240, "death": 5241, "standards": 5242, "Beschäftigung": 5243, "performan": 5244, "Richtlinie": 5245, "einen": 5246, "thus": 5247, "äf": 5248, "1999/2127": 5249, "oren": 5250, "concerned": 5251, "perfe": 5252, "prov": 5253, "af": 5254, "Olympiakos": 5255, "quickly": 5256, "making": 5257, "object": 5258, "five-year": 5259, "bemü": 5260, "fel": 5261, "strategischen": 5262, "aten": 5263, "Regionalpolitik": 5264, "others": 5265, "tra": 5266, "Verfahren": 5267, "morgen": 5268, "führ": 5269, "ün": 5270, "Bür": 5271, "Min": 5272, "kostet": 5273, "Ploo": 5274, "reten": 5275, "plen": 5276, "200": 5277, "Angaben": 5278, "ween": 5279, "lä": 5280, "ges": 5281, "recent": 5282, "ensures": 5283, "loc": 5284, "deli": 5285, "Ausgangspunkt": 5286, "ber": 5287, "ways": 5288, "retailers": 5289, "versuch": 5290, "erziel": 5291, "including": 5292, "sure": 5293, "ittle": 5294, "30": 5295, "equal": 5296, "fort": 5297, "Ein": 5298, "Zie": 5299, "EU": 5300, "hohen": 5301, "heraus": 5302, "hal": 5303, "placed": 5304, "Last": 5305, "schwier": 5306, "Erneuerung": 5307, "Schlußfol": 5308, "party": 5309, "ver": 5310, "pekt": 5311, "Jahrhundert": 5312, "observed": 5313, "Hague,": 5314, "More": 5315, "Serbia": 5316, "comple": 5317, "improved": 5318, "wirkungen": 5319, "beneficial": 5320, "acts": 5321, "Plooij-v": 5322, "Übereinstimmung": 5323, "Nicht": 5324, "Kopf-": 5325, "Vorschrif": 5326, "erklärt": 5327, "hält": 5328, "izens": 5329, "(Parliament": 5330, "Schwierigkeiten": 5331, "flexibility": 5332, "zu,": 5333, "Abänderungs": 5334, "Flautre": 5335, "beit": 5336, "nat": 5337, "formul": 5338, "business": 5339, "transp": 5340, "mere": 5341, "-year": 5342, "für": 5343, "Det": 5344, "Proble": 5345, "bereit,": 5346, "enen": 5347, "s.": 5348, "Mindestnormen.": 5349, "Herren": 5350, "meant": 5351, "Pira": 5352, "gesehen.": 5353, "provided": 5354, "einer": 5355, "abzu": 5356, "befinden,": 5357, "ations.": 5358, "Begeisterung": 5359, "transparency": 5360, "treten": 5361, "ahe": 5362, "gende": 5363, "benefic": 5364, "its": 5365, "Bieber": 5366, "Hil": 5367, "usual": 5368, "säum": 5369, "Cres": 5370, "available": 5371, "Inkrafttreten": 5372, "Verzögerungen": 5373, "DR": 5374, "46": 5375, "Rubio": 5376, "d": 5377, "subsidiar": 5378, "dreadful": 5379, "auch": 5380, "Hinter": 5381, "3.": 5382, "glaube,": 5383, "1994": 5384, "ditions": 5385, "mel": 5386, "Kriterien": 5387, "ght": 5388, "6": 5389, "Pfl": 5390, "entsprechen": 5391, "ner": 5392, "ache": 5393, "March": 5394, "ance,": 5395, "innen": 5396, "Ab": 5397, "polic": 5398, "initial": 5399, "-40": 5400, "Hund": 5401, "Trump.": 5402, "vention": 5403, "ule": 5404, "near": 5405, "Kapitalste": 5406, "keine": 5407, "Su": 5408, "Sechs": 5409, "ub": 5410, "Nikitin": 5411, "orr": 5412, "muß,": 5413, "ly.": 5414, "Policy": 5415, "ure,": 5416, "ing,": 5417, "erzählte": 5418, "deutlich": 5419, "ment,": 5420, "leist": 5421, "Po": 5422, "SABMill": 5423, "Ergebnisse": 5424, "gelingt,": 5425, "plat": 5426, "häng": 5427, "ing.": 5428, "permanent": 5429, "rund": 5430, "Yor": 5431, "falt": 5432, "gesch": 5433, "Spiel": 5434, "während": 5435, "hinzu": 5436, "obvious": 5437, "north": 5438, "verfahr": 5439, "wahrscheinlich": 5440, "erarbeit": 5441, "Amy": 5442, "Regeln": 5443, "heute": 5444, "spezif": 5445, "on": 5446, "äft": 5447, "sustainable": 5448, "isse": 5449, "letz": 5450, "Us": 5451, "ahr": 5452, "bure": 5453, "Freihandel": 5454, "To": 5455, "channels": 5456, "ibly": 5457, "schlag": 5458, "52": 5459, "market": 5460, "unfortunately": 5461, "not": 5462, "Kohäsions": 5463, "maximum": 5464, "bestimm": 5465, "ansit": 5466, "/": 5467, "ändern,": 5468, "David": 5469, "zie": 5470, "Überein": 5471, "areas.": 5472, "st": 5473, "ly,": 5474, "quar": 5475, "do,": 5476, "BC": 5477, "Landwirtschaft": 5478, "Mississ": 5479, "t,": 5480, "Termin": 5481, "mainly": 5482, "gt": 5483, "people.": 5484, "September,": 5485, "allgemeinen": 5486, "lea": 5487, "nicht.": 5488, "Gy": 5489, "allel": 5490, "rac": 5491, "1999/2127(COS)": 5492, "starting": 5493, "ody": 5494, "ical": 5495, "erwähn": 5496, "arische": 5497, "Fil": 5498, "olog": 5499, "stud": 5500, "ben,": 5501, "wand": 5502, "requirements.": 5503, "Von": 5504, "same": 5505, "About": 5506, "OSteen": 5507, "Comm": 5508, "Tra": 5509, "geehrte": 5510, "remember": 5511, "halt": 5512, "order": 5513, "wahrscheinlich,": 5514, "necessary": 5515, "Quad": 5516, "chte": 5517, "gesche": 5518, "Lewandowski": 5519, "verl": 5520, "Morgan": 5521, "useful": 5522, "mäß": 5523, "spe": 5524, "M": 5525, "posit": 5526, "Princess": 5527, "were": 5528, "Quadratmeter": 5529, "particul": 5530, "800": 5531, "ausmacht.": 5532, "ise": 5533, "Stache": 5534, "Fle": 5535, "Zeitraum,": 5536, "hauptsächlich": 5537, "even": 5538, "improve": 5539, "Margarine": 5540, "congratulate": 5541, "llig": 5542, "Revision": 5543, "indest": 5544, "ähl": 5545, "Zur": 5546, "erkannt.": 5547, "allein": 5548, "address": 5549, "lech": 5550, "guarante": 5551, "bedeutet": 5552, "Kap": 5553, "hungen": 5554, "ton": 5555, "Fiorina": 5556, "vorbereit": 5557, "response": 5558, "ions": 5559, "Ges": 5560, "sta": 5561, "drive": 5562, "Binnenmarkt": 5563, "buil": 5564, "due": 5565, "hätte": 5566, "gern": 5567, "modest": 5568, "legisl": 5569, "Schwerpunkt": 5570, "fließen": 5571, "Behör": 5572, "Beding": 5573, "rä": 5574, "seeking": 5575, "mid-": 5576, "struktur": 5577, "Damen": 5578, "Regel": 5579, "Premierministers": 5580, "standen": 5581, "pect": 5582, "Suf": 5583, "deadlin": 5584, "ries": 5585, "Etwa": 5586, "repe": 5587, "sozial": 5588, "ünf": 5589, "e,": 5590, "diesem": 5591, "erfolg": 5592, "never": 5593, "Ausspra": 5594, "wirtschaftliche": 5595, "each": 5596, "Tor": 5597, "verfahren": 5598, "acce": 5599, "their": 5600, "Strukturfondsprogramm": 5601, "gänge": 5602, "UK": 5603, "2000-2006": 5604, "Initiative": 5605, "setzung": 5606, "(A5-0108/": 5607, "344": 5608, "verschieden": 5609, "4.": 5610, "Im": 5611, "nördlichen": 5612, "advert": 5613, "Nie": 5614, "Straß": 5615, "Associated": 5616, "Michig": 5617, "abgesetzt": 5618, "abhäng": 5619, "presentation": 5620, "Bay": 5621, "beha": 5622, "Pro": 5623, "me": 5624, "Presidents,": 5625, "ules": 5626, "aktuel": 5627, "enten": 5628, "übernommen,": 5629, "Was": 5630, "taining": 5631, "Projekte": 5632, "Gener": 5633, "rechtzeitig": 5634, "fs": 5635, "wären,": 5636, "wäre,": 5637, "reasonable": 5638, "versit": 5639, "ves": 5640, "einig,": 5641, "ont": 5642, "Sep": 5643, "longer": 5644, "angesichts": 5645, "Berichten": 5646, "Neu": 5647, "re": 5648, "session": 5649, "wor": 5650, "entliche": 5651, "ahn": 5652, "adj": 5653, "deren": 5654, "sequences": 5655, "Members": 5656, "hab": 5657, "schr": 5658, "week": 5659, "Taus": 5660, "demographic": 5661, "G": 5662, "guid": 5663, "lediglich": 5664, "environmental": 5665, "Schmidt,": 5666, "Ewa": 5667, "air": 5668, "Please": 5669, "47": 5670, "repub": 5671, "well-": 5672, "agricultural": 5673, "Teil": 5674, "rel": 5675, "funktion": 5676, "Social": 5677, "ampagne": 5678, "Regierung": 5679, "remind": 5680, "Champions": 5681, "gerne": 5682, "entwi": 5683, "Haupt": 5684, "though": 5685, "Ere": 5686, "vielen": 5687, "-M": 5688, "klimat": 5689, "Inde": 5690, "achie": 5691, "äm": 5692, "depth": 5693, "ugen": 5694, "diversit": 5695, "ated": 5696, "Schließ": 5697, "a.": 5698, "ment.": 5699, "will,": 5700, "regard": 5701, "allem": 5702, "Bo": 5703, "wom": 5704, "Furthermore,": 5705, "problems.": 5706, "Überwindung": 5707, "stö": 5708, "takes": 5709, "give": 5710, "gratulieren,": 5711, "wee": 5712, "Vize": 5713, "gut,": 5714, "Harmonisierungsbest": 5715, "edu": 5716, "ually.": 5717, "come": 5718, "ierungs": 5719, "toge": 5720, "ht,": 5721, "Prent": 5722, "genannten": 5723, "elsewhere": 5724, "Zahn": 5725, "product": 5726, "Wachstum": 5727, "suff": 5728, "gesp": 5729, "hil": 5730, "newspaper": 5731, "verfol": 5732, "priorit": 5733, "durchgeführt": 5734, "2000": 5735, "eigenen": 5736, "ko": 5737, "Information": 5738, "Inkraft": 5739, "consist": 5740, "schein": 5741, "EU-Kommission": 5742, "tr": 5743, "any": 5744, "org": 5745, "fallen": 5746, "gegenwärt": 5747, "leb": 5748, "ad": 5749, "beauf": 5750, "unsch": 5751, "Wachstums": 5752, "kritis": 5753, "in.": 5754, "lar": 5755, "Swe": 5756, "icul": 5757, "known": 5758, "commend": 5759, "onder": 5760, "emergen": 5761, "encore": 5762, "DIf": 5763, "certificates": 5764, "Ö": 5765, "hof": 5766, "day": 5767, "Hamburg": 5768, "genu": 5769, "far": 5770, "ets": 5771, "verteid": 5772, "frei": 5773, "worden,": 5774, "Carly": 5775, "Beg": 5776, "Made": 5777, "word": 5778, "ists": 5779, "ich": 5780, "Secretary": 5781, "94/55/EG": 5782, "reje": 5783, "xt": 5784, "register": 5785, "sho": 5786, "ah": 5787, "ce.": 5788, "Douglass": 5789, "Labour-Vorsitzen": 5790, "viel": 5791, "administrative": 5792, "aw": 5793, "Thirdly,": 5794, "train": 5795, "extremely": 5796, "pleas": 5797, "lü": 5798, "sprogramme": 5799, "dlich": 5800, "enor": 5801, "all,": 5802, "halten.": 5803, "document": 5804, "lichen,": 5805, "campus": 5806, "prere": 5807, "werden,": 5808, "iertes": 5809, "compan": 5810, "cit": 5811, "Wulf-Math": 5812, "Wo": 5813, "Freunde": 5814, "time": 5815, "atte": 5816, "Deutschland,": 5817, "Nutz": 5818, "els": 5819, "ret": 5820, "lichkeit": 5821, "lack": 5822, "spruch": 5823, "Fragest": 5824, "gibt.": 5825, "zählt": 5826, "att": 5827, "monop": 5828, "aus": 5829, "benef": 5830, "Gree": 5831, "weitreichen": 5832, "Behörden": 5833, "aeolog": 5834, "poll": 5835, "Sander": 5836, "bitte": 5837, "irat": 5838, "oulevard": 5839, "akzeptiere": 5840, "spot": 5841, "Ste": 5842, "ahl": 5843, "zt.": 5844, "tent": 5845, "tanks,": 5846, "Langzeitstudie": 5847, "double": 5848, "objectiv": 5849, "ehrte": 5850, "Vorbe": 5851, "nam": 5852, "ates": 5853, "wünsche": 5854, "said.": 5855, "respons": 5856, "runn": 5857, "Vereinbar": 5858, "lokalen": 5859, "ended": 5860, "accepted": 5861, "einem": 5862, "hypo": 5863, "fü": 5864, "so.": 5865, "olle": 5866, "Pl": 5867, "ste": 5868, "increas": 5869, "kosten": 5870, "Lappl": 5871, "gering": 5872, "Götze": 5873, "finn": 5874, "expl": 5875, "asis": 5876, "K": 5877, "unge": 5878, "uropä": 5879, "wissen,": 5880, "together.": 5881, "Sta": 5882, "Embargo": 5883, "1999/2127(CO": 5884, "safety": 5885, "somit": 5886, "schaffen,": 5887, "ierten": 5888, "war.": 5889, "adv": 5890, "iding": 5891, "suffici": 5892, "mü": 5893, "Schluß": 5894, "kind.": 5895, "96/": 5896, "entsprechende": 5897, "ward": 5898, "rema": 5899, "post": 5900, "fast": 5901, "Potsdamer": 5902, "ment": 5903, "fund": 5904, "Dabei": 5905, "welcom": 5906, "ßer": 5907, "äng": 5908, "Katastrophen": 5909, "rather": 5910, "bezü": 5911, "Dec": 5912, "Em": 5913, "aly": 5914, "glück": 5915, "basically": 5916, "CNN/": 5917, "wn": 5918, "TTI": 5919, "auch,": 5920, "5-0": 5921, "issue": 5922, "material": 5923, "home": 5924, "ordin": 5925, "Container": 5926, "transportiert": 5927, "Berücksichtigung": 5928, "Euro": 5929, "poten": 5930, "legen": 5931, "Berücksichtig": 5932, "Abschließend": 5933, "Poetter": 5934, "ate": 5935, "li": 5936, "ian": 5937, "bombast": 5938, "abour": 5939, "ways,": 5940, "brief": 5941, "Eine": 5942, "takt": 5943, "tz": 5944, "dafür": 5945, "twice": 5946, "opin": 5947, "gefallen,": 5948, "geordneten": 5949, "eingebrachten": 5950, "mention": 5951, "doing": 5952, "Leitlinien": 5953, "position,": 5954, "erschien": 5955, "hinter": 5956, "process": 5957, "notwen": 5958, "edn": 5959, "fe,": 5960, "centr": 5961, "iate": 5962, "cover": 5963, "wesentlich": 5964, "Geset": 5965, "Hauptgründe": 5966, "ichtigkeit": 5967, "te": 5968, "reag": 5969, "thous": 5970, "bour": 5971, "electron": 5972, "dür": 5973, "Republikan": 5974, "ley": 5975, "veröff": 5976, "stringent": 5977, "den.": 5978, "Kir": 5979, "Dar": 5980, "infra": 5981, "hund": 5982, "ig,": 5983, "ished": 5984, "organ": 5985, "dangerous": 5986, "ation.": 5987, "south": 5988, "Super": 5989, "Gewinn": 5990, "landesweit": 5991, "teile": 5992, "Hill": 5993, "issen": 5994, "notwendige": 5995, "tained": 5996, "iber": 5997, "offer": 5998, "burg": 5999, "relativen": 6000, "ider": 6001, "cut": 6002, "challenges": 6003, "brit": 6004, "relev": 6005, "wür": 6006, "request": 6007, "rid": 6008, "kompliz": 6009, "Außen": 6010, "war,": 6011, "Prinz": 6012, "geben,": 6013, "match": 6014, "steht": 6015, "wart": 6016, "ion.": 6017, "anchen": 6018, "aren": 6019, "ionen": 6020, "Wales,": 6021, "ziem": 6022, "Bei": 6023, "aktuelle": 6024, "rapporteur": 6025, "Zustimmung": 6026, "ici": 6027, "br": 6028, "fac": 6029, "scheint": 6030, "Mondays": 6031, "drück": 6032, "verb": 6033, "var": 6034, "campaign": 6035, "mat": 6036, "dach": 6037, "Absicht": 6038, "gewesen": 6039, "future": 6040, "anthem": 6041, "Vertrauen": 6042, "find": 6043, "Wawrink": 6044, "c)": 6045, "Gest": 6046, "efforts": 6047, "fellow": 6048, "age": 6049, "week,": 6050, "ateg": 6051, "continu": 6052, "Straße": 6053, "ige": 6054, "rom": 6055, "Vorsitzende": 6056, "Bundespolizei": 6057, "Harmonisierung": 6058, "guidelines.": 6059, "ard": 6060, "zeichneten": 6061, "beispielsweise": 6062, "mar": 6063, "Vorstellung,": 6064, "ned": 6065, "Beziehungen": 6066, "Unterstützer": 6067, "guitar": 6068, "Deut": 6069, "Verkehr": 6070, "aufgenommen,": 6071, "Hinb": 6072, "legung": 6073, "Wulf-Ma": 6074, "liament": 6075, "milit": 6076, "-,": 6077, "environ": 6078, "Finan": 6079, "je": 6080, "Freu": 6081, ",": 6082, "Za": 6083, "May": 6084, "iss": 6085, "ated,": 6086, "Fremden": 6087, "favor": 6088, "usin": 6089, "belie": 6090, "ac": 6091, "zial": 6092, "ien.": 6093, "münd": 6094, "Naturkatastrop": 6095, "Norm": 6096, "programme": 6097, "Obama": 6098, "ru": 6099, "Indon": 6100, "ausgesprochen": 6101, "proposal,": 6102, "Inform": 6103, "nomin": 6104, ",000": 6105, "Aufmerksamkeit": 6106, "betonen,": 6107, "ganzen": 6108, "meinen": 6109, "eigentliche": 6110, "verurteil": 6111, "respondent": 6112, "passes": 6113, "lauf": 6114, "mill": 6115, "Ari": 6116, "DIfE": 6117, "einfach": 6118, "zent": 6119, "ium-": 6120, "age.": 6121, "ither": 6122, "Parliaments": 6123, "ato": 6124, "Instrument": 6125, "si": 6126, "niemals": 6127, "ural": 6128, "max": 6129, "gle": 6130, "Ju": 6131, "Re": 6132, "dürfen": 6133, "raised": 6134, "off": 6135, "lat": 6136, "Risiko": 6137, "ugh": 6138, "cr": 6139, "Swoboda": 6140, "über": 6141, "se.": 6142, "ested": 6143, "well": 6144, "circum": 6145, "Wes": 6146, "des": 6147, "ctor": 6148, "Des": 6149, "igrants": 6150, "(A5-0104/1999)": 6151, "Frist": 6152, "key": 6153, "uer": 6154, "expand": 6155, "Einzel": 6156, "Staaten,": 6157, "centur": 6158, "Verantwortung": 6159, "Entwick": 6160, "stellen": 6161, "diskutieren.": 6162, "propo": 6163, "gewünsch": 6164, "CNN/O": 6165, "perman": 6166, "kraft": 6167, "Hungary": 6168, "environment": 6169, "positions": 6170, "Vatanen": 6171, "improv": 6172, "Zusch": 6173, "Dieser": 6174, "success": 6175, "author": 6176, "iving": 6177, "dige": 6178, "einzel": 6179, "müssen.": 6180, "komm": 6181, "(5": 6182, "around": 6183, "markt": 6184, "fortun": 6185, "Matthias": 6186, "Gel": 6187, "wirte": 6188, "ispiel": 6189, "fore,": 6190, "ied": 6191, "kle": 6192, "St": 6193, "leisten": 6194, "facul": 6195, "ent,": 6196, "erör": 6197, "Republicans": 6198, "Harmonisierungsbestrebungen": 6199, "Projek": 6200, "itself": 6201, "enk": 6202, "Steuer": 6203, "anmerk": 6204, "ihr": 6205, "Polizei": 6206, "EU-Staaten": 6207, "TUC": 6208, "Beam": 6209, "unfortunate": 6210, "keit": 6211, "f": 6212, "Anges": 6213, "track": 6214, "earn": 6215, "newsp": 6216, "Weihnachts": 6217, "ächst": 6218, "upset": 6219, "gewonn": 6220, "Am": 6221, "entire": 6222, "involvement": 6223, "terrible": 6224, "La": 6225, "ink": 6226, "Richem": 6227, "äd": 6228, "Entweder": 6229, "dings": 6230, "IG": 6231, "Herrn": 6232, "influ": 6233, "locked": 6234, "opening": 6235, "gesamte": 6236, "Redu": 6237, "here": 6238, "erhöh": 6239, "cord": 6240, "app": 6241, "@bbc": 6242, "ventionen": 6243, "These": 6244, "ober": 6245, "Einwanderung": 6246, "ual": 6247, "again.": 6248, "correctly": 6249, "sust": 6250, "versuchen": 6251, "president,": 6252, "fortunate": 6253, "schon": 6254, "pay": 6255, "Alexander": 6256, "kollegen": 6257, "better": 6258, "writ": 6259, "reit": 6260, "statement": 6261, "Kokkinakis": 6262, "Phas": 6263, "ergänzen": 6264, "das,": 6265, "exec": 6266, "conclu": 6267, "Proje": 6268, "cause": 6269, "McCar": 6270, "President": 6271, "seinen": 6272, "Monaten": 6273, "Fiorin": 6274, "Stär": 6275, "überhaupt": 6276, "Angelegenheiten": 6277, "Part": 6278, "enthusiastic": 6279, "-Fraktion": 6280, "ph": 6281, "relative": 6282, "igte": 6283, "ums": 6284, "osteuropä": 6285, "who": 6286, "Handels": 6287, "sse": 6288, "Mrs": 6289, "fully": 6290, "emp": 6291, "warten": 6292, "liegt": 6293, "umfangreiche": 6294, "sem": 6295, "cohesion.": 6296, "frist": 6297, "chen": 6298, "verärger": 6299, "Einbezie": 6300, "Austral": 6301, "Punkten": 6302, "Tr": 6303, "bung": 6304, "little": 6305, "Wohn": 6306, "briefly": 6307, "av": 6308, "öffentlichen": 6309, "l": 6310, "bal": 6311, "ISO": 6312, "München": 6313, "wirtschaft": 6314, "bra": 6315, "weniger": 6316, "grateful": 6317, "explanation": 6318, "about": 6319, "Dank": 6320, "enforcement": 6321, "(KOM(1999)": 6322, "Als": 6323, "resol": 6324, "reduction": 6325, "recall,": 6326, "mitglied": 6327, "Komitologie": 6328, "rem": 6329, "sm": 6330, "ABC/Post": 6331, "schaft,": 6332, "-St": 6333, "ständig": 6334, "exped": 6335, "ol,": 6336, "wahr": 6337, "besch": 6338, "zeitig": 6339, "the": 6340, "CNN/OR": 6341, "Aussch": 6342, "lei": 6343, "bere": 6344, "pend": 6345, "particip": 6346, "Möglichkeit,": 6347, "behavi": 6348, "bureauc": 6349, "Viel": 6350, "selves": 6351, "UN": 6352, "Nichtrauch": 6353, "Mich": 6354, "dienen": 6355, "wä": 6356, "Abwanderung": 6357, "dar.": 6358, "Sorgfalt": 6359, "ziele": 6360, "Sozial": 6361, "anno": 6362, "Tank": 6363, "führen": 6364, "Firstly,": 6365, "hr": 6366, "but": 6367, "h": 6368, "meat": 6369, "schlägt": 6370, "bro": 6371, "Sache": 6372, "wants": 6373, "kost": 6374, "lick": 6375, "forderten": 6376, "call": 6377, "enfor": 6378, "initi": 6379, "Pfund": 6380, "Sie": 6381, "setz": 6382, "Socialists": 6383, "Güter": 6384, "meine": 6385, "direction": 6386, "circ": 6387, "erneut": 6388, "abil": 6389, "in,": 6390, "can": 6391, "Grunde": 6392, "län": 6393, "levels": 6394, "Cox,": 6395, "militär": 6396, "Arbeit": 6397, "expected": 6398, "enth": 6399, "zurück.": 6400, "Dienste": 6401, "ief": 6402, "erhöhte": 6403, "training": 6404, "It": 6405, "particular": 6406, "accord": 6407, "dio": 6408, "it,": 6409, "complete": 6410, "zeich": 6411, "requests": 6412, "selv": 6413, "outh": 6414, "abzusetzen.": 6415, "urch": 6416, "Schließlich": 6417, "Sektor,": 6418, "soziale": 6419, "früheren": 6420, "y-": 6421, "satz": 6422, "won": 6423, "Gelegenheit": 6424, "glauben": 6425, "vorzulegen,": 6426, "Wie": 6427, "Prozeß": 6428, "Jahre": 6429, "former": 6430, "makes": 6431, "geraten,": 6432, "ul": 6433, "Bekämp": 6434, "solution.": 6435, "Bahn": 6436, "responsible": 6437, "com": 6438, "entsprechenden": 6439, "Jan": 6440, "leader": 6441, "zunehm": 6442, "Strukturpolitiken": 6443, "Zimer": 6444, "auf,": 6445, "ab,": 6446, "Präsident!": 6447, "ampf": 6448, "Wor": 6449, "Kollegin": 6450, "roads": 6451, "fail": 6452, "Party": 6453, "gemäß": 6454, "Richtung": 6455, "War": 6456, "rasch": 6457, "Angleichung": 6458, "meine,": 6459, "BBC-": 6460, "chsel": 6461, "Eastern": 6462, "energy": 6463, "Orban,": 6464, "urging": 6465, "1998/": 6466, "unseren": 6467, "ire": 6468, "glichen": 6469, "dadurch": 6470, "administr": 6471, "Archaeolog": 6472, "PPE": 6473, "common": 6474, "concerned.": 6475, "Teilen": 6476, "countries.": 6477, "Ereignisse": 6478, "str": 6479, "setzen,": 6480, "korr": 6481, "discuss": 6482, "gesagt,": 6483, "Angesichts": 6484, "1989": 6485, "sagen.": 6486, "(A": 6487, "indicator": 6488, "cannot": 6489, "Übergang": 6490, "one,": 6491, "wirtschafts": 6492, "bzw": 6493, "Mün": 6494, "gener": 6495, "jün": 6496, "und": 6497, "ring": 6498, "ziemlich": 6499, "drag": 6500, "12.00": 6501, "Bieber-": 6502, "differen": 6503, "zwischen": 6504, "kers": 6505, "bring": 6506, "bis": 6507, "shot": 6508, "m": 6509, "enthusi": 6510, "umfassenden": 6511, "deck": 6512, "Der": 6513, "class": 6514, "Gebiete": 6515, "angem": 6516, "imat": 6517, "Moment": 6518, "verbess": 6519, "Kommissar,": 6520, "erlaubt": 6521, "project": 6522, "Str": 6523, "year,": 6524, "DE": 6525, "führende": 6526, "Jo": 6527, "verstär": 6528, "company": 6529, "lives": 6530, "Wettbewerbs": 6531, "finanz": 6532, "plays": 6533, "bauen": 6534, "ke": 6535, "go": 6536, "sag": 6537, "Tatsach": 6538, "magn": 6539, "jobs.": 6540, "top": 6541, "kt,": 6542, "init": 6543, "Anhänge": 6544, "ende": 6545, "friend": 6546, "Sach": 6547, "ittee": 6548, "beschre": 6549, "made": 6550, "Königreich": 6551, "Zweit": 6552, "igten": 6553, "add": 6554, "spä": 6555, "Gemeinschaft": 6556, "Auff": 6557, "strö": 6558, "Erreichen": 6559, "taking": 6560, "whole": 6561, "tens": 6562, "ung,": 6563, "Hand": 6564, "ätzen,": 6565, "Erschein": 6566, "größ": 6567, "Palacio,": 6568, "Herausforder": 6569, "responsibil": 6570, "food": 6571, "Greenville,": 6572, "verlieren": 6573, "communic": 6574, "Commission.": 6575, "das": 6576, "opul": 6577, "Straßen,": 6578, "Hauptgrün": 6579, "ishe": 6580, "Ost": 6581, "sur": 6582, "es": 6583, "Some": 6584, "läuter": 6585, "beton": 6586, "annex": 6587, "angeb": 6588, "Car": 6589, "Gle": 6590, "gehen,": 6591, "um": 6592, "occasion,": 6593, "Mittwoch": 6594, "Rhin": 6595, "president": 6596, "nationwide": 6597, "stand": 6598, "Kartoff": 6599, "ern,": 6600, "lt": 6601, "ion,": 6602, "zahlreiche": 6603, "Berichter": 6604, "Stu": 6605, "ren": 6606, "V": 6607, "Begrenzung": 6608, "Strukturfondsprogram": 6609, "kil": 6610, "member": 6611, "have": 6612, "Lassen": 6613, "creation": 6614, "e.": 6615, "ices": 6616, "ung": 6617, "Sz": 6618, "Sufjan": 6619, "änderten": 6620, "Rat": 6621, "still": 6622, "kr": 6623, "Anstrengungen": 6624, "followed": 6625, "noch": 6626, "Y": 6627, "thing": 6628, "FTS": 6629, "ma": 6630, "zentr": 6631, "Augen": 6632, "young": 6633, "continued": 6634, "Stellungnahmen": 6635, "ition": 6636, "hatte": 6637, "ständige": 6638, "pä": 6639, "@bbc.co.": 6640, "EU,": 6641, "quellen": 6642, "Prem": 6643, "path": 6644, "tet.": 6645, "Wales": 6646, "orial": 6647, "Zusammenhang": 6648, "educ": 6649, "weite": 6650, "abe": 6651, "ced": 6652, "land,": 6653, "road": 6654, "Trotz": 6655, "ktion": 6656, "performance": 6657, "kom": 6658, "Dienstag": 6659, "67": 6660, "Dutch": 6661, "Union.": 6662, "building": 6663, "doc": 6664, "cus": 6665, "danken,": 6666, "zweimal": 6667, "flo": 6668, "are": 6669, "looks": 6670, "Kas": 6671, "special": 6672, "Mehr": 6673, "2,": 6674, "rich": 6675, "beantrag": 6676, "Süden": 6677, "weiterhin": 6678, "Oktober": 6679, "teiligt": 6680, "challen": 6681, "Katastrophe": 6682, "Karte": 6683, "appreci": 6684, "jüngster": 6685, "point.": 6686, "industrial": 6687, "Kommission": 6688, "money": 6689, "Interne": 6690, "schw": 6691, "kt.": 6692, "iday": 6693, "Milit": 6694, "against": 6695, "paint": 6696, "Herausforderungen": 6697, "eme": 6698, "manch": 6699, "fte": 6700, "gef": 6701, "isation": 6702, "es,": 6703, "Beitrag": 6704, "it": 6705, "often": 6706, "ssen": 6707, "könnten": 6708, "def": 6709, "Rule": 6710, "sehe": 6711, "spent": 6712, "mündliche": 6713, "mix": 6714, "Vatan": 6715, "workers": 6716, "Stanley": 6717, "Tennis": 6718, "gute": 6719, "seien": 6720, "Idee": 6721, "programm": 6722, "Migran": 6723, "in": 6724, "aber": 6725, "South": 6726, "35/E": 6727, "present,": 6728, "decisions": 6729, "ime": 6730, "Mitgliedstaaten,": 6731, "government": 6732, "anderer": 6733, "lobal": 6734, "ata": 6735, "Hän": 6736, "except": 6737, "pared": 6738, "wünsch": 6739, "Battle": 6740, "Programme.": 6741, "erzähl": 6742, "show": 6743, "wird.": 6744, "Ausbildung": 6745, "Tätigkeit": 6746, "proble": 6747, "gu": 6748, "Simp": 6749, "Monm": 6750, "follow": 6751, "lokale": 6752, "Gaut": 6753, "gerade": 6754, "tail": 6755, "bild": 6756, "anspre": 6757, "ered": 6758, "wen": 6759, "ious": 6760, "part": 6761, "trib": 6762, "genommen": 6763, "Notwendigkeit": 6764, "self": 6765, "tragen,": 6766, "Verb": 6767, "Migranten": 6768, "fundamental": 6769, "lungs": 6770, "är": 6771, "lieben": 6772, "Rech": 6773, "ers,": 6774, "Kommission,": 6775, "anschließend": 6776, "Insel": 6777, ".": 6778, "professor": 6779, "ship": 6780, "beitrag": 6781, "stem": 6782, "beide": 6783, "icher": 6784, "liegt,": 6785, "Schro": 6786, "Greenvil": 6787, "ss": 6788, "suggested": 6789, "done.": 6790, "Austr": 6791, "day.": 6792, "Ausnahme": 6793, "concluded": 6794, "Gorsel,": 6795, "pointed": 6796, "Angela": 6797, "rapporteur,": 6798, "ipp": 6799, "ed,": 6800, "ne": 6801, "event": 6802, "somet": 6803, "remains": 6804, "thou": 6805, "sollten": 6806, "machen": 6807, "harmon": 6808, "uments": 6809, "forget": 6810, "Than": 6811, "öl": 6812, "inst": 6813, "Landes": 6814, "findings.": 6815, "spec": 6816, "2017": 6817, "-20": 6818, "Form": 6819, "Pol": 6820, "Verz": 6821, "ünstig": 6822, "statt.": 6823, "PPE/DE": 6824, "Politik": 6825, "Geschäfts": 6826, "leaders": 6827, "solche": 6828, "Union,": 6829, "Darüber": 6830, "Lös": 6831, "stellung": 6832, "states": 6833, "anc": 6834, "PMQs": 6835, "groups": 6836, "ministers": 6837, "spo": 6838, "gehalten": 6839, "transport": 6840, "bei.": 6841, "okes": 6842, "0,": 6843, "perspe": 6844, "accept": 6845, "ally,": 6846, "gesundheit": 6847, "conne": 6848, "überzeug": 6849, "treff": 6850, "wenigen": 6851, "thor": 6852, "ielt": 6853, "fol": 6854, "metre": 6855, "gesehen": 6856, "ist.": 6857, "@bb": 6858, "haben": 6859, "Herausforderung": 6860, "Cologne.": 6861, "Stacheldra": 6862, "Besch": 6863, "know,": 6864, "ron": 6865, "Gebie": 6866, "islands": 6867, "ail": 6868, "insgesamt": 6869, "Post": 6870, "Dougl": 6871, "Straßen": 6872, "imag": 6873, "comments": 6874, "specific": 6875, "many": 6876, "Serb": 6877, "Ital": 6878, "schem": 6879, "Universität": 6880, "gewinnen": 6881, "cutive": 6882, "unnötige": 6883, "möch": 6884, "does": 6885, "schwach": 6886, "S": 6887, "äußerster": 6888, "ückt": 6889, "ö": 6890, "Präsident": 6891, "CEN,": 6892, "beim": 6893, "Although": 6894, "Zusammen": 6895, "Agriculture": 6896, "jähr": 6897, "citing": 6898, "aufgenomm": 6899, "1998/0": 6900, "pers": 6901, "inner": 6902, "appeared": 6903, "Öff": 6904, "adapt": 6905, "calle": 6906, "Ziel": 6907, "les": 6908, "Corbyns": 6909, "took": 6910, "ersuch": 6911, "Netanyah": 6912, "Schwierigkeit": 6913, "gab": 6914, "bew": 6915, "regarding": 6916, "organisation": 6917, "geben.": 6918, "ze": 6919, "enthalten": 6920, "Let": 6921, "Vorschläge": 6922, "ogul": 6923, "Dem": 6924, "ergän": 6925, "Wirtschafts": 6926, "applied": 6927, "Komit": 6928, "meines": 6929, "proper": 6930, "irl": 6931, "cond": 6932, "Strukturpolitik": 6933, "acc": 6934, "Se": 6935, "sor": 6936, "D": 6937, "best": 6938, "ie": 6939, "zeit": 6940, "goods": 6941, "nieder": 6942, "achten,": 6943, "ials": 6944, "Laden": 6945, "Grundlage": 6946, "Zusammenhalt": 6947, "curr": 6948, "geworden": 6949, "Structural": 6950, "Berichterstatter": 6951, "b)": 6952, "nu": 6953, "Transparenz": 6954, "current": 6955, "exist": 6956, "iden": 6957, "Gro": 6958, "zeigen,": 6959, "doch": 6960, "käm": 6961, "Gesch": 6962, "tro": 6963, "begrü": 6964, "some": 6965, "needs": 6966, "militärische": 6967, "Verk": 6968, "structure": 6969, "Sicherheitsber": 6970, "po": 6971, "abgesch": 6972, "grün": 6973, "bezogen": 6974, "deb": 6975, "faculty": 6976, "Gra": 6977, "structural": 6978, "IGA-": 6979, "establishment": 6980, "errichten.": 6981, "daran": 6982, "verursach": 6983, "finan": 6984, "Stra": 6985, "örderung": 6986, "also": 6987, "Verhandlungen": 6988, "sprechen.": 6989, "personal": 6990, "atory": 6991, "seinem": 6992, "Secondly,": 6993, "sc": 6994, "ordnung": 6995, "bu": 6996, "wissen": 6997, "enacting": 6998, "As": 6999, "proce": 7000, "establishing": 7001, "spiegel": 7002, "essential": 7003, "Leit": 7004, "needed": 7005, "klus": 7006, "running": 7007, "gearbeit": 7008, "wo": 7009, "gestell": 7010, "grenzung": 7011, "infolge": 7012, "Vizepräsidentin,": 7013, "candidates": 7014, "behandel": 7015, "stell": 7016, "Prüfung": 7017, "fälle": 7018, "pub": 7019, "fung": 7020, "qual": 7021, "technischer": 7022, "guten": 7023, "guidance": 7024, "Tagesordnung": 7025, "prefer": 7026, "Frage": 7027, "19": 7028, "büro": 7029, "gebe": 7030, "reaching": 7031, "gewählten": 7032, "album": 7033, "5/": 7034, "ose": 7035, "p": 7036, "applic": 7037, "erg": 7038, "result": 7039, "Miss": 7040, "entgegen": 7041, "enact": 7042, "schutz": 7043, "ibil": 7044, "abstent": 7045, "Struct": 7046, "question": 7047, "Tages": 7048, "Zusätzlichkeit": 7049, "gere": 7050, "these": 7051, "pon": 7052, "GO": 7053, "Vice": 7054, "beantwor": 7055, "sei,": 7056, "wichtigsten": 7057, "Verzö": 7058, "criminal": 7059, "isten": 7060, "zeigt,": 7061, "meter": 7062, "läss": 7063, "iger": 7064, "ßen": 7065, "reserv": 7066, "dispar": 7067, "plo": 7068, "programme,": 7069, "traff": 7070, "to": 7071, "trau": 7072, "nahme": 7073, "Viktoria": 7074, "Ablehnung": 7075, "au": 7076, "Mindestnormen": 7077, "issu": 7078, "wesentliche": 7079, "dep": 7080, "Immobilien-Mogul": 7081, "offen": 7082, "strukturschwach": 7083, "This,": 7084, "cery": 7085, "betreffen": 7086, "fle": 7087, "Lesung": 7088, "Bevölkerung": 7089, "komp": 7090, "beschäft": 7091, "Entwicklungspolitik": 7092, "directive,": 7093, "auf.": 7094, "Investit": 7095, "played": 7096, "store": 7097, "McCarth": 7098, "is": 7099, "Text": 7100, "Potsdam.": 7101, "dam": 7102, "Verkehrswesen": 7103, "MP": 7104, "Era": 7105, "8": 7106, "häuf": 7107, "%": 7108, "Stimmen": 7109, "Verwendung": 7110, "hit": 7111, "Roy": 7112, "magnific": 7113, "point": 7114, "story": 7115, "declared": 7116, "publish": 7117, "Republikanern": 7118, "aspect": 7119, "infl": 7120, "ress": 7121, "cour": 7122, "directives": 7123, "folge": 7124, "senden.": 7125, "tankers": 7126, "betrachte": 7127, "tabled": 7128, "Wedn": 7129, "anten": 7130, "Vielleicht": 7131, "Ban": 7132, "Wh": 7133, "geht": 7134, "Bur": 7135, "Amster": 7136, "equ": 7137, "Malm": 7138, "edge": 7139, "1999/2127(COS": 7140, "percent),": 7141, "months.": 7142, "Fernse": 7143, "Ausgang": 7144, "legislative": 7145, "aler": 7146, "increased": 7147, "vereinbar": 7148, "real": 7149, "schwer": 7150, "Freihandels": 7151, "Socialist": 7152, "Senden": 7153, "when": 7154, "test": 7155, "But,": 7156, "jen": 7157, "sich": 7158, "legislature": 7159, "ordn": 7160, "Schiene": 7161, "trotz": 7162, "month.": 7163, "ans": 7164, "gives": 7165, "führen.": 7166, "verdeut": 7167, "Ide": 7168, "Econom": 7169, "inne": 7170, "+": 7171, "energ": 7172, "times": 7173, "ative": 7174, "Kyrg": 7175, "Transpar": 7176, "square": 7177, "ließen": 7178, "sätze": 7179, "ersch": 7180, "spiel": 7181, "cons": 7182, "level": 7183, "procedures": 7184, "gegebenen": 7185, "Anfrage": 7186, "Brit": 7187, "online": 7188, "außerhalb": 7189, "November": 7190, "selbst,": 7191, "Versuch": 7192, "ago,": 7193, "announ": 7194, "Treffer": 7195, "Cor": 7196, "fällt": 7197, "inde": 7198, "aut": 7199, "sufficient": 7200, "extra": 7201, "ierte": 7202, "discus": 7203, "machen.": 7204, "When": 7205, "mich": 7206, "angesprochen": 7207, "procedure,": 7208, "tischen": 7209, "enl": 7210, "advisers": 7211, "exclusive": 7212, "Fraktion,": 7213, "reichend": 7214, "Qualifik": 7215, "drawn": 7216, "shown": 7217, "Bewertung": 7218, "Best": 7219, "verdi": 7220, "Ind": 7221, "Segn": 7222, "dank": 7223, "wick": 7224, "Einen": 7225, "Punk": 7226, "positiv": 7227, "Lu": 7228, "entreprene": 7229, "ihm": 7230, "According": 7231, "gewes": 7232, "gearbeitet": 7233, "persönlichen": 7234, "vement": 7235, "1998/0106": 7236, "Fior": 7237, "both": 7238, "expressed": 7239, "sichern,": 7240, "bar,": 7241, "antrag": 7242, "bereits": 7243, "geister": 7244, "Tatsache,": 7245, "Kar": 7246, "zweistell": 7247, "bekann": 7248, "especially": 7249, "uel": 7250, "quite": 7251, "äfts": 7252, "Ideye": 7253, "jeweiligen": 7254, "Kontro": 7255, "Erwä": 7256, "local": 7257, "-Umfrage": 7258, "gek": 7259, "Fol": 7260, "Tourism,": 7261, "Date": 7262, "High-Tech-": 7263, "ergreifen,": 7264, "ential": 7265, "ically": 7266, "Standpunkt": 7267, "advanced": 7268, "ebenfalls": 7269, "Prioritäten": 7270, "exer": 7271, "hang": 7272, "uld": 7273, "pra": 7274, "vertrauens": 7275, "arrange": 7276, "Blickwinkel": 7277, "befaßt": 7278, "ennium": 7279, "immen": 7280, "distrib": 7281, "structures": 7282, "priv": 7283, "establish": 7284, "Republikaner": 7285, "servative": 7286, "ity": 7287, "An": 7288, "äuß": 7289, "94/55/E": 7290, "eig": 7291, "stehenden": 7292, "peripher": 7293, "seine": 7294, "contrib": 7295, "ade": 7296, "sul": 7297, "Bus": 7298, "armen": 7299, "geleg": 7300, "konfront": 7301, "Mindestanforderungen": 7302, "zur": 7303, "C": 7304, "care": 7305, "start": 7306, "trustworthy": 7307, "verkehr": 7308, "Illino": 7309, "idelin": 7310, "einstimmig": 7311, "gesetzt": 7312, "eigene": 7313, "Thursday": 7314, "Vorwahl": 7315, "Diese": 7316, "ball": 7317, "Mar": 7318, "derart": 7319, "force,": 7320, "race": 7321, "aded": 7322, "Weshalb": 7323, "Cunha": 7324, "lling": 7325, "priorities": 7326, "night": 7327, "Hälfte": 7328, "8/": 7329, "weisen.": 7330, "Wähl": 7331, "1999/0083(COD)": 7332, "chten": 7333, "pf": 7334, "verantwort": 7335, "[COM(1999)": 7336, "Nationalhy": 7337, "innerhalb": 7338, "serv": 7339, "entspr": 7340, "lot": 7341, "Prozent)": 7342, "Wednesday.": 7343, "darstellen": 7344, "indeed": 7345, "erwarten": 7346, "Aufmerksam": 7347, "43": 7348, "five": 7349, "Ihnen": 7350, "Back": 7351, "Indikator": 7352, "Plenum": 7353, "Großbritann": 7354, "Besonder": 7355, "opport": 7356, "ago": 7357, "urther": 7358, "stores": 7359, "Erhö": 7360, "Invest": 7361, "Ark": 7362, "Chancengleich": 7363, "sha": 7364, "shadow": 7365, "Zum": 7366, "iert.": 7367, "1999/2": 7368, "adopted": 7369, "points,": 7370, "spro": 7371, "ures": 7372, "favour": 7373, "ager": 7374, "ers": 7375, "sollte,": 7376, "conom": 7377, "fern": 7378, "Wieder": 7379, "Mun": 7380, "begnü": 7381, "Überw": 7382, "ühr": 7383, "cy": 7384, "Rh": 7385, "plac": 7386, "Temperatur": 7387, "today.": 7388, "!": 7389, "ump": 7390, "Z": 7391, "unt": 7392, "vor.": 7393, "unde": 7394, "inge": 7395, "thought": 7396, "ster": 7397, "19.": 7398, "comes": 7399, "ently": 7400, "stieg": 7401, "fig": 7402, "Commun": 7403, "gegenüber": 7404, "reasons": 7405, "territorial": 7406, "steht,": 7407, "course": 7408, "Normen": 7409, "Weise": 7410, "Belg": 7411, "J": 7412, "reds": 7413, "erwar": 7414, "Prüfungs": 7415, "du": 7416, "Nation": 7417, "likely": 7418, "core": 7419, "Ins": 7420, "reading": 7421, "Verlänger": 7422, "conflic": 7423, "würden.": 7424, "findet": 7425, "ily": 7426, "Mü": 7427, "Italy": 7428, "ctive": 7429, "tomor": 7430, "Angel": 7431, "kön": 7432, "Minister": 7433, "res": 7434, "achieving": 7435, "On": 7436, "chs": 7437, "sach": 7438, "Prüf": 7439, "ellen": 7440, "Aspe": 7441, "crit": 7442, "Kandidat": 7443, "pie": 7444, "itz": 7445, "falls": 7446, "Chancengleichheit": 7447, "tober": 7448, "Begeister": 7449, "Schiff": 7450, "Ausbildungs": 7451, "Will": 7452, "natürlich": 7453, "specifically": 7454, "ständigen": 7455, "demokratische": 7456, "University": 7457, "duced": 7458, "Lebensmittel": 7459, "cht": 7460, "Indones": 7461, "Behandlung": 7462, "demonstrate": 7463, "betreffend": 7464, "ain": 7465, "ieber": 7466, "kräfte": 7467, "Rechts": 7468, "fäll": 7469, "moment": 7470, "my": 7471, "entsch": 7472, "möglichst": 7473, "Bundespolize": 7474, "Ziel-1-Regionen": 7475, "inz": 7476, "einiger": 7477, "Kolleginnen": 7478, "Richtlinie,": 7479, "dissatisfied": 7480, "bisher": 7481, "Bayern": 7482, "unnecessary": 7483, "economic": 7484, "iler": 7485, "sondern": 7486, "coming": 7487, "@bbc.co.u": 7488, "lose": 7489, "jemals": 7490, "play": 7491, "provide": 7492, "keen": 7493, "regret": 7494, "konk": 7495, "zum": 7496, "letzten": 7497, "qu": 7498, "bet": 7499, "zentrale": 7500, "gend": 7501, "Diskuss": 7502, "wies": 7503, "wird,": 7504, "armonis": 7505, "email": 7506, "reflect": 7507, "Cun": 7508, "mehrere": 7509, "seems": 7510, "campa": 7511, "haupts": 7512, "Quadrat": 7513, "land": 7514, "busin": 7515, "hervorra": 7516, "example": 7517, "nachhaltigen": 7518, "oles": 7519, "text": 7520, "wiss": 7521, "backed": 7522, "(C": 7523, "Organisationen": 7524, "gebäude": 7525, "Auf": 7526, "uktur": 7527, "Nor": 7528, "name": 7529, "programmes.": 7530, "shut": 7531, "Entscheid": 7532, "äre": 7533, "Personen,": 7534, "Kandid": 7535, "plenary": 7536, "ält,": 7537, "Rauchen": 7538, "urge": 7539, "Hillary": 7540, "own": 7541, "wort": 7542, "Lad": 7543, "adequate": 7544, "red": 7545, "foreign": 7546, "represent": 7547, "stu": 7548, "rules": 7549, "ten": 7550, "Organisation": 7551, "year.": 7552, "Corbyn": 7553, "extre": 7554, "living": 7555, "Smok": 7556, "chief": 7557, "unless": 7558, "Pleas": 7559, "Beschlü": 7560, "Immob": 7561, "need": 7562, "subsidi": 7563, "exception": 7564, "zus": 7565, "acht": 7566, "Person": 7567, "directive.": 7568, "sy": 7569, "them,": 7570, "rule": 7571, "harmonisation": 7572, "vac": 7573, "right": 7574, "Jeb": 7575, "Drittens": 7576, "Gewähr": 7577, "thousands": 7578, "teilen,": 7579, "elt": 7580, "Komitolog": 7581, "Austria": 7582, "related": 7583, "ters": 7584, "Ende": 7585, "koordin": 7586, "bald": 7587, "Zusage": 7588, "ichtig": 7589, "small": 7590, "nor": 7591, "make": 7592, "nationaler": 7593, "Les": 7594, "ge,": 7595, "Bewert": 7596, "Gonzlez": 7597, "(13": 7598, "iversit": 7599, "ütze": 7600, "vorliegende": 7601, "six": 7602, "nahe": 7603, "id": 7604, "ll.": 7605, "cil": 7606, "tet,": 7607, "place": 7608, "commitment": 7609, "hold": 7610, "En": 7611, "isch,": 7612, "(COD)": 7613, "Vier": 7614, "hes": 7615, "tax": 7616, "anforderungen": 7617, "Wechsel": 7618, "bezug": 7619, "iellen": 7620, "dau": 7621, "movie": 7622, "äsident": 7623, "-Chef": 7624, "hether": 7625, "transpar": 7626, "Dritten": 7627, "popul": 7628, "Region": 7629, "Berlin": 7630, "Partei,": 7631, "la": 7632, "Funds.": 7633, "Aff": 7634, "ischen,": 7635, "geltenden": 7636, "sign": 7637, "commit": 7638, "bar": 7639, "pr": 7640, "endorse": 7641, "fen": 7642, "heit": 7643, "teid": 7644, "island": 7645, "Vielfalt": 7646, "igr": 7647, "diejenigen,": 7648, "Vorw": 7649, "Quinn": 7650, "prepar": 7651, "Alle": 7652, "Geb": 7653, "propos": 7654, "Nahrungs-": 7655, "Sen": 7656, "received": 7657, "ansas": 7658, "dabei": 7659, "folg": 7660, "text,": 7661, "OM(": 7662, "jor": 7663, "sicherheit": 7664, "conclus": 7665, "weshalb": 7666, "Ano": 7667, "there.": 7668, "explain": 7669, "Zwar": 7670, "ards": 7671, "bom": 7672, "Inselregionen": 7673, "erhalten": 7674, "this": 7675, "außer": 7676, "fuhr": 7677, "Europä": 7678, "contin": 7679, "agre": 7680, "Bereich,": 7681, "wir": 7682, "human": 7683, "ited": 7684, "namens": 7685, "unk": 7686, "people": 7687, "amendments": 7688, "prü": 7689, "detail": 7690, "I": 7691, "Mat": 7692, "12.": 7693, "gaben": 7694, "Detail": 7695, "Ber": 7696, "Alha": 7697, "PMQ": 7698, "walt": 7699, "Infra": 7700, "They": 7701, "refer": 7702, "ce": 7703, "leadership": 7704, "wachsen": 7705, "Zuerst": 7706, "Gebrauch": 7707, "gilt": 7708, "northern": 7709, "years": 7710, "marg": 7711, "Verordnung": 7712, "ücksichtig": 7713, "ansatlant": 7714, "overall": 7715, "Erfassung": 7716, "ier": 7717, "vorzeitig": 7718, "might": 7719, "ierung": 7720, "höhere": 7721, "Rechnung": 7722, "verdeutlichen": 7723, "maßgeblich": 7724, "Fällen": 7725, "Zweif": 7726, "sk": 7727, "können.": 7728, "versch": 7729, "Hindern": 7730, "bedarf": 7731, "[": 7732, "members,": 7733, "Monat": 7734, "leid,": 7735, "Camp": 7736, "Vorsit": 7737, "Hö": 7738, "Dien": 7739, "life": 7740, "vorgeschl": 7741, "Mär": 7742, "Mid": 7743, "Leben": 7744, "konn": 7745, "much": 7746, "uppen": 7747, "komple": 7748, "dig": 7749, "Rack": 7750, "one.": 7751, "committee": 7752, "Einkommens": 7753, "schl": 7754, "Quä": 7755, "call,": 7756, "gemein": 7757, "itä": 7758, "erei": 7759, "although": 7760, "EV": 7761, "action": 7762, "konnte": 7763, "Schaf": 7764, "contains": 7765, "pract": 7766, "goti": 7767, "Ris": 7768, "(35": 7769, "Nikitin.": 7770, "aums": 7771, "Zeitr": 7772, "ibt.": 7773, "homel": 7774, "Ziel-1-": 7775, "liche": 7776, "Rußland": 7777, "omm": 7778, "Princ": 7779, "Res": 7780, "festigen": 7781, "employment.": 7782, "nationale": 7783, "affected": 7784, "either.": 7785, "num": 7786, "Mitgliedstaaten": 7787, "nahezu": 7788, "Ex": 7789, "adhere": 7790, "finanziellen": 7791, "tee": 7792, "enjoy": 7793, "ally": 7794, "forderungen": 7795, "fl": 7796, "Hist": 7797, "bringen.": 7798, "äu": 7799, "supported": 7800, "Dring": 7801, "tru": 7802, "servic": 7803, "Corby": 7804, "eb": 7805, "icult": 7806, "minute": 7807, "vious": 7808, "ditional": 7809, "absol": 7810, "schriftlich": 7811, "ments": 7812, "pekten": 7813, "uct": 7814, "Ungleichheit": 7815, "hat.": 7816, "agreement": 7817, "@": 7818, "dollar": 7819, "amendment": 7820, "verab": 7821, "geordne": 7822, "il": 7823, "whether": 7824, "akt": 7825, "world": 7826, "activ": 7827, "Außer": 7828, "Spielberg": 7829, "Bereich": 7830, "require": 7831, "Kopf-an": 7832, "general": 7833, "Smith": 7834, "dictates": 7835, "Harrison": 7836, "letter": 7837, "hoffen": 7838, "Transitländer": 7839, "äum": 7840, "Sicht": 7841, "ibility": 7842, "ihn": 7843, "Menschen": 7844, "Dire": 7845, "164": 7846, "Harris": 7847, "ind": 7848, "öffentliche": 7849, "erheblich": 7850, "grounds": 7851, "aim": 7852, "migrants": 7853, "große": 7854, "88": 7855, "akze": 7856, "intended": 7857, "unterstützen,": 7858, "Grundsatz": 7859, "richtungen": 7860, "r": 7861, "Mon": 7862, "happy": 7863, "research": 7864, "vor,": 7865, "infrastructure": 7866, "ve,": 7867, "nissen": 7868, "vid": 7869, "aufgeb": 7870, "currently": 7871, "niederländ": 7872, "amer": 7873, "itik": 7874, "andere": 7875, "B": 7876, "GOP-": 7877, "jeden": 7878, "id,": 7879, "ange": 7880, "ihnen": 7881, "erlassen,": 7882, "everyone": 7883, "ores": 7884, "demokrat": 7885, "Komm": 7886, "eingegangen": 7887, "railways": 7888, "geworden.": 7889, "and,": 7890, "goods.": 7891, "Commission,": 7892, "being": 7893, "Ben": 7894, "table": 7895, "refuge": 7896, "IGA-Einzel": 7897, "spunkt": 7898, "Gen": 7899, "such": 7900, "gese": 7901, "im": 7902, "positiven": 7903, "gebeten": 7904, "opinions": 7905, "bereitung": 7906, "most": 7907, "additional": 7908, "ermut": 7909, "Meinung": 7910, "shado": 7911, "Unternehmer": 7912, "ions.": 7913, "Anhän": 7914, "Großhändler": 7915, "zehn": 7916, "änd": 7917, "future,": 7918, "ös": 7919, "weil": 7920, "potentiellen": 7921, "wish": 7922, "ser": 7923, "alb": 7924, "lock": 7925, "bin,": 7926, "deal": 7927, "besonder": 7928, "sagen,": 7929, "verdient": 7930, "jährlichen": 7931, "dort": 7932, "ESF": 7933, "handel": 7934, "ling": 7935, "requirements": 7936, "Tory": 7937, "anzu": 7938, "Kommunik": 7939, "-": 7940, "10,": 7941, "ratings": 7942, "laufen": 7943, "considerably": 7944, "Deutsch": 7945, "komplizierte": 7946, "going": 7947, "pl": 7948, "draft": 7949, "spie": 7950, "Evans,": 7951, "intervent": 7952, "dürfen.": 7953, "Voraussetzungen": 7954, "abgest": 7955, "advis": 7956, "wurden.": 7957, "Änderungen": 7958, "fä": 7959, "Halbzeitbewer": 7960, "prob": 7961, "vernünft": 7962, "ilien": 7963, "urely": 7964, "Community": 7965, "Greenv": 7966, "liegen": 7967, "Beschäftig": 7968, "Yes,": 7969, "put": 7970, "wohner": 7971, "indi": 7972, "Zu": 7973, "könn": 7974, "Angeb": 7975, "grunds": 7976, "(K": 7977, "able,": 7978, "Kokkinak": 7979, "Iowa": 7980, "Lie": 7981, "wth": 7982, "theat": 7983, "Sy": 7984, "Russ": 7985, "Mut": 7986, "Kapitalsteuer": 7987, "Anti-": 7988, "et": 7989, "manner": 7990, "leve": 7991, "schließlich": 7992, "PP": 7993, "city": 7994, "erneuerbaren": 7995, "able": 7996, "Russia,": 7997, "fer": 7998, "uted": 7999, "[PAD]": 8000, "[UNK]": 8001, "[BOS]": 8002, "[EOS]": 8003}