{"ĠĠrefugee": 0, "ĠĠBewertung": 1, "ĠĠKommissarin,": 2, "ĠĠBetriff": 3, "o,": 4, "ĠĠess": 5, "ĠĠFragestunde": 6, "ĠĠangeb": 7, "ount": 8, "ĠĠtun": 9, "ĠĠwelcom": 10, "lic": 11, "alisierung": 12, "ate.": 13, "ĠĠRe": 14, "?": 15, "ĠĠAngel": 16, "ĠĠKinn": 17, "ĠĠauf.": 18, "ĠĠjud": 19, "ĠĠjemand": 20, "ĠĠ90": 21, "ĠĠla": 22, "ĠĠWoche": 23, "ĠĠdiscrimin": 24, "ĠĠist": 25, "ĠĠcriter": 26, "ĠĠpaar": 27, "bene": 28, "ĠĠWes": 29, "ud": 30, "ĠĠeffect": 31, "ĠĠnever": 32, "ĠĠDaten": 33, "under": 34, "age,": 35, "cur": 36, "-y": 37, "ĠĠsitting": 38, "fälle": 39, "ĠĠurg": 40, "ĠĠdraw": 41, "ĠĠJahren": 42, "ĠĠtransfer": 43, "ĠĠPresident-in-Off": 44, "ĠĠFonds": 45, "ĠĠE": 46, "ĠĠlang": 47, "ĠĠloc": 48, "ĠĠenlargement": 49, "ĠĠBereich": 50, "ĠĠaußerdem": 51, "ĠĠThursday": 52, "ĠĠMan": 53, "ĠĠFriedens": 54, "trollen": 55, "ĠĠlat": 56, "ĠĠpriorities": 57, "uring": 58, "reicht": 59, "ivid": 60, "ĠĠgek": 61, "lüss": 62, "ĠĠbereit,": 63, "ĠĠAnforderungen": 64, "act": 65, "istan": 66, "ublik": 67, "ĠĠrec": 68, "ĠĠrecord": 69, "ĠĠFlüchtlings": 70, "ĠĠcontribution": 71, "ĠĠdarauf": 72, "ĠĠProble": 73, "ĠĠindependent": 74, "iel": 75, "ifiz": 76, "ĠĠProtok": 77, "ĠĠce": 78, "ĠĠimplement": 79, "ĠĠhabe": 80, "ĠĠSeite": 81, "ĠĠOkt": 82, "lei": 83, "ĠĠganzen": 84, "ĠĠpositiv": 85, "ĠĠAbgeordn": 86, "ĠĠArm": 87, "ĠĠge": 88, "ĠĠwohl": 89, "ĠĠtre": 90, "ĠĠchallen": 91, "ĠĠideolog": 92, "ĠĠpalästinens": 93, "ĠĠinvestig": 94, "ĠĠadvisers": 95, "entwick": 96, "ĠĠClinton": 97, "ies": 98, "ĠĠstart": 99, "ĠĠbesonders": 100, "ĠĠTra": 101, "ĠĠcarry": 102, "ĠĠBilder": 103, "ĠĠproper": 104, "ĠĠKarlsru": 105, "ĠĠexplained": 106, "ĠĠstructural": 107, "ĠĠVereinbar": 108, "konferenz": 109, "ĠĠJust": 110, "ĠĠStructural": 111, "ĠĠobserv": 112, "ĠĠexchange": 113, "ĠĠSchließ": 114, "ĠĠArbeitslosigkeit": 115, "ĠĠcolleagues": 116, "ĠĠtell": 117, "tend": 118, "ĠĠInstitutionen": 119, "ĠĠil": 120, "ĠĠjur": 121, "ĠĠadministration": 122, "ĠĠMadam": 123, "ĠĠMonaten": 124, "ĠĠKMU": 125, "ĠĠopening": 126, "ĠĠAnstreng": 127, "ĠĠacc": 128, "let": 129, "ats": 130, "ĠĠton": 131, "ĠĠHewlett": 132, "ĠĠFlüchtlingen": 133, "ünsche": 134, "ĠĠthem.": 135, "ĠĠgenannten": 136, "ĠĠagreement": 137, "ĠĠAsylbewerber": 138, "ĠĠKoordinierung": 139, "äch": 140, "ĠĠökolog": 141, "ĠĠpolit": 142, "ĠĠMilliarden": 143, "uld": 144, "ĠĠhig": 145, "ĠĠVerb": 146, "ĠĠda": 147, "ĠĠnetwork": 148, "uch": 149, "ence": 150, "ĠĠmajority": 151, "ĠĠKir": 152, "ĠĠte": 153, "anken": 154, "iesen": 155, "ub": 156, "sy": 157, "aten,": 158, "ĠĠProj": 159, "beding": 160, "ĠĠKomp": 161, "haben": 162, "ĠĠThere": 163, "wing": 164, "ĠĠzurück": 165, "ĠĠGelegenheit": 166, "geben,": 167, "ĠĠerreich": 168, "ĠĠich": 169, "ĠĠeinige": 170, "ĠĠSecond": 171, "üss": 172, "ĠĠunbeding": 173, "gehend": 174, "ĠĠBewert": 175, "ĠĠMen": 176, "ric": 177, "ĠĠwach": 178, "ic.": 179, "ĠĠOp": 180, "ĠĠsieht": 181, "ĠĠKommissar": 182, "ope": 183, "ĠĠitself": 184, "ĠĠdaran": 185, "strument": 186, "ĠĠfirm": 187, "igranten": 188, "mittag": 189, "ĠĠGeb": 190, "ted.": 191, "ĠĠfolg": 192, "ĠĠorganisation": 193, "ĠĠestablish": 194, "verfahren": 195, "ĠĠeigen": 196, "druck": 197, "ĠĠDelta": 198, "ĠĠFood": 199, "seit": 200, "ĠĠGDP": 201, "00": 202, "ru": 203, "rän": 204, "ĠĠumfassende": 205, "ennen": 206, "ĠĠLeben": 207, "ify": 208, "iz": 209, "ĠĠone.": 210, "ruf": 211, "way": 212, "ĠĠincident": 213, "ĠĠEinw": 214, "ĠĠsympath": 215, "ize": 216, "y": 217, "chn": 218, "ĠĠSuch": 219, "ax": 220, "ĠĠak": 221, "ĠĠstand": 222, "ĠĠBeihilfen": 223, "tel": 224, "wer": 225, "best": 226, "ĠĠTobin-S": 227, "ĠĠerhalten": 228, "ĠĠäußer": 229, "ĠĠdest": 230, "ĠĠnämlich": 231, "ĠĠcircum": 232, "ents": 233, "ĠĠfragen,": 234, "ĠĠStruct": 235, "enior": 236, "ĠĠTransparen": 237, "ĠĠaim": 238, "bring": 239, "ack": 240, "hnen": 241, "ĠĠParliament": 242, "ĠĠhappy": 243, "ĠĠname": 244, "ĠĠ1997": 245, "ĠĠgehen": 246, "ĠĠexpect": 247, "ĠĠtown": 248, "ĠĠKinnock": 249, "end": 250, "-Gen": 251, "ĠĠDeutsch": 252, "ĠĠcy": 253, "halten": 254, "ĠĠcolleag": 255, "ĠĠmor": 256, "ĠĠö": 257, "ĠĠeuropäische": 258, "olution": 259, "ekte": 260, "ĠĠexe": 261, "wieg": 262, "lect": 263, "ĠĠworden": 264, "ĠĠZe": 265, "ĠĠespe": 266, "ĠĠmedical": 267, "ĠĠfiel": 268, "ĠĠFischere": 269, "nah": 270, "ratul": 271, "ĠĠeinz": 272, "ĠĠX": 273, "ĠĠmünd": 274, "assen.": 275, "fä": 276, "ĠĠenfor": 277, "ĠĠdecided": 278, "ĠĠehemal": 279, "ĠĠpolice": 280, "ĠĠAugen": 281, "ĠĠWeihnach": 282, "ors": 283, "ĠĠKontrollen": 284, "ĠĠGed": 285, "ĠĠsouth": 286, "ĠĠareas,": 287, "ĠĠMoment": 288, "ĠĠcomple": 289, "ĠĠLebensmittel": 290, "ĠĠMaße": 291, "ĠĠenough": 292, "bst": 293, "r": 294, "ĠĠfailed": 295, "ĠĠpermanent": 296, "ĠĠtrying": 297, "urop": 298, "ĠĠcontr": 299, "eln": 300, "ĠĠSal": 301, "luß": 302, "ĠĠcode": 303, "gehen": 304, "zept": 305, "ĠĠunabhäng": 306, "ĠĠlegit": 307, "ĠĠawa": 308, "ĠĠk": 309, "ĠĠencour": 310, "erien": 311, "sych": 312, ".1": 313, "ĠĠAbend": 314, "ĠĠbek": 315, "ĠĠVolks": 316, "om": 317, "ĠĠaverage": 318, "ĠĠformer": 319, "ĠĠextern": 320, "ĠĠAngelegenheit": 321, "ĠĠMeinung,": 322, "ĠĠFamilie": 323, "ĠĠdef": 324, "legen.": 325, "gang": 326, "unden.": 327, "ĠĠsowie": 328, "mit": 329, "ĠĠsystem,": 330, "ĠĠheard": 331, "ĠĠAufgabe": 332, "ĠĠgewähr": 333, "ĠĠaddition": 334, "ĠĠsignific": 335, "zern": 336, "ĠĠObject": 337, "oted": 338, "ĠĠSha": 339, "ĠĠwithin": 340, "ĠĠtr": 341, "ab": 342, "ĠĠouts": 343, "ĠĠdeut": 344, "ĠĠresolution": 345, "ĠĠtotally": 346, "ĠĠmotion": 347, "ĠĠade": 348, "ĠĠuntersuch": 349, "ĠĠsubstant": 350, "ĠĠwirtschaft": 351, "ĠĠWeihn": 352, "ournal": 353, "ĠĠpolic": 354, "lim": 355, "val": 356, "ücht": 357, "ong": 358, "ĠĠmitt": 359, "ĠĠhabe,": 360, "häng": 361, "ĠĠSitz": 362, "ĠĠschaffen.": 363, "ĠĠPat": 364, "min": 365, "ĠĠzweif": 366, "ĠĠremains": 367, "ĠĠösterreich": 368, "ĠĠsy": 369, "ft,": 370, "ĠĠganze": 371, "ĠĠliegt.": 372, "ĠĠshall": 373, "ĠĠGeschäft": 374, "ĠĠDazu": 375, "en": 376, "ichte": 377, "ĠĠjudge": 378, "ĠĠbed": 379, "ĠĠupon": 380, "ĠĠAufmerksam": 381, "ues": 382, "ĠĠbedarf": 383, "ĠĠsometimes": 384, "he,": 385, "ĠĠFund": 386, "ĠĠbusinesses": 387, "ĠĠÜber": 388, "ĠĠproposals": 389, "ĠĠtheir": 390, "b": 391, "heiten": 392, "ĠĠKrankenhaus": 393, "ets": 394, "ĠĠtalk": 395, "isierung": 396, "ritte": 397, "ĠĠsecond": 398, "ĠĠerhö": 399, "ucht": 400, "f": 401, "ĠĠknow,": 402, "ĠĠtrad": 403, "ĠĠStraft": 404, "ĠĠgemach": 405, "ĠĠderzeit": 406, "ĠĠqu": 407, "ĠĠprim": 408, "ĠĠtreatment": 409, "ĠĠmus": 410, "krat": 411, "ĠĠKosovo": 412, "ĠĠSchroedter": 413, "-c": 414, "lagen,": 415, "ĠĠJanu": 416, "ĠĠfift": 417, "ĠĠAbschließend": 418, "ĠĠlegal": 419, "ionen": 420, "[": 421, "ĠĠversich": 422, "ausschuß": 423, "ĠĠermöglich": 424, "ĠĠonce": 425, "hende": 426, "ĠĠwenig": 427, "-D": 428, "lust": 429, "ĠĠcircumst": 430, "led": 431, "ĠĠschaff": 432, "ĠĠcontro": 433, "lungs": 434, "führung": 435, "ĠĠavoid": 436, "ĠĠReg": 437, "ĠĠfoot": 438, "ĠĠDezember": 439, "sicht": 440, "ĠĠBer": 441, "üssel": 442, "ĠĠconcerned,": 443, "ĠĠjem": 444, "ĠĠheute": 445, "ĠĠTätigkeit": 446, "ĠĠLast": 447, "ĠĠPremier": 448, "ĠĠkontroll": 449, "a.": 450, "ĠĠhighly": 451, "ĠĠPrüf": 452, "inn": 453, "ĠĠbesch": 454, "ĠĠpal": 455, "ĠĠwenn": 456, "ĠĠKons": 457, "ĠĠvor.": 458, "ĠĠMad": 459, "kre": 460, "ĠĠlangfrist": 461, "ĠĠvorlieg": 462, "ĠĠprotection": 463, "bru": 464, "ĠĠDän": 465, "lin": 466, "ĠĠversuch": 467, "ĠĠMany": 468, "ĠĠSk": 469, "ising": 470, "ĠĠwir,": 471, "ĠĠm": 472, "ĠĠNotwend": 473, "ĠĠliving": 474, "ĠĠwhat": 475, "i,": 476, "ĠĠmother": 477, "ider": 478, "ĠĠFrid": 479, "ĠĠRis": 480, "ĠĠGerman": 481, "richt": 482, "ĠĠhope": 483, "ĠĠyet": 484, "udget": 485, "ĠĠhouse": 486, "ators": 487, "ĠĠSubject": 488, "ĠĠopport": 489, "me": 490, "ĠĠgröß": 491, "lass": 492, "+": 493, "ĠĠInstrument": 494, "ĠĠSlow": 495, "ĠĠd": 496, "ade": 497, "ktor": 498, "ĠĠwrit": 499, "ĠĠvertre": 500, "ĠĠBut": 501, "ĠĠRauch": 502, "ĠĠGrundlage": 503, "half": 504, "ĠĠzunächst": 505, "ĠĠÄnderungsanträge": 506, "S": 507, "ĠĠperhaps": 508, "urs": 509, "rotz": 510, "ĠĠKlaus": 511, "ĠĠinteress": 512, "rum": 513, "ĠĠ7": 514, "ürz": 515, "ĠĠagricult": 516, "ĠĠAugust": 517, "ĠĠEuropol": 518, "ĠĠrecommendations": 519, "ĠĠpick": 520, "ĠĠkilled": 521, "ĠĠPreis": 522, "ĠĠunterstützen.": 523, "ĠĠsc": 524, "ĠĠBinnenmarkt": 525, "af": 526, "hic": 527, "ĠĠSocial": 528, "ĠĠIhren": 529, "ĠĠquest": 530, "ĠĠGes": 531, "ĠĠhand": 532, "ĠĠPlauen": 533, "ĠĠUnion": 534, "hnen,": 535, "ief": 536, "ĠĠmer": 537, "üg": 538, "ĠĠOur": 539, "lud": 540, "ins": 541, "ĠĠcomprehensive": 542, "ĠĠMiddle": 543, "ĠĠensure": 544, "ag": 545, "gruppe": 546, "ĠĠParlament": 547, "irurg": 548, "ĠĠreports": 549, "c.": 550, "ĠĠBieber": 551, "ĠĠwider": 552, "ĠĠLie": 553, "ĠĠsociety": 554, "ĠĠexamin": 555, "ĠĠwür": 556, "ĠĠpolicy,": 557, "ĠĠÄrz": 558, "chten": 559, "ĠĠac": 560, "ĠĠfrequ": 561, "ĠĠDevelop": 562, "ĠĠseine": 563, "spiel": 564, "ĠĠIG": 565, "ĠĠus,": 566, "ĠĠversuchen,": 567, "ĠĠKosov": 568, "ĠĠCE": 569, "ĠĠwarum": 570, "organ": 571, "ĠĠthey": 572, "ĠĠThey": 573, "ner,": 574, "ĠĠcongratul": 575, "ĠĠAufgaben": 576, "ĠĠGebie": 577, "sprech": 578, "ĠĠsomet": 579, "ĠĠgreater": 580, "ĠĠerk": 581, "anced": 582, "istischen": 583, "ĠĠPP": 584, "institution": 585, "ĠĠbook": 586, "duc": 587, "ale": 588, "ĠĠHungary": 589, "BC": 590, "ĠĠcases": 591, "öhn": 592, "ĠĠVerhaltens": 593, "ĠĠTreaty,": 594, "itime": 595, "ĠĠparlamentar": 596, "ĠĠmonopolies": 597, "5-010": 598, "ĠĠgelang": 599, "ĠĠaccount": 600, "ĠĠinterests": 601, "ĠĠinto": 602, "ĠĠzuge": 603, "ĠĠTeam": 604, "erstör": 605, "ĠĠzum": 606, "ĠĠverst": 607, "ick": 608, "ĠĠnow": 609, "ĠĠmanager": 610, "affen": 611, "ĠĠglau": 612, "ĠĠSchen": 613, "ĠĠheld": 614, "ber": 615, "ore": 616, "ear": 617, "ĠĠgewährle": 618, "ĠĠPartner": 619, "ĠĠEine": 620, "ĠĠanch": 621, "ĠĠn": 622, "ĠĠKin": 623, "MU": 624, "ĠĠvorrang": 625, "unde": 626, "än": 627, "ie": 628, "ĠĠsubsidiar": 629, "ĠĠissue": 630, "jen": 631, "ĠĠSchlußfolger": 632, "ĠĠaußerord": 633, "ĠĠwell": 634, "ĠĠkeinen": 635, "ĠĠhatten": 636, "ĠĠapp": 637, "such": 638, "ĠĠquarter": 639, "ont": 640, "ikan": 641, "henden": 642, "-in-Off": 643, "ager": 644, "ĠĠday": 645, "ĠĠAustrian": 646, "ĠĠZus": 647, "ĠĠmonth": 648, "ĠĠeinmal": 649, "ĠĠMark": 650, "ĠĠplant": 651, "ĠĠframework": 652, "ĠĠaufmerksam": 653, "ul": 654, "asse": 655, "ĠĠProgram": 656, "ĠĠkonnten": 657, "etz": 658, "2.": 659, "0": 660, "ĠĠmeinen": 661, "ĠĠzusätz": 662, "zahl": 663, "ĠĠFalle": 664, "ĠĠamendments": 665, "ĠĠAntw": 666, "port": 667, "gese": 668, "ĠĠJahrze": 669, "ctive": 670, "ĠĠverbunden": 671, "aign": 672, "ĠĠgroßer": 673, "ĠĠgegebenen": 674, "ĠĠIreland": 675, "ĠĠProzent": 676, "ĠĠdetailed": 677, "alle": 678, "ĠĠCo": 679, "ĠĠAd": 680, "ĠĠline": 681, "ĠĠAnspruch": 682, "rimin": 683, "ĠĠpresented": 684, "ĠĠconst": 685, "ĠĠTurke": 686, "ired": 687, "ĠĠNow": 688, "yp": 689, "ĠĠArsen": 690, "ivil": 691, "nete": 692, "ĠĠunseren": 693, "ungsant": 694, "anc": 695, "ĠĠfahr": 696, "auc": 697, "ĠĠverantwortlich": 698, "ĠĠkomp": 699, "ĠĠfäll": 700, "ĠĠit.": 701, "ĠĠLiber": 702, "ĠĠshort-term": 703, "-term": 704, "gre": 705, "llschaft": 706, "gesetz": 707, "ĠĠStates": 708, "ĠĠRei": 709, "ĠĠroom": 710, "air": 711, "ĠĠbereits": 712, "ĠĠbegrüße": 713, "orth": 714, "term": 715, "nach": 716, "ĠĠoffic": 717, "erseits": 718, "6,": 719, "ĠĠseriously": 720, "schnitt": 721, "if": 722, "äden": 723, "(COS))": 724, "zustell": 725, "ĠĠblo": 726, "ĠĠnormal": 727, "ĠĠGrund": 728, "eten": 729, "ited": 730, "ĠĠlow": 731, "ĠĠerwarte": 732, "ĠĠBerend": 733, "ĠĠAnfragen": 734, "ĠĠeinfach": 735, "ĠĠverkauf": 736, "ĠĠexce": 737, "ĠĠdealing": 738, "ales": 739, "igungs": 740, "ing.": 741, "ĠĠwirtschaftliche": 742, "ise": 743, "ĠĠpractice": 744, "inzip": 745, "ones": 746, "ĠĠpoor": 747, "hunder": 748, "ĠĠgebracht": 749, "ĠĠhält": 750, "ĠĠunemployment": 751, "ĠĠspezie": 752, "ĠĠdeveloping": 753, "ĠĠalread": 754, "ĠĠel": 755, "assen,": 756, "arch": 757, "ĠĠVerfahren": 758, "sicherheit": 759, "ĠĠrul": 760, "ĠĠbal": 761, "ĠĠDinge": 762, "ĠĠbring": 763, "auer": 764, "ĠĠrepres": 765, "ĠĠahead": 766, "gemein": 767, "ĠĠconfidence": 768, "ĠĠArbeit": 769, "all": 770, "ert": 771, "(1999": 772, "ĠĠperf": 773, "ĠĠMut": 774, "ĠĠi": 775, "ague": 776, "ĠĠkey": 777, "ĠĠconfirm": 778, "ota": 779, "ĠĠer.": 780, "ĠĠdi": 781, "ĠĠHa": 782, "board": 783, "ĠĠdirective": 784, "ĠĠBemühungen": 785, "zub": 786, "ĠĠbroad": 787, "ĠĠCan": 788, "ĠĠNatürlich": 789, "weisen": 790, "hö": 791, "ĠĠAbge": 792, "ĠĠKall": 793, "uthor": 794, "grenz": 795, "fet": 796, "ht.": 797, "ĠĠfore": 798, "ĠĠBevölk": 799, "füg": 800, "ogg": 801, "tain": 802, "ĠĠState": 803, "use": 804, "pporte": 805, "ĠĠlok": 806, "ĠĠEnt": 807, "ĠĠVerfüg": 808, "ĠĠ199": 809, "onse": 810, "ĠĠBru": 811, "ĠĠTor": 812, "ain": 813, "ĠĠKarl": 814, "ĠĠgetting": 815, "riend": 816, "ĠĠenerg": 817, "ĠĠRom": 818, "ĠĠWo": 819, "ĠĠcombating": 820, "ĠĠErgeb": 821, "ĠĠHow": 822, "ĠĠAug": 823, "ĠĠsind": 824, "ĠĠthere.": 825, "ĠĠAnerkennung": 826, "ĠĠhop": 827, "ĠĠGar": 828, "ĠĠcho": 829, "ĠĠDavid": 830, "order": 831, "ĠĠbetroffenen": 832, "ĠĠareas": 833, "ision": 834, "ĠĠstimm": 835, "mpt": 836, "olle": 837, "ĠĠearn": 838, "ĠĠunterbreit": 839, "ĠĠregular": 840, "ĠĠStaats": 841, "ork": 842, "ĠĠc": 843, "v": 844, "un": 845, "ung,": 846, "ĠĠcoordin": 847, "ĠĠzunehm": 848, "ĠĠber": 849, "nahme": 850, "ĠĠdist": 851, "ikel": 852, "ĠĠCelt": 853, "ĠĠalles": 854, "ĠĠ3.": 855, "ĠĠgem": 856, "ĠĠsupport": 857, "ix": 858, "ant": 859, "lex": 860, "ublic": 861, "ĠĠdeter": 862, "infe": 863, "gemäß": 864, "ĠĠblie": 865, "fore": 866, "ämp": 867, "ĠĠon.": 868, "ĠĠdadurch": 869, "ĠĠdarin": 870, "4": 871, "ĠĠJahre": 872, "ĠĠkonzentr": 873, "ĠĠinvol": 874, "gr": 875, "loyment": 876, "ĠĠeffects": 877, "erg": 878, "tell": 879, "fäh": 880, "ĠĠviel": 881, "icult": 882, "ĠĠnews": 883, "ĠĠGolan": 884, "mal": 885, "ĠĠSME": 886, "ĠĠ1999": 887, "fond": 888, "rior": 889, "2": 890, "cep": 891, "ĠĠ29": 892, "ĠĠ2015": 893, "ĠĠ8": 894, "ĠĠoffens": 895, "ely": 896, "ĠĠunbedingt": 897, "ĠĠthous": 898, "ĠĠstorms": 899, "ĠĠalten": 900, "andel": 901, "ĠĠ17": 902, "ĠĠoptim": 903, "ĠĠbeige": 904, "ĠĠsetz": 905, "ĠĠKritik": 906, "ĠĠuns": 907, "ĠĠal": 908, "ĠĠBekämpfung": 909, "ĠĠverurs": 910, "ĠĠmid": 911, "spolit": 912, "ĠĠMarch": 913, "ĠĠIhnen": 914, "ĠĠCorbyns": 915, "ĠĠdeath": 916, "ĠĠSpan": 917, "has": 918, "ĠĠbesteht": 919, "ĠĠPortuguese": 920, "ĠĠparliament": 921, "theless": 922, "ĠĠBr": 923, "ĠĠKonflikt": 924, "ĠĠgewährleist": 925, "selv": 926, "leb": 927, "ĠĠrecog": 928, "ĠĠheart": 929, "alled": 930, "ti": 931, "ĠĠens": 932, "ĠĠKonrad": 933, "geb": 934, "though": 935, "ĠĠStunde": 936, "red": 937, "ĠĠkon": 938, "arten": 939, "ĠĠDennoch": 940, "ight,": 941, "ĠĠBinnen": 942, "ken": 943, "ĠĠminute": 944, "ĠĠFurthermore,": 945, "ension": 946, "ächt": 947, "ĠĠEn": 948, "ĠĠnecess": 949, "over": 950, "ĠĠwanted": 951, "ropri": 952, "ĠĠAccording": 953, "006": 954, "ĠĠAnsatz": 955, "ĠĠKatastrophe": 956, "ĠĠhör": 957, "ichtet": 958, "ĠĠno": 959, "ĠĠChampions": 960, "ĠĠnatur": 961, "ĠĠt": 962, "ĠĠApr": 963, "i.": 964, "ĠĠan,": 965, "ĠĠCost": 966, "äst": 967, "gelegten": 968, "ĠĠTr": 969, "tic": 970, "pro": 971, "ĠĠStudenten": 972, "ĠĠNe": 973, "ried": 974, "ĠĠallow": 975, "ĠĠamb": 976, "über": 977, "ichter": 978, "ĠĠMitteilung": 979, "ĠĠimprove": 980, "par": 981, "ance.": 982, "ĠĠClintons": 983, "ĠĠGruppe": 984, "iert.": 985, "err": 986, "men": 987, "ĠĠprom": 988, "ĠĠ-,": 989, "mals": 990, "fung": 991, "ĠĠhousing": 992, "ĠĠpass": 993, "ĠĠSubsidiarität": 994, "ahre": 995, "n,": 996, "ĠĠdurchaus": 997, "ĠĠdanke": 998, "ĠĠbenöt": 999, "ĠĠhinweisen,": 1000, "ĠĠweil": 1001, "G": 1002, "ĠĠ..": 1003, "ategie": 1004, "ĠĠerreichen": 1005, "ĠĠexper": 1006, "er.": 1007, "gesetzt": 1008, "ĠĠarbeit": 1009, "führt.": 1010, "ĠĠdat": 1011, "orted": 1012, "rechen": 1013, "ĠĠU.S.": 1014, "ische": 1015, "ĠĠ(": 1016, "ĠĠpolitischen": 1017, "erve": 1018, "ĠĠjede": 1019, "reen": 1020, "ort": 1021, "uard": 1022, "ĠĠcultural": 1023, "erc": 1024, "ĠĠforce": 1025, "ĠĠsolution": 1026, "buch": 1027, "ay,": 1028, "ĠĠhel": 1029, "ĠĠcur": 1030, "ĠĠsaid.": 1031, "ĠĠorigin": 1032, "ĠĠoff": 1033, "ĠĠ12": 1034, "ĠĠEven": 1035, "ĠĠis,": 1036, "ĠĠpotential": 1037, "ĠĠtherefore": 1038, "ĠĠportug": 1039, "ĠĠhoch": 1040, "haupt": 1041, "ĠĠspeech": 1042, "ĠĠmuß.": 1043, "ĠĠReformen": 1044, "ĠĠdem": 1045, "in,": 1046, "ĠĠJonck": 1047, "urely": 1048, "klar": 1049, "ĠĠclose": 1050, "ĠĠTatsach": 1051, "ĠĠVerpflicht": 1052, "ĠĠbrief": 1053, "ĠĠVertrags": 1054, "F": 1055, "ĠĠculture": 1056, "ĠĠir": 1057, "ĠĠpriv": 1058, "ĠĠEntschließ": 1059, "ielt": 1060, "ĠĠsqu": 1061, ";": 1062, "ional": 1063, "l": 1064, "ĠĠKouch": 1065, "es,": 1066, "ĠĠgen": 1067, "ĠĠdifferent": 1068, "/E": 1069, "ĠĠprobably": 1070, "bestände": 1071, "schließ": 1072, "range": 1073, "ĠĠFinally,": 1074, "ĠĠinsgesamt": 1075, "ĠĠvöllig": 1076, "ĠĠzwischen": 1077, "ĠĠerör": 1078, "ĠĠKl": 1079, "ĠĠIhr": 1080, "j": 1081, "sel": 1082, "ĠĠFern": 1083, "ĠĠcong": 1084, "ĠĠWahr": 1085, "ĠĠfellow": 1086, "ĠĠappear": 1087, "ĠĠweiter": 1088, "ĠĠkommt,": 1089, "ĠĠdriver": 1090, "ĠĠanswer": 1091, "ĠĠderartige": 1092, "ĠĠEinzel": 1093, "land,": 1094, "ĠĠsur": 1095, "ĠĠha": 1096, "ĠĠreforms": 1097, "ĠĠwatch": 1098, "ĠĠhonourable": 1099, "igration": 1100, "oll": 1101, "ĠĠQuart": 1102, "ĠĠbeglückw": 1103, "ĠĠOpfer": 1104, "ĠĠrat": 1105, "ĠĠhar": 1106, "ever,": 1107, "ler": 1108, "ĠĠGuardiol": 1109, "ĠĠimplementation": 1110, "ĠĠbegrüß": 1111, "utin": 1112, "ĠĠVorbereit": 1113, "ĠĠLin": 1114, "ĠĠPrinzip": 1115, "ĠĠcountr": 1116, "ĠĠTeil": 1117, "ĠĠSyrien": 1118, "ĠĠfront": 1119, "ĠĠtop": 1120, "ord": 1121, "ĠĠEQ": 1122, "ĠĠBlick": 1123, "ĠĠdram": 1124, "ĠĠWohl": 1125, "ĠĠstructure": 1126, "ĠĠduring": 1127, "ĠĠNahen": 1128, "ĠĠKapital": 1129, "ĠĠBritain": 1130, "ußer": 1131, "gar": 1132, "ĠĠChr": 1133, "ĠĠHer": 1134, "ĠĠnochmals": 1135, "iges": 1136, "ĠĠheav": 1137, "besch": 1138, "ĠĠabzu": 1139, "ĠĠzu,": 1140, "ĠĠstandard": 1141, "udi": 1142, "ĠĠout": 1143, "fur": 1144, "kraft": 1145, "ĠĠfed": 1146, "ĠĠCar": 1147, "ĠĠPortugal": 1148, "ĠĠsimilar": 1149, "ĠĠall": 1150, "ĠĠRegelung": 1151, "ĠĠsustainable": 1152, "ful": 1153, "-Z": 1154, "ĠĠOt": 1155, "ĠĠgetroffen": 1156, "ĠĠTobin-Steuer": 1157, "ĠĠprovided": 1158, "ĠĠdate": 1159, "arian": 1160, "ĠĠignor": 1161, "ĠĠMio.": 1162, "ia,": 1163, "ĠĠhö": 1164, "ĠĠRegionen": 1165, "ĠĠcust": 1166, "ĠĠUnterstütz": 1167, "ĠĠbilateral": 1168, "ĠĠsens": 1169, "ĠĠreach": 1170, "st": 1171, "ĠĠMinister": 1172, "ĠĠFremden": 1173, "ĠĠbudget": 1174, "ĠĠTigers": 1175, "ĠĠthank": 1176, "ĠĠinvest": 1177, "ĠĠSchong": 1178, "ternative": 1179, "ĠĠHil": 1180, "ĠĠsystem": 1181, "bei": 1182, "ĠĠPra": 1183, "ced": 1184, "ĠĠuntil": 1185, "iß": 1186, "ĠĠTuesday.": 1187, "ĠĠsense": 1188, "ĠĠVers": 1189, "ĠĠgroup": 1190, "ĠĠerschein": 1191, "ĠĠchamp": 1192, "iness": 1193, "ĠĠlassen.": 1194, "ĠĠwid": 1195, "ĠĠzuvor": 1196, "ĠĠAll": 1197, "ĠĠmach": 1198, "ĠĠpercent": 1199, "anten": 1200, "ĠĠnote": 1201, "zentral": 1202, "onnen": 1203, "£": 1204, "ĠĠanalysis": 1205, "ĠĠSA": 1206, "grund": 1207, "ĠĠpeople": 1208, "zu": 1209, "ĠĠDurchführung": 1210, "&": 1211, "teilung": 1212, "ĠĠdies": 1213, "ĠĠC": 1214, "ĠĠdopp": 1215, "ren": 1216, "ĠĠserb": 1217, "ĠĠ19": 1218, "ĠĠApp": 1219, "ĠĠside": 1220, "ĠĠchar": 1221, "ĠĠwom": 1222, "ĠĠhist": 1223, "linie": 1224, "ĠĠpossible": 1225, "ĠĠbemü": 1226, "ement": 1227, "genomm": 1228, "ter": 1229, "ĠĠarrange": 1230, "ruppe": 1231, "ĠĠEs": 1232, "ĠĠfall": 1233, "ĠĠSee": 1234, "ĠĠcompetitiveness": 1235, "-S": 1236, "ather": 1237, "-V": 1238, "ieber": 1239, "ĠĠChin": 1240, "ĠĠbut,": 1241, "itt": 1242, "ĠĠbevor": 1243, "u": 1244, "recht": 1245, "ĠĠGeld": 1246, "ĠĠjen": 1247, "ĠĠforward": 1248, "ĠĠwerden,": 1249, "losigkeit": 1250, "ĠĠprepar": 1251, "vern": 1252, "ĠĠstrict": 1253, "ĠĠkle": 1254, "ĠĠquickly": 1255, "glied": 1256, "ĠĠg": 1257, "ĠĠland": 1258, "head": 1259, "ĠĠMenschen": 1260, "ĠĠwahrscheinlich": 1261, "ückt": 1262, "ĠĠKollegen": 1263, "ĠĠwarn": 1264, "aren": 1265, "ĠĠbleiben": 1266, "ita": 1267, "ĠĠsensitive": 1268, "ĠĠWies": 1269, "wn": 1270, "ĠĠbit": 1271, "while": 1272, "orte": 1273, "ĠĠstressed": 1274, "ĠĠDanish": 1275, "ereich": 1276, "ĠĠscientists": 1277, "conom": 1278, "ĠĠsurgery": 1279, "ĠĠErhöhung": 1280, "ĠĠwesentlichen": 1281, "ĠĠnie": 1282, "ĠĠVerantwortung": 1283, "ĠĠEntscheidung": 1284, "ĠĠschließ": 1285, "ĠĠPl": 1286, "ĠĠfehl": 1287, "ĠĠTat": 1288, "ĠĠBeispiel": 1289, "ĠĠobl": 1290, "ĠĠdurchge": 1291, "ĠĠpowers": 1292, "einschaft": 1293, "ĠĠmost": 1294, "ĠĠex": 1295, "ĠĠdort": 1296, "dings": 1297, "ĠĠVergleich": 1298, "itz": 1299, "minist": 1300, "ure": 1301, "ĠĠSport": 1302, "ĠĠTim": 1303, "lang": 1304, "ĠĠapplicable": 1305, "ĠĠMorgan": 1306, "ĠĠNational": 1307, "ĠĠ$": 1308, "ĠĠsupp": 1309, "ĠĠelse": 1310, "ĠĠsenior": 1311, "inger": 1312, ".00": 1313, "erman": 1314, "ĠĠInformation": 1315, "bour": 1316, "ĠĠgleiche": 1317, "träge": 1318, "haft": 1319, "ĠĠIntegration": 1320, "ĠĠwissen,": 1321, "ĠĠcris": 1322, "ĠĠDänemark": 1323, "ĠĠIsrael": 1324, "ĠĠebenfalls": 1325, "ĠĠaufge": 1326, "lick": 1327, "ĠĠHand": 1328, "ĠĠzusammen": 1329, "essen,": 1330, "(1999)": 1331, "ĠĠBM": 1332, "ody": 1333, "gestellt": 1334, "ĠĠwa": 1335, "ĠĠfrag": 1336, "schaft,": 1337, "immt": 1338, "thing": 1339, "ĠĠwürde.": 1340, "ĠĠRegierungs": 1341, "ĠĠsupervision": 1342, "Z": 1343, "schein": 1344, "rid": 1345, "ĠĠsehe": 1346, "ĠĠfinden": 1347, "ĠĠpopulation": 1348, "-in": 1349, "ĠĠWort": 1350, "ĠĠBrand": 1351, "zeichn": 1352, "ĠĠjeweil": 1353, "ĠĠgestellt": 1354, "ying": 1355, "ove": 1356, "ĠĠGeschäfts": 1357, "besondere": 1358, "ĠĠstehen.": 1359, "tsk": 1360, "nung": 1361, "nern": 1362, "ĠĠInsel": 1363, "ĠĠKommissar,": 1364, "ĠĠHosp": 1365, "ĠĠdamage": 1366, "ĠĠleague": 1367, "ust": 1368, "ĠĠ400": 1369, "ĠĠhom": 1370, "ĠĠtwo": 1371, "ĠĠgeht": 1372, "ĠĠagainst": 1373, "riften": 1374, "ĠĠStrukturfonds": 1375, "ĠĠSander": 1376, "ĠĠneuer": 1377, "ĠĠGewalt": 1378, "ĠĠSe": 1379, "P": 1380, "ĠĠImm": 1381, "arent": 1382, "ĠĠUr": 1383, "atisch": 1384, "ld": 1385, "ĠĠmight": 1386, "ĠĠyears,": 1387, "ĠĠyou,": 1388, "ĠĠann": 1389, "ĠĠQuestion": 1390, "ĠĠillegal": 1391, "iet": 1392, "ĠĠR": 1393, "ĠĠbecome": 1394, "atastrop": 1395, "ĠĠspür": 1396, "ĠĠBell": 1397, "co": 1398, "ated": 1399, "ĠĠavailable": 1400, "mden": 1401, "agement": 1402, "ĠĠDarüber": 1403, "rich": 1404, "ĠĠwirtschaftlichen": 1405, "ĠĠabge": 1406, "ĠĠMäd": 1407, "ross": 1408, "ĠĠresol": 1409, "ĠĠkein": 1410, "üro": 1411, "ĠĠDruck": 1412, "ĠĠDamen": 1413, "este": 1414, "ibility": 1415, "terin": 1416, "lungen": 1417, "th": 1418, "ĠĠsocial": 1419, "schieden": 1420, "venue": 1421, "ĠĠversucht,": 1422, "ĠĠverste": 1423, "uf": 1424, "imension": 1425, "ĠĠBo": 1426, "geleg": 1427, "ĠĠDiskrimin": 1428, "ĠĠ36": 1429, "lichung": 1430, "aged": 1431, "ĠĠgrounds": 1432, "fü": 1433, "ĠĠfamily": 1434, "ĠĠcriminal": 1435, "ĠĠNieder": 1436, "ĠĠausge": 1437, "ĠĠAusführungen": 1438, "ull": 1439, "ĠĠja": 1440, "ĠĠvote": 1441, "ĠĠhall": 1442, "ĠĠ1993": 1443, "-": 1444, "ĠĠexception": 1445, "ĠĠdringend": 1446, "ĠĠr": 1447, "ĠĠbis": 1448, "ĠĠwar,": 1449, "ĠĠwollen.": 1450, "ĠĠtoday.": 1451, "ĠĠindust": 1452, "schn": 1453, "ĠĠProjekt": 1454, "ograph": 1455, "ĠĠStates.": 1456, "igung": 1457, "fonds": 1458, "ĠĠTerr": 1459, "ĠĠerlä": 1460, "ĠĠprivate": 1461, "satz": 1462, "ĠĠPalestin": 1463, "ĠĠRh": 1464, "ĠĠincreas": 1465, "ĠĠhäuf": 1466, "ĠĠliebe": 1467, "ĠĠlatest": 1468, "ations,": 1469, "ĠĠamendment": 1470, "ĠĠVorsch": 1471, "ĠĠfriend": 1472, "ĠĠbetween": 1473, "ĠĠirgend": 1474, "arn": 1475, "gebung": 1476, "gän": 1477, "ĠĠhighl": 1478, "ĠĠallgemein": 1479, "ts,": 1480, "ĠĠscheint": 1481, "ichen": 1482, "ĠĠsetting": 1483, "ile": 1484, "tes": 1485, "ac": 1486, "inc": 1487, "here": 1488, "ĠĠfu": 1489, "mb": 1490, "ĠĠemer": 1491, "ibilities": 1492, "ĠĠviol": 1493, "ĠĠSub": 1494, "ĠĠFuß": 1495, "ĠĠold": 1496, "unter": 1497, "ĠĠkommt": 1498, "ĠĠAngesichts": 1499, "ĠĠPres": 1500, "ĠĠimportance": 1501, "ĠĠVerhandlungen": 1502, "ĠĠeas": 1503, "ständ": 1504, "uro": 1505, "ĠĠ31": 1506, "ĠĠVertreter": 1507, "ĠĠplann": 1508, "lauf": 1509, "oring": 1510, "äischen": 1511, "system": 1512, "ĠĠconflic": 1513, "atel": 1514, "ĠĠFrage": 1515, "ant,": 1516, "ospital": 1517, "tw": 1518, "ĠĠeigenen": 1519, "-Mit": 1520, "ĠĠare": 1521, "imal": 1522, "w": 1523, "dern,": 1524, "ĠĠMerk": 1525, "ĠĠmag": 1526, "kodex": 1527, "ĠĠdurchgeführt": 1528, "ĠĠdirect": 1529, "ĠĠprovisions": 1530, "ĠĠgetan": 1531, "ĠĠWeise": 1532, "meister": 1533, "ĠĠkind": 1534, "durch": 1535, "ates": 1536, "lett": 1537, "ruktur": 1538, "ĠĠpolitische": 1539, "ĠĠGrenzen": 1540, "ĠĠIhrer": 1541, "ĠĠterm": 1542, "keit": 1543, "ĠĠdenke,": 1544, "ĠĠAussprache": 1545, "ĠĠbecom": 1546, "ĠĠdaher": 1547, "ĠĠprice": 1548, "ĠĠrespect": 1549, "ĠĠwords": 1550, "ĠĠcontent": 1551, "ĠĠmaterial": 1552, "ift": 1553, "ĠĠFor": 1554, "ĠĠverfüg": 1555, "ĠĠdisparities": 1556, "ablish": 1557, "curity": 1558, "ĠĠProf": 1559, "ĠĠbl": 1560, "ĠĠGleich": 1561, "ĠĠinteg": 1562, "ĠĠUnternehmer": 1563, "ocratic": 1564, "ĠĠprovide": 1565, "ĠĠGuard": 1566, "ĠĠarea": 1567, "troffen": 1568, "atis": 1569, "ĠĠmöchte,": 1570, "ĠĠentspricht": 1571, "ĠĠperman": 1572, "ĠĠaround": 1573, "ĠĠglob": 1574, "ĠĠyear,": 1575, "ĠĠseries": 1576, "ĠĠnied": 1577, "ĠĠredu": 1578, "ĠĠVitorin": 1579, "ĠĠsystem.": 1580, "ed.": 1581, "ĠĠwelcome": 1582, "ĠĠverw": 1583, "setzung": 1584, "ĠĠeing": 1585, "ĠĠRed": 1586, "ĠĠErfahr": 1587, "atures": 1588, "ettbewer": 1589, "ĠĠman": 1590, "ave": 1591, "ĠĠexp": 1592, "ĠĠformul": 1593, "ĠĠZusammen": 1594, "iere": 1595, "abkommen": 1596, "dex": 1597, "ĠĠjetz": 1598, "ustrie": 1599, "ĠĠhelfen": 1600, "ĠĠannounced": 1601, "amt": 1602, "ĠĠhohen": 1603, "ĠĠimp": 1604, "ĠĠZentral": 1605, "ĠĠRechnung": 1606, "ĠĠlong-term": 1607, "ĠĠqual": 1608, "bare": 1609, "fel": 1610, "ĠĠzuf": 1611, "ĠĠport": 1612, "ĠĠVeränderungen": 1613, "ĠĠwichtig": 1614, "ĠĠÜberprü": 1615, "ennung": 1616, "ĠĠMonate": 1617, "ĠĠgrundleg": 1618, "komm": 1619, "ask": 1620, "atin": 1621, "ĠĠübern": 1622, "igrants": 1623, "ĠĠPresident-in-Office": 1624, "ark": 1625, "ĠĠvor": 1626, "ĠĠexcept": 1627, "ĠĠTür": 1628, "T": 1629, "ĠĠLabour": 1630, "ĠĠbetrachte": 1631, "ĠĠfranzösischen": 1632, "ierung": 1633, "deck": 1634, "drück": 1635, "ĠĠrespons": 1636, "ĠĠzufolge": 1637, "ĠĠBre": 1638, "ĠĠevery": 1639, "-St": 1640, "iled": 1641, "scha": 1642, "ĠĠparticip": 1643, "ĠĠHung": 1644, "strum": 1645, "ĠĠPar": 1646, "ĠĠSoll": 1647, "rechte": 1648, "ĠĠsah": 1649, "ĠĠHaushalt": 1650, "IS": 1651, "DP": 1652, "ĠĠLaden": 1653, "eld": 1654, "ĠĠconf": 1655, "ĠĠnachdem": 1656, "ĠĠKran": 1657, "enten": 1658, "ĠĠParlaments": 1659, "ĠĠprov": 1660, "bef": 1661, "ĠĠchann": 1662, "ĠĠgroßen": 1663, "ĠĠStür": 1664, "di": 1665, "ĠĠNeu": 1666, "ĠĠSeit": 1667, "ĠĠthis,": 1668, "ĠĠsolche": 1669, "ĠĠgibt.": 1670, "ĠĠespecial": 1671, "lich.": 1672, "ĠĠif": 1673, "ĠĠthen": 1674, "ĠĠkl": 1675, "ently": 1676, "ĠĠOsten": 1677, "ĠĠstärker": 1678, "ĠĠgewinn": 1679, "ĠĠverehr": 1680, "ĠĠeth": 1681, "ĠĠasyl": 1682, "ĠĠVerletz": 1683, "sche": 1684, "ĠĠRegierungskonferenz": 1685, "ĠĠair": 1686, "ĠĠvess": 1687, "ĠĠindustry": 1688, "bald": 1689, "att": 1690, "ĠĠdemokratischen": 1691, "heit": 1692, "gen.": 1693, "ĠĠBehör": 1694, "ĠĠKatastrophen": 1695, "ĠĠmann": 1696, "sprozeß": 1697, "ĠĠ(F": 1698, "ĠĠTw": 1699, "ĠĠregional": 1700, "ĠĠ10": 1701, "ance,": 1702, "ĠĠstability": 1703, "ĠĠpred": 1704, "ĠĠJul": 1705, "ĠĠSchroed": 1706, "rück": 1707, "ĠĠÄr": 1708, "ess": 1709, "ĠĠGree": 1710, "000": 1711, "ĠĠAussch": 1712, "ff": 1713, "ĠĠeinzu": 1714, "ĠĠhelp": 1715, "ĠĠBeruf": 1716, "ĠĠregards": 1717, "ĠĠgibt,": 1718, "ünftig": 1719, "ĠĠden": 1720, "ares": 1721, "ĠĠeconom": 1722, "ĠĠtry": 1723, "ĠĠaspect": 1724, "ĠĠaller": 1725, "ĠĠQual": 1726, "ĠĠminister": 1727, "ĠĠbzw.": 1728, "ĠĠMensch": 1729, "wegen": 1730, "ĠĠgesch": 1731, "ĠĠDal": 1732, "ĠĠbeg": 1733, "ress.": 1734, "ĠĠeith": 1735, "ĠĠfolgt": 1736, "ĠĠlong": 1737, "ĠĠup.": 1738, "bet": 1739, "ĠĠdoing": 1740, "legenheit": 1741, "ĠĠ2016": 1742, "ĠĠresult": 1743, "tent": 1744, "ĠĠwater": 1745, "ĠĠries": 1746, "ĠĠimpress": 1747, "net": 1748, "ĠĠundert": 1749, "D)": 1750, "ention": 1751, "ĠĠtaken": 1752, "ĠĠNo": 1753, "ĠĠeach": 1754, "ĠĠans": 1755, "ĠĠb": 1756, "ĠĠwo": 1757, "ĠĠpromot": 1758, "ĠĠborder": 1759, "ĠĠSinn": 1760, "ĠĠthat": 1761, "ĠĠcalled": 1762, "ĠĠasked": 1763, "ĠĠhoffe": 1764, "äl": 1765, "ly.": 1766, "ĠĠimm": 1767, "hard": 1768, "ĠĠdead": 1769, "ĠĠEre": 1770, "ĠĠwaren.": 1771, "-H": 1772, "ĠĠMehr": 1773, "reit": 1774, "lie": 1775, "ĠĠseien": 1776, "vert": 1777, "ĠĠCon": 1778, "änd": 1779, "legen": 1780, "ibil": 1781, "erweise": 1782, "ĠĠsollte,": 1783, "wogen": 1784, "ĠĠcons": 1785, "ies,": 1786, "ĠĠKönigreich": 1787, "ĠĠdemand": 1788, "ĠĠletzten": 1789, "ĠĠStandpunkt": 1790, "wirk": 1791, "ĠĠdarunter": 1792, "fte": 1793, "ĠĠÖ": 1794, "ĠĠextremely": 1795, "riff": 1796, "ĠĠmentioned": 1797, "ĠĠnäch": 1798, "ĠĠclaim": 1799, "ĠĠrasch": 1800, "ĠĠcurrency": 1801, "ĠĠprocess": 1802, "ĠĠnotwendig,": 1803, "ĠĠaccep": 1804, "ĠĠsett": 1805, "ĠĠArbeits": 1806, "ĠĠ100": 1807, "ĠĠ20": 1808, "ĠĠstets": 1809, "ĠĠKohä": 1810, "government": 1811, "reif": 1812, "ices": 1813, "ĠĠOr": 1814, "wahl": 1815, "ĠĠAustria": 1816, "aug": 1817, "ment.": 1818, "ou": 1819, "ished": 1820, "-We": 1821, "ĠĠSolidarität": 1822, "ĠĠeffort": 1823, "ĠĠMitgliedstaat": 1824, "ĠĠVerfügung": 1825, "ĠĠchanges": 1826, "ĠĠ2010": 1827, "ĠĠconne": 1828, "esse": 1829, "ĠĠindic": 1830, "s.": 1831, "ĠĠEnerg": 1832, "ĠĠenvironment": 1833, "land": 1834, "wär": 1835, "ival": 1836, "zusch": 1837, "ĠĠPass": 1838, "ĠĠfully": 1839, "halten.": 1840, "ä": 1841, "glich": 1842, "ĠĠimmedi": 1843, "ĠĠsimply": 1844, "ubl": 1845, "ĠĠdri": 1846, "ĠĠhin,": 1847, "uter": 1848, "ĠĠgive": 1849, "ieren.": 1850, "ĠĠfair": 1851, "ĠĠdanken.": 1852, "ĠĠSeptember": 1853, "vest": 1854, "ĠĠeig": 1855, "ĠĠgives": 1856, "bild": 1857, "ĠĠproblems": 1858, "low": 1859, "ball": 1860, "ĠĠsaid,": 1861, "ĠĠBevölkerung": 1862, "ĠĠmeans": 1863, "ĠĠse": 1864, "ĠĠtemp": 1865, "ĠĠDänem": 1866, "ĠĠTages": 1867, "ĠĠmaintain": 1868, "ĠĠsafety": 1869, "ließ": 1870, "ĠĠpleased": 1871, "ĠĠattack": 1872, "ĠĠshopp": 1873, "irm": 1874, "ĠĠMenschen,": 1875, "ĠĠerst": 1876, "ĠĠdel": 1877, "erent": 1878, "ĠĠDev": 1879, "ĠĠour": 1880, "eration": 1881, "unternehmen": 1882, "ĠĠdagegen": 1883, "ĠĠguarante": 1884, "ĠĠversch": 1885, "ĠĠbecause": 1886, "ĠĠRess": 1887, "ute": 1888, "isation": 1889, "ĠĠbureauc": 1890, "ĠĠrepeat": 1891, "ĠĠcontrol": 1892, "ĠĠrecht": 1893, "ĠĠfunding": 1894, "mach": 1895, "ysteme": 1896, "ders": 1897, "ĠĠshown": 1898, "dem": 1899, "ĠĠser": 1900, "vour": 1901, "ĠĠmember": 1902, "ay": 1903, "ĠĠcommer": 1904, "asch": 1905, "ĠĠcondu": 1906, "ĠĠUntersuch": 1907, "bereich": 1908, "ĠĠmar": 1909, "ĠĠsimp": 1910, "schlag": 1911, "ĠĠp.m.": 1912, "ĠĠrail": 1913, "ĠĠParliament.": 1914, "ĠĠGr": 1915, "ĠĠeigene": 1916, "ĠĠFragen": 1917, "ĠĠO": 1918, "alt": 1919, "ĠĠUngleich": 1920, "ĠĠwerde": 1921, "ĠĠmüss": 1922, "ĠĠsaying": 1923, "reci": 1924, "bed": 1925, "ĠĠdis": 1926, "elta": 1927, "ĠĠFreiheit": 1928, "ĠĠHaushalts": 1929, "ĠĠEmpfehl": 1930, "ges": 1931, "ĠĠcommitted": 1932, "ĠĠsl": 1933, "ĠĠSt": 1934, "wohl": 1935, "ĠĠangesprochen": 1936, "ĠĠpre": 1937, "omin": 1938, "ĠĠConference": 1939, "ĠĠParliament,": 1940, "ĠĠnam": 1941, "ispiel": 1942, "ĠĠgroße": 1943, "ĠĠniedrig": 1944, "ĠĠerwähn": 1945, "ĠĠGild": 1946, "ĠĠRicht": 1947, "cing": 1948, "ĠĠcome": 1949, "ĠĠmarket,": 1950, "ĠĠWe": 1951, "ĠĠefficien": 1952, "ĠĠCroatia": 1953, "ĠĠproposed": 1954, "ĠĠsprech": 1955, "hilfe": 1956, "ĠĠHinblick": 1957, "ennen,": 1958, "ĠĠPro": 1959, "ĠĠverschiedenen": 1960, "wes": 1961, "ĠĠBruss": 1962, "omp": 1963, "streaming": 1964, "ĠĠcontinue": 1965, "out": 1966, "ĠĠDam": 1967, "x": 1968, "ĠĠpers": 1969, "ĠĠPrent": 1970, "ĠĠproduction": 1971, "ĠĠable": 1972, "ĠĠdoc": 1973, "ours": 1974, "ĠĠTrain": 1975, "uth": 1976, "ĠĠEntwick": 1977, "ĠĠKraft": 1978, "ĠĠWie": 1979, "CO": 1980, "ĠĠEd": 1981, "icht": 1982, "ĠĠLut": 1983, "ĠĠFinanzm": 1984, "ĠĠModernisierung": 1985, "ĠĠhard": 1986, "ĠĠLeg": 1987, "ĠĠSache": 1988, "ĠĠharm": 1989, "ĠĠtru": 1990, "ĠĠdifferen": 1991, "ĠĠJanuary": 1992, "ĠĠBeschäft": 1993, "standen": 1994, "ĠĠship": 1995, "ĠĠstellen,": 1996, "ährend": 1997, "ancial": 1998, "ittle": 1999, "tem": 2000, "ichten": 2001, "ĠĠred": 2002, "ĠĠwer": 2003, "ĠĠerklär": 2004, "ĠĠbedeutet": 2005, "fortun": 2006, "länder": 2007, "ĠĠ500": 2008, "ĠĠPresse": 2009, "ĠĠbeton": 2010, "ĠĠverbess": 2011, "ĠĠmoney": 2012, "ĠĠSelbst": 2013, "ĠĠprecisely": 2014, "ĠĠEntlastung": 2015, "S)": 2016, "arbeiten": 2017, "ĠĠgemacht": 2018, "lich,": 2019, "ĠĠfew": 2020, "weit": 2021, "ĠĠnext": 2022, "and,": 2023, "plan": 2024, "igh": 2025, "ären": 2026, "ĠĠfo": 2027, "ĠĠit": 2028, "ĠĠwealth": 2029, "ĠĠErgebnisse": 2030, "ĠĠinitiative": 2031, "iveness": 2032, "ity": 2033, "ĠĠfollowing": 2034, "ĠĠRepublic": 2035, "ĠĠunserer": 2036, "itze": 2037, "ens": 2038, "ue": 2039, "ĠĠHauses": 2040, "ĠĠa": 2041, "ĠĠUSA": 2042, "ĠĠletzte": 2043, "ĠĠvoraus": 2044, "ĠĠReal": 2045, "ĠĠest": 2046, "gewicht": 2047, "ĠĠroad": 2048, "ĠĠeinges": 2049, "zeich": 2050, "ĠĠZwe": 2051, "ib": 2052, "verb": 2053, "ĠĠremember": 2054, "more,": 2055, "ĠĠgent": 2056, "ith": 2057, "ĠĠgew": 2058, "ĠĠ30": 2059, "ĠĠpoll": 2060, "ĠĠVo": 2061, "ĠĠcas": 2062, "ĠĠ%": 2063, "ĠĠinvolved": 2064, "ĠĠbess": 2065, "ĠĠhervor": 2066, "ĠĠAfter": 2067, "mäß": 2068, "ĠĠled": 2069, "ason": 2070, "ĠĠKolleg": 2071, "ĠĠErgebnis": 2072, "rom": 2073, "ĠĠstark": 2074, "ĠĠSchlüssel": 2075, "ific": 2076, "ĠĠSituation": 2077, "ĠĠPap": 2078, "ĠĠerzähl": 2079, "ĠĠpe": 2080, "ĠĠSinne": 2081, "ĠĠLandes": 2082, "ĠĠdemocratic": 2083, "ĠĠSch": 2084, "ĠĠcyc": 2085, "wor": 2086, "ĠĠsetzen": 2087, "ĠĠcharac": 2088, "ĠĠvielleicht": 2089, "rael": 2090, "ĠĠsomit": 2091, "ĠĠDokument": 2092, "ĠĠresponse": 2093, "que": 2094, "ge": 2095, "ĠĠfund": 2096, "iert": 2097, "L": 2098, "ĠĠKandidaten": 2099, "istet": 2100, "ards": 2101, "ĠĠrech": 2102, "ĠĠamoun": 2103, "ĠĠfail": 2104, "ĠĠmaximum": 2105, "ĠĠLeague": 2106, "ĠĠkünftig": 2107, "ĠĠPlen": 2108, "ĠĠj": 2109, "ighted": 2110, "ĠĠav": 2111, "ĠĠFel": 2112, "ĠĠtext": 2113, "ĠĠFahr": 2114, "ĠĠSw": 2115, "ĠĠFlücht": 2116, "ĠĠtechnical": 2117, "abor": 2118, "ĠĠalong": 2119, "ĠĠSince": 2120, "altet": 2121, "ĠĠpack": 2122, "enc": 2123, "ĠĠändern": 2124, "ĠĠDs": 2125, "quate": 2126, "we": 2127, "akt": 2128, "ĠĠwürden,": 2129, "ved": 2130, "ĠĠländlichen": 2131, "bedingungen": 2132, "ĠĠDok": 2133, "ĠĠGeneraldire": 2134, "elt": 2135, "ession": 2136, "ĠĠind": 2137, "ĠĠlonger": 2138, "ĠĠetw": 2139, "er": 2140, "ĠĠ9": 2141, "ĠĠJo": 2142, "ĠĠGrün": 2143, "en?": 2144, "ĠĠ(FR)": 2145, "ĠĠrapporteur": 2146, "ĠĠsust": 2147, "elt,": 2148, "ĠĠbreit": 2149, "ĠĠteach": 2150, "ĠĠPräsidentin": 2151, "ĠĠbeant": 2152, "ĠĠlaw": 2153, "ĠĠinj": 2154, "ĠĠmiss": 2155, "ĠĠFin": 2156, "ĠĠago": 2157, "ments": 2158, "gn": 2159, "ĠĠermö": 2160, "ĠĠpro": 2161, "ĠĠvergangenen": 2162, "wür": 2163, "ĠĠMember": 2164, "ĠĠemployment": 2165, "ĠĠdisaster,": 2166, "ĠĠenterpris": 2167, "iew": 2168, "ĠĠlet": 2169, "ĠĠcandid": 2170, "ĠĠgere": 2171, "ĠĠill": 2172, "ĠĠbure": 2173, "ĠĠgiven": 2174, "wand": 2175, "ĠĠwenige": 2176, "atives": 2177, "same": 2178, "ĠĠöffentlichen": 2179, "ĠĠnotwendig": 2180, "ätigkeit": 2181, "ĠĠumfangreich": 2182, "ĠĠBel": 2183, "ĠĠwhether": 2184, "ĠĠkeiner": 2185, "ĠĠEurop": 2186, "ĠĠactivity": 2187, "ĠĠgeb": 2188, "ĠĠexisting": 2189, "ĠĠhere": 2190, "ĠĠclearly": 2191, "ĠĠDemokrat": 2192, "legen,": 2193, "ĠĠcolle": 2194, "lauen": 2195, "ĠĠTelef": 2196, "ĠĠnegative": 2197, "ĠĠreal": 2198, "ĠĠäußerster": 2199, "ieren": 2200, "ĠĠtransport": 2201, "ĠĠIsraeli": 2202, "ĠĠGene": 2203, "ĠĠreceived": 2204, "ĠĠCEN": 2205, "-E": 2206, ")": 2207, "ĠĠbeha": 2208, "ions.": 2209, "ĠĠwesent": 2210, "ĠĠbezug": 2211, "heim": 2212, "finden": 2213, "ĠĠBedenken": 2214, "ĠĠauch": 2215, "ĠĠ1998": 2216, "sichtlich": 2217, "ĠĠArbeitnehmer": 2218, "ĠĠlie": 2219, "ĠĠlos": 2220, "ĠĠrelationship": 2221, "ĠĠsie.": 2222, "ht,": 2223, "ialog": 2224, "ĠĠständ": 2225, "art": 2226, "rig": 2227, "ĠĠGesamt": 2228, "ĠĠdep": 2229, "ĠĠaus": 2230, "ĠĠzust": 2231, "ĠĠbel": 2232, "och": 2233, "ĠĠbasis": 2234, "ĠĠStevens": 2235, "ĠĠWahl": 2236, "ises": 2237, "tro": 2238, "eschä": 2239, "atisf": 2240, "ĠĠZinser": 2241, "ĠĠvisit": 2242, "aut": 2243, "ĠĠwegen": 2244, "ĠĠEx": 2245, "18": 2246, "ĠĠNov": 2247, "ĠĠKarls": 2248, "ĠĠinsbesondere": 2249, "ible.": 2250, "ux": 2251, "ument": 2252, "annt": 2253, "ĠĠbefür": 2254, "ĠĠworth": 2255, "iter": 2256, "ĠĠhigher": 2257, "iver": 2258, ").": 2259, "schaften": 2260, "itäts": 2261, "ĠĠTot": 2262, "ĠĠtask": 2263, "ĠĠaccording": 2264, "ĠĠPlenum": 2265, "ĠĠsei": 2266, "ĠĠgoal": 2267, "ĠĠParlament,": 2268, "itel": 2269, "enef": 2270, "legung": 2271, "e,": 2272, "ĠĠgemeinsam": 2273, "ĠĠine": 2274, "ĠĠPortugu": 2275, "ĠĠconcerned": 2276, "ĠĠGespräche": 2277, "ĠĠfilm": 2278, "ighten": 2279, "ĠĠBush": 2280, "ented": 2281, "ste": 2282, "ĠĠcase,": 2283, "fert": 2284, "ĠĠenorm": 2285, "ĠĠDan": 2286, "ĠĠart": 2287, "ible": 2288, "ĠĠCorbyn": 2289, "atter": 2290, "prochen": 2291, "umen": 2292, "öffent": 2293, "ĠĠpossibility": 2294, "ĠĠintern": 2295, "ĠĠgranted": 2296, "ĠĠaber": 2297, "ĠĠnachhalt": 2298, "ike": 2299, "sbe": 2300, "ĠĠraise": 2301, "6": 2302, "walt": 2303, "maß": 2304, "ĠĠcheck": 2305, "ĠĠwährend": 2306, "ĠĠDon": 2307, "heb": 2308, "ben": 2309, "ĠĠsteel": 2310, "ĠĠProbleme": 2311, "ĠĠunterstütz": 2312, "ĠĠsales": 2313, "ĠĠVerständ": 2314, "ĠĠsondern": 2315, "ĠĠschwier": 2316, "ĠĠlange": 2317, "ĠĠDann": 2318, "ĠĠSchließlich": 2319, "ĠĠverletz": 2320, "ĠĠBericht": 2321, "ĠĠExperts": 2322, "ĠĠberücksichtigt": 2323, "-Off": 2324, "ĠĠVergangenheit": 2325, "ĠĠMeiner": 2326, "ĠĠGesetzgebung": 2327, "pe": 2328, "änderung": 2329, "ĠĠlevel,": 2330, "ĠĠquestion.": 2331, "ĠĠPflicht": 2332, "rib": 2333, "ĠĠMilliar": 2334, "ĠĠeinem": 2335, "ĠĠcrisis": 2336, "ĠĠErwartungen": 2337, "@": 2338, "ĠĠexpected": 2339, "ĠĠuner": 2340, "ung.": 2341, "ĠĠview,": 2342, "ĠĠsan": 2343, "ĠĠMöglichkeit": 2344, "ĠĠsel": 2345, "ktions": 2346, "ĠĠaus,": 2347, "ĠĠsom": 2348, "ĠĠhalt": 2349, "ĠĠas": 2350, "ĠĠafford": 2351, "ĠĠwill": 2352, "ĠĠyoung": 2353, "ĠĠrefer": 2354, "ĠĠdemoc": 2355, "rans": 2356, "ĠĠAbkommen": 2357, "ĠĠkönnen": 2358, "ĠĠcrim": 2359, "ĠĠgiving": 2360, "-M": 2361, "ĠĠtradition": 2362, "ettbewerb": 2363, "ĠĠProsecutor": 2364, "ĠĠAsylbewer": 2365, "ĠĠArbeitsplätz": 2366, "ĠĠBezug": 2367, "ĠĠmean": 2368, "ĠĠFr": 2369, "uer": 2370, "ĠĠaus.": 2371, "fore,": 2372, "ĠĠcommunic": 2373, "ĠĠAbsch": 2374, "ĠĠlikely": 2375, "ĠĠLeist": 2376, "ĠĠnat": 2377, "ified": 2378, "ĠĠaccommod": 2379, "ĠĠA": 2380, "ĠĠgeneral": 2381, "and": 2382, "ĠĠKo": 2383, "ĠĠintegr": 2384, "ĠĠRechtsvorsch": 2385, "ĠĠArbeitsplätzen": 2386, "hang": 2387, "hem": 2388, "ĠĠwit": 2389, "ĠĠHier": 2390, "ĠĠsent": 2391, "ĠĠbenefit": 2392, "ĠĠWenn": 2393, "ĠĠarr": 2394, "ĠĠcitiz": 2395, "ertain": 2396, "ĠĠwes": 2397, "ĠĠbestimmten": 2398, "ĠĠOrganisation": 2399, "ĠĠSektoren": 2400, "ck": 2401, "absicht": 2402, "ĠĠsince": 2403, "ĠĠrisk": 2404, "ĠĠrestrict": 2405, "ĠĠchild": 2406, "rechtlichen": 2407, "elt.": 2408, "weg": 2409, "ĠĠzuk": 2410, "ibly": 2411, "itäten": 2412, "ßen": 2413, "ĠĠGesch": 2414, "deute": 2415, "maßnahmen": 2416, "ĠĠtaking": 2417, "ĠĠDro": 2418, "ĠĠreve": 2419, "erv": 2420, "ĠĠgemeinschaftlichen": 2421, "yond": 2422, "ĠĠjust": 2423, "ĠĠkomm": 2424, "raucher": 2425, "cond": 2426, "ĠĠpresident": 2427, "ĠĠpar": 2428, "ĠĠReihe": 2429, "HE": 2430, "olid": 2431, "ĠĠEng": 2432, "ĠĠwirksam": 2433, "ice,": 2434, "ĠĠzweiten": 2435, "ĠĠsing": 2436, "ĠĠUmfrage": 2437, "ĠĠCons": 2438, "ĠĠsomething": 2439, "ĠĠU.": 2440, "ĠĠrequired": 2441, "ĠĠgu": 2442, "ĠĠlink": 2443, "ĠĠcorrect": 2444, "ĠĠeinzige": 2445, "ĠĠimprovement": 2446, "ĠĠVitor": 2447, "ĠĠcle": 2448, "ĠĠEntschließung": 2449, "ĠĠErweiterung": 2450, "ĠĠbezie": 2451, "go": 2452, "ĠĠportugies": 2453, "lück": 2454, "zus": 2455, "ward": 2456, "fen,": 2457, "ĠĠregel": 2458, "erk": 2459, "ivität": 2460, "ĠĠBezie": 2461, "ĠĠDis": 2462, "ĠĠbil": 2463, "ĠĠLy": 2464, "ĠĠweniger": 2465, "chte": 2466, "vor": 2467, "ĠĠNat": 2468, "ĠĠeher": 2469, "ĠĠCorby": 2470, "ĠĠweek": 2471, "ĠĠstattfind": 2472, "ĠĠSie": 2473, "ĠĠmorning": 2474, "ĠĠEQUAL": 2475, "ĠĠne": 2476, "ating": 2477, "ĠĠgo": 2478, "ühr": 2479, "ĠĠbeste": 2480, "ĠĠquar": 2481, "ĠĠtrain": 2482, "ĠĠSecondly,": 2483, "ĠĠDoch": 2484, "ĠĠSchul": 2485, "ĠĠzw": 2486, "ĠĠweitere": 2487, "ĠĠbet": 2488, "ird": 2489, "ĠĠcover": 2490, "ĠĠAustral": 2491, "ĠĠeröff": 2492, "ĠĠständig": 2493, "V": 2494, "reib": 2495, "rechts": 2496, "ing": 2497, "leist": 2498, "ĠĠ": 2499, "ĠĠsho": 2500, "ĠĠgeben,": 2501, "ĠĠmajor": 2502, "theless,": 2503, "ĠĠconv": 2504, "ĠĠoperation": 2505, "ĠĠschnell": 2506, "är": 2507, "ironment": 2508, "ĠĠwel": 2509, "ĠĠWei": 2510, "ĠĠprof": 2511, "her": 2512, "ĠĠAlle": 2513, "ĠĠaware": 2514, "ĠĠerw": 2515, "ĠĠdebate": 2516, "ĠĠfinanziellen": 2517, "ĠĠQue": 2518, "schäd": 2519, "ĠĠFrü": 2520, "merksam": 2521, "ĠĠ(H": 2522, "ĠĠbald": 2523, "scheid": 2524, "ĠĠtomorrow": 2525, "ester": 2526, "ĠĠslow": 2527, "ĠĠRo": 2528, "ĠĠerh": 2529, "gend": 2530, "ĠĠjüng": 2531, "ĠĠSach": 2532, "ĠĠIdee": 2533, "han": 2534, "oph": 2535, "ĠĠfraud": 2536, "nisse": 2537, "pendent": 2538, "schaft": 2539, "ĠĠemphas": 2540, "ĠĠexplain": 2541, "ĠĠNevertheless,": 2542, "tember": 2543, "ĠĠo": 2544, "ĠĠWog": 2545, "kämp": 2546, "ĠĠinnerhalb": 2547, "ĠĠanges": 2548, "unt": 2549, "ĠĠWhy": 2550, "governmental": 2551, "ĠĠWege": 2552, "ĠĠEntscheid": 2553, "J": 2554, "ĠĠDeutsche": 2555, "ĠĠTag": 2556, "ĠĠArbeitsm": 2557, "ĠĠdas": 2558, "ĠĠwhile": 2559, "gency": 2560, "ĠĠSol": 2561, "ledge": 2562, "ĠĠextra": 2563, "ĠĠquestions": 2564, "ĠĠ81": 2565, "ĠĠEig": 2566, "ĠĠmonopol": 2567, "ater": 2568, "ĠĠwürde,": 2569, "ĠĠinclud": 2570, "uck": 2571, "lant": 2572, "ändler": 2573, "ĠĠErw": 2574, "ĠĠGericht": 2575, "ia.": 2576, "ĠĠsicher": 2577, "ĠĠworked": 2578, "ĠĠfrü": 2579, "ĠĠrepresent": 2580, "ident": 2581, "au": 2582, "ĠĠbur": 2583, "erst": 2584, "te.": 2585, "iti": 2586, "ĠĠComm": 2587, "ovic": 2588, "ĠĠinstitution": 2589, "ĠĠaddition,": 2590, "chter": 2591, "ĠĠlin": 2592, "ĠĠsector": 2593, "end.": 2594, "ĠĠcirc": 2595, "off": 2596, "ĠĠwurd": 2597, "ĠĠactually": 2598, "rown": 2599, "ĠĠextrem": 2600, "ĠĠproblem": 2601, "ärk": 2602, "ĠĠnotwend": 2603, "ends": 2604, "osition": 2605, "chan": 2606, "ĠĠoffenbar": 2607, "ĠĠdevelopment": 2608, "-2006": 2609, "t.": 2610, "itionen": 2611, "os": 2612, "ĠĠbrought": 2613, "ĠĠAuswirkungen": 2614, "ĠĠcomplete": 2615, "ĠĠVerein": 2616, "ĠĠPersonal": 2617, "ĠĠprü": 2618, "äuf": 2619, "ĠĠtechn": 2620, "lem": 2621, "ĠĠTherefore,": 2622, "ĠĠthem": 2623, "ĠĠinterinstitution": 2624, "ĠĠgestern": 2625, "e.": 2626, "aun": 2627, "ĠĠHinweis": 2628, "ĠĠrespond": 2629, "ĠĠGer": 2630, "ch": 2631, "ield": 2632, "ĠĠSun": 2633, "ĠĠMa": 2634, "ĠĠmeine,": 2635, "ĠĠinjur": 2636, "aks": 2637, "ĠĠChina": 2638, "ĠĠwichtiger": 2639, "so": 2640, "ĠĠprepared": 2641, "ĠĠInform": 2642, "ĠĠAus": 2643, "ĠĠherr": 2644, "ther": 2645, "igten": 2646, "ĠĠweiß": 2647, "cons": 2648, "ĠĠKrit": 2649, "ĠĠViele": 2650, "ĠĠmir": 2651, "ent,": 2652, "ĠĠHälfte": 2653, "ĠĠLuf": 2654, "ĠĠbef": 2655, "ĠĠDebatte": 2656, "ĠĠliability": 2657, "ĠĠüber": 2658, "ĠĠrun": 2659, "ĠĠpartners": 2660, "99": 2661, "ire": 2662, "oss": 2663, "ĠĠNie": 2664, "ĠĠyou": 2665, "ĠĠSpitze": 2666, "ĠĠwettbewerb": 2667, "ĠĠerste": 2668, "zeit": 2669, "ĠĠakt": 2670, "ĠĠStudie": 2671, "ĠĠRegeln": 2672, "ĠĠJun": 2673, "ĠĠProzeß": 2674, "ĠĠVorschriften": 2675, "ĠĠUnsere": 2676, "ĠĠre": 2677, "ĠĠtreat": 2678, "ri": 2679, "ittee": 2680, "ĠĠschw": 2681, "ould": 2682, "ĠĠsum": 2683, "front": 2684, "ĠĠWest": 2685, "nel": 2686, "ĠĠmy": 2687, "ives": 2688, "ĠĠthemselves": 2689, "ĠĠfre": 2690, "las": 2691, "-e": 2692, "sprogramm": 2693, "ĠĠapproach": 2694, "ĠĠwelche": 2695, "gel": 2696, "ott": 2697, "wirkungen": 2698, "ĠĠauf,": 2699, "ĠĠTransparenz": 2700, "ĠĠführt": 2701, "inter": 2702, "zip": 2703, "rief": 2704, "ĠĠPläne": 2705, "ared": 2706, "ĠĠconsult": 2707, "ĠĠitem": 2708, "ĠĠresources": 2709, "ĠĠnecessary": 2710, "ĠĠdefin": 2711, "ĠĠGü": 2712, "ĠĠMitgliedstaaten,": 2713, "ust,": 2714, "itting": 2715, "ĠĠguid": 2716, "ĠĠMonetary": 2717, "ĠĠMü": 2718, "ennt": 2719, "sterreich": 2720, "ĠĠflex": 2721, "ĠĠidea": 2722, "ĠĠBad": 2723, "ĠĠoblig": 2724, "ulations": 2725, "ĠĠgesagt,": 2726, "ĠĠenl": 2727, "ĠĠlog": 2728, "ĠĠindustr": 2729, "ama": 2730, "gliche": 2731, "ĠĠoil": 2732, "leid": 2733, "gelegt": 2734, "ĠĠfive": 2735, "6/": 2736, "ron": 2737, "rump": 2738, "ĠĠstruct": 2739, "ĠĠneg": 2740, "ĠĠexemption": 2741, "ĠĠappro": 2742, "ĠĠTour": 2743, "lt": 2744, "ĠĠpolicy": 2745, "ĠĠläßt": 2746, "ursday": 2747, "ĠĠdrop": 2748, "ĠĠStraß": 2749, "blick": 2750, "ĠĠZeit": 2751, ".5": 2752, "ĠĠtut": 2753, "ĠĠremind": 2754, "stit": 2755, "ĠĠexamine": 2756, "ĠĠph": 2757, "ĠĠvers": 2758, "-Re": 2759, "an": 2760, "ably": 2761, "ĠĠexch": 2762, "ĠĠacross": 2763, "innen": 2764, "ities": 2765, "ĠĠerfüll": 2766, "ar": 2767, "gesellschaft": 2768, "ĠĠemergency": 2769, "ĠĠDiskussion": 2770, "loy": 2771, "uk": 2772, "ĠĠexc": 2773, "row": 2774, "isiert": 2775, "ĠĠorder": 2776, "ast,": 2777, "urz": 2778, "ter.": 2779, "ĠĠe": 2780, "ism,": 2781, "ĠĠHeute": 2782, "aken": 2783, "ĠĠTrotz": 2784, "ĠĠquite": 2785, "ĠĠPPE": 2786, "E": 2787, "ĠĠspe": 2788, "ĠĠneben": 2789, "ĠĠimag": 2790, "iger": 2791, "aussch": 2792, "ĠĠlevel.": 2793, "ĠĠerhöht": 2794, "resp": 2795, "ĠĠUN": 2796, "hesion": 2797, "ĠĠErika": 2798, "ĠĠWh": 2799, "chsel": 2800, "ĠĠto": 2801, "ĠĠverschieden": 2802, "ested": 2803, "ĠĠTest": 2804, "ĠĠDenmark": 2805, "ĠĠeuropä": 2806, "rit": 2807, "ĠĠlif": 2808, "ĠĠobjective": 2809, "ger": 2810, "aving": 2811, "ĠĠCommission.": 2812, "fahr": 2813, "ifik": 2814, "gefühl": 2815, "ĠĠBetrug": 2816, "ĠĠTank": 2817, "ĠĠentsp": 2818, "ĠĠÖl": 2819, "üb": 2820, "ĠĠweeks": 2821, "ĠĠdec": 2822, "züglich": 2823, "ĠĠget": 2824, "ĠĠterr": 2825, "id": 2826, "ative": 2827, "ĠĠalready": 2828, "$": 2829, "ĠĠFraktion": 2830, "ĠĠnicht,": 2831, "C": 2832, "ĠĠHalb": 2833, "ital": 2834, "ĠĠAbgeordneten": 2835, "ĠĠArt": 2836, "ĠĠform": 2837, "ĠĠcreating": 2838, "ĠĠIde": 2839, "ĠĠSeattle": 2840, "ĠĠnach": 2841, "ound": 2842, "ĠĠagree": 2843, "ĠĠVer": 2844, "ĠĠdavon": 2845, "ĠĠNr.": 2846, "ĠĠprofess": 2847, "fin": 2848, "ĠĠWarum": 2849, "ĠĠGerichtshof": 2850, "ĠĠeines": 2851, "ĠĠinformation": 2852, "ĠĠpict": 2853, "ĠĠSchwierigkeiten": 2854, "ĠĠoffensichtlich": 2855, "ĠĠjedoch": 2856, "rift": 2857, "ĠĠVerkehrs": 2858, "ĠĠOLAF": 2859, "nehmen": 2860, "punkt": 2861, "industrie": 2862, "ĠĠBehörde": 2863, "ĠĠProtokoll": 2864, "rench": 2865, "ĠĠ1": 2866, "ĠĠPark": 2867, "ĠĠInternational": 2868, "ĠĠvielen": 2869, "ĠĠbefore": 2870, "uss": 2871, "ived": 2872, "ĠĠshare": 2873, "ĠĠDetail": 2874, "ĠĠZeit,": 2875, "ĠĠbig": 2876, "ĠĠsummer": 2877, ".": 2878, "ĠĠDollar": 2879, "ĠĠGest": 2880, "lein": 2881, "ĠĠchildren": 2882, "ĠĠact": 2883, "ller": 2884, "ĠĠEnde": 2885, "ĠĠhabe.": 2886, "ĠĠverabschied": 2887, "ĠĠzwei": 2888, "estens": 2889, "iers": 2890, "ritt": 2891, "ĠĠbasic": 2892, "ĠĠverring": 2893, "ĠĠwen": 2894, "ool": 2895, "ĠĠprec": 2896, "räsent": 2897, "ĠĠnimmt": 2898, "ilm": 2899, "ĠĠBemerk": 2900, "pend": 2901, "mp": 2902, "isse": 2903, "pl": 2904, "ĠĠfünf": 2905, "ĠĠCourt": 2906, "gramm": 2907, "ĠĠein.": 2908, "oment": 2909, "ĠĠourselves": 2910, "stimm": 2911, "ĠĠon": 2912, "ĠĠindeed": 2913, "ĠĠern": 2914, "ĠĠteilweise": 2915, "öt": 2916, "oci": 2917, "ording": 2918, "ĠĠhundred": 2919, "ĠĠäußerst": 2920, "ter,": 2921, "ĠĠfinanzielle": 2922, "troll": 2923, "ĠĠemployees": 2924, "ĠĠFrieden": 2925, "ĠĠWood": 2926, "ĠĠmark": 2927, "ĠĠdistrib": 2928, "ĠĠthing": 2929, "ader": 2930, "ug": 2931, "ĠĠMill": 2932, "ĠĠBerlin": 2933, "ĠĠinstead": 2934, "ĠĠihrer": 2935, "ĠĠapplic": 2936, "t:": 2937, "ös": 2938, "ĠĠnehmen,": 2939, "ĠĠgroß": 2940, "ĠĠtra": 2941, "ĠĠyear": 2942, "ĠĠdirector": 2943, "ĠĠSicht": 2944, "ĠĠgeht,": 2945, "ruct": 2946, "alth": 2947, "ĠĠWach": 2948, "ĠĠup": 2949, "40": 2950, "ĠĠprovid": 2951, "enden": 2952, "ungen": 2953, "ĠĠBeschlüss": 2954, "ĠĠgovernment": 2955, "ĠĠAnsicht": 2956, "ĠĠBrit": 2957, "ĠĠintroduce": 2958, "ĠĠLeider": 2959, "ĠĠStrafver": 2960, "ĠĠresponsibility": 2961, "ĠĠHowever,": 2962, "ĠĠHinsicht": 2963, "ĠĠerreichen,": 2964, "ĠĠtax": 2965, "ĠĠperiod": 2966, "ĠĠNach": 2967, "racht": 2968, "ĠĠstaff": 2969, "ĠĠErreich": 2970, "ĠĠwell,": 2971, "ĠĠprevious": 2972, "ĠĠverbind": 2973, "ĠĠendlich": 2974, "ĠĠwhen": 2975, "ĠĠGro": 2976, "ĠĠProduk": 2977, "ĠĠunterstützt": 2978, "rund": 2979, "ĠĠbusiness": 2980, "ĠĠint": 2981, "ĠĠYork": 2982, "öglichkeit": 2983, "ĠĠwobei": 2984, "ought": 2985, "sen": 2986, "come": 2987, "yal": 2988, "ĠĠPrime": 2989, "lüssel": 2990, "ĠĠHäl": 2991, "ĠĠdisasters": 2992, "ĠĠüb": 2993, "rahmen": 2994, "9": 2995, "unities": 2996, "schreit": 2997, "ĠĠdoch": 2998, "ĠĠFühr": 2999, "ĠĠstrength": 3000, "ĠĠStell": 3001, "ĠĠRegional": 3002, "ĠĠoutside": 3003, "ĠĠwäre,": 3004, "ĠĠVerbesserung": 3005, "ĠĠOrgan": 3006, "ĠĠgele": 3007, "ing,": 3008, "ĠĠsuperv": 3009, "ĠĠÄnderungen": 3010, "ĠĠspending": 3011, "ĠĠhaving": 3012, "ĠĠvö": 3013, "ĠĠnoch": 3014, "ĠĠwith": 3015, "ĠĠrespect,": 3016, "ĠĠproceed": 3017, "ĠĠpoints": 3018, "ĠĠschließlich": 3019, "ĠĠvery": 3020, "a,": 3021, "ĠĠ.": 3022, "ĠĠmoment": 3023, "ĠĠFrank": 3024, "lichen": 3025, "ĠĠErklär": 3026, "ĠĠjob": 3027, "falt": 3028, "ĠĠkonnte": 3029, "tens": 3030, "kt": 3031, "sitz": 3032, "ian": 3033, "ah": 3034, "ĠĠbeträcht": 3035, "infektionsmittel": 3036, "ĠĠWil": 3037, "ĠĠrates": 3038, "ĠĠresponsible": 3039, "ĠĠlassen": 3040, "lemen": 3041, "ichts": 3042, "ĠĠander": 3043, "#": 3044, "ĠĠren": 3045, "ĠĠProdi": 3046, "präsident": 3047, "ĠĠauf": 3048, "ĠĠobjectives": 3049, "ĠĠwaren": 3050, "ett": 3051, "ĠĠimplementing": 3052, "halb": 3053, "ächlich": 3054, "ĠĠMillionen": 3055, "-p": 3056, "ĠĠRecht": 3057, "ock": 3058, "ĠĠFirstly,": 3059, "ĠĠsie": 3060, "lehn": 3061, "ĠĠHo": 3062, "ion.": 3063, "ĠĠquestion": 3064, "ĠĠG": 3065, "ĠĠseveral": 3066, "ur": 3067, "-s": 3068, "ran": 3069, "ĠĠcre": 3070, "linge": 3071, "ĠĠDesign": 3072, "ĠĠagain.": 3073, "lying": 3074, "ĠĠimmer": 3075, "ĠĠpresent": 3076, "ster": 3077, "oint": 3078, "ĠĠdue": 3079, "ĠĠkönnte": 3080, "ĠĠSm": 3081, "ĠĠcompan": 3082, "ĠĠkönnten": 3083, "ĠĠmyself": 3084, "arante": 3085, "ĠĠschem": 3086, "ĠĠvert": 3087, "ĠĠindustrial": 3088, "ĠĠVerhal": 3089, "zeitig": 3090, "action": 3091, "ĠĠreport.": 3092, "beit": 3093, "-year": 3094, "ĠĠsafe": 3095, "ĠĠattemp": 3096, "cess": 3097, "ĠĠissues": 3098, "teten": 3099, "ĠĠ14": 3100, "ĠĠalso": 3101, "ĠĠscientific": 3102, "ĠĠsollte": 3103, "ĠĠThema": 3104, "ĠĠreform.": 3105, "ĠĠVersuch": 3106, "ĠĠjed": 3107, "ĠĠRand": 3108, "ĠĠDe": 3109, "ancen": 3110, "ĠĠmess": 3111, "ĠĠoffen": 3112, "ĠĠGeschichte": 3113, "ĠĠtrade": 3114, "ĠĠposit": 3115, "ĠĠsea": 3116, "utzen": 3117, "ĠĠSup": 3118, "ĠĠ-": 3119, "ĠĠStaatsanwalt": 3120, "tet,": 3121, "cel": 3122, "ĠĠarm": 3123, "ĠĠspent": 3124, "gestell": 3125, "ĠĠopinion,": 3126, "ĠĠDecember": 3127, "ten": 3128, "ĠĠerster": 3129, "ĠĠstrateg": 3130, "ĠĠhalf": 3131, "ven": 3132, "politik": 3133, "ĠĠparagraph": 3134, "ĠĠchance": 3135, "ĠĠArbeitsplätze": 3136, "aff": 3137, "ĠĠAsyl": 3138, "ated,": 3139, "aß": 3140, "raft": 3141, "ĠĠhäufig": 3142, "atur": 3143, "ĠĠführen,": 3144, "fehl": 3145, "unden,": 3146, "ĠĠsub": 3147, "outh": 3148, "ĠĠHal": 3149, "ik": 3150, "ĠĠclos": 3151, "ĠĠsuggest": 3152, "ĠĠShe": 3153, "ĠĠEv": 3154, "ĠĠwrong": 3155, "ĠĠUnternehmens": 3156, "ĠĠlater": 3157, "mehr": 3158, "gen,": 3159, "ĠĠRich": 3160, "ĠĠbut": 3161, "ĠĠVorhaben": 3162, "ĠĠgest": 3163, "ĠĠSa": 3164, "nell": 3165, "iol": 3166, "ilar": 3167, "ule": 3168, "er,": 3169, "ĠĠdown": 3170, "ect": 3171, "ĠĠexecutive": 3172, "ĠĠput": 3173, "-F": 3174, "ĠĠDire": 3175, "ĠĠdieser": 3176, "aking": 3177, "ĠĠseems": 3178, "ĠĠilleg": 3179, "ĠĠpower": 3180, "ismus": 3181, "ĠĠZust": 3182, "ĠĠZustimm": 3183, "ĠĠOktober": 3184, "ĠĠEQU": 3185, "ĠĠAusnahme": 3186, "ĠĠeconomic": 3187, "ĠĠOst": 3188, "ĠĠverwend": 3189, "ĠĠFort": 3190, "ĠĠBerichterst": 3191, "ĠĠde": 3192, "ß": 3193, "ĠĠKont": 3194, "ĠĠreported": 3195, "mittel": 3196, "ücksicht": 3197, "ĠĠbeschäft": 3198, "ĠĠPortug": 3199, "ĠĠMal": 3200, "ĠĠSolidar": 3201, "ĠĠrestr": 3202, "ĠĠBürger": 3203, "ĠĠoffice": 3204, "ĠĠRadio": 3205, "ĠĠavail": 3206, "res": 3207, "ĠĠ,": 3208, "urg": 3209, "ĠĠvier": 3210, "ĠĠLondon": 3211, "ings": 3212, "ĠĠliegt,": 3213, "ĠĠMil": 3214, "ĠĠzahlreiche": 3215, "ĠĠreflect": 3216, "ĠĠkönnte.": 3217, "ĠĠaffair": 3218, "ĠĠdiscip": 3219, "ĠĠnicht": 3220, "ĠĠgesam": 3221, "ĠĠdisapp": 3222, "haltung": 3223, "ĠĠPalest": 3224, "ĠĠführen": 3225, "..": 3226, "acht": 3227, "ĠĠSicherheitsber": 3228, "ĠĠgef": 3229, "ware": 3230, "gan": 3231, "ĠĠRepublikan": 3232, "ĠĠgar": 3233, "ampions": 3234, "ĠĠconsequen": 3235, "ĠĠernst": 3236, "ĠĠfunktion": 3237, "ĠĠbeyond": 3238, "tz": 3239, "ĠĠSchwer": 3240, "ĠĠbegr": 3241, "ĠĠcapital": 3242, "ĠĠWaffen": 3243, "ĠĠsh": 3244, "ĠĠplans": 3245, "ĠĠpress": 3246, "igers": 3247, "ĠĠOff": 3248, "hn": 3249, "ĠĠexact": 3250, "ĠĠgerecht": 3251, "sh": 3252, "ĠĠhapp": 3253, "ĠĠplanning": 3254, "sprinzip": 3255, "ual": 3256, "ĠĠregionale": 3257, "ĠĠApril": 3258, "ĠĠconduct": 3259, "irst": 3260, "ĠĠpublished": 3261, "ĠĠResolution": 3262, "sidiar": 3263, "ĠĠSchongau": 3264, "able": 3265, "ĠĠMai": 3266, "ystem": 3267, "round": 3268, "örder": 3269, "aus": 3270, "lles": 3271, "ĠĠecological": 3272, "teil": 3273, "ĠĠabout": 3274, "ĠĠangem": 3275, "ĠĠmich,": 3276, "ĠĠspecial": 3277, "iament": 3278, "ĠĠcountries,": 3279, "ĠĠregard": 3280, "ĠĠtable": 3281, "urm": 3282, "ĠĠMaßnahmen": 3283, "ĠĠsolidarity": 3284, "ĠĠgran": 3285, "ĠĠguten": 3286, "ĠĠDort": 3287, "ĠĠverdient": 3288, "ĠĠGemeinschafts": 3289, "ĠĠway": 3290, "ĠĠfig": 3291, "verständlich": 3292, "ĠĠtakes": 3293, "ĠĠwir": 3294, "ĠĠFlüchtling": 3295, "ĠĠhatte.": 3296, "on,": 3297, "lies": 3298, "ĠĠSpiel": 3299, "ĠĠUnfortunately,": 3300, "ĠĠpriority": 3301, "ĠĠarea.": 3302, "ĠĠSonder": 3303, "ĠĠFrankreich": 3304, "ĠĠMännern": 3305, "ĠĠrece": 3306, "ĠĠfootball": 3307, "(": 3308, "it": 3309, "ĠĠBeziehungen": 3310, "ĠĠres": 3311, "ĠĠdanken,": 3312, "bar": 3313, "ĠĠAspekt": 3314, "ĠĠwird": 3315, "ĠĠrather": 3316, "ek": 3317, "ĠĠMüller": 3318, "ĠĠ(1": 3319, "igkeits": 3320, "ĠĠlearn": 3321, "ĠĠHult": 3322, "ĠĠsoon": 3323, "ĠĠentwick": 3324, "ĠĠgreat": 3325, "ĠĠkurz": 3326, "-General": 3327, "ĠĠ(P": 3328, "ĠĠlik": 3329, "ommen": 3330, "alk": 3331, "ĠĠfü": 3332, "ĠĠben": 3333, "ĠĠGroß": 3334, "gramme": 3335, "wirtschaft": 3336, "öß": 3337, "incip": 3338, "ĠĠdiesem": 3339, "ĠĠnu": 3340, "isher": 3341, "adt": 3342, "ĠĠnieder": 3343, "leas": 3344, "ĠĠtun,": 3345, "ĠĠsind.": 3346, "ĠĠBericht,": 3347, "minister": 3348, "agt": 3349, "ĠĠpolitical": 3350, "ĠĠgleichen": 3351, "ĠĠSim": 3352, "ĠĠSome": 3353, "hib": 3354, "fe": 3355, "ons": 3356, "-re": 3357, "ĠĠequal": 3358, "ĠĠEinfl": 3359, "schie": 3360, "kehr": 3361, "ĠĠtype": 3362, "esen": 3363, "ines": 3364, "ĠĠProbst": 3365, "ĠĠstabil": 3366, "ĠĠwurden": 3367, "rauch": 3368, "ĠĠintens": 3369, "ĠĠev": 3370, "ĠĠübrig": 3371, "ĠĠfin": 3372, "ĠĠDamit": 3373, "ĠĠzumindest": 3374, "ĠĠwissenschaft": 3375, "aten": 3376, "ĠĠMetc": 3377, "ĠĠZu": 3378, "ĠĠplayed": 3379, "ĠĠturn": 3380, "erung": 3381, "rä": 3382, "ĠĠbestehen": 3383, "amental": 3384, "zog": 3385, "ĠĠset": 3386, "ĠĠmovement": 3387, "Ü": 3388, "ĠĠdecisions": 3389, "ĠĠumfass": 3390, "ĠĠschool": 3391, "ĠĠnear": 3392, "€": 3393, "ĠĠeinigen": 3394, "ĠĠAnaly": 3395, "ĠĠEmpfehlungen": 3396, "griff": 3397, "ĠĠwaren,": 3398, "ien,": 3399, "ĠĠrem": 3400, "ĠĠdialogue": 3401, "formation": 3402, "ĠĠportugiesischen": 3403, "ĠĠzuständigen": 3404, "ĠĠColle": 3405, "ĠĠwent": 3406, "ĠĠwäre": 3407, "ĠĠergän": 3408, "ret": 3409, "ĠĠnuclear": 3410, "n.": 3411, "aktionen": 3412, "leun": 3413, "olit": 3414, "ĠĠMus": 3415, "ourn": 3416, "ĠĠbehind": 3417, "attle": 3418, "ĠĠgeehr": 3419, "hne": 3420, "eschäft": 3421, "ĠĠwho": 3422, "ĠĠunc": 3423, "ode": 3424, "gesehen": 3425, "oun": 3426, "ĠĠmonths": 3427, "stitute": 3428, "ions,": 3429, "ĠĠerm": 3430, "ander": 3431, "ĠĠschle": 3432, "ĠĠWill": 3433, "ions": 3434, "ĠĠPS": 3435, "ĠĠhab": 3436, "tschaft": 3437, "ern,": 3438, "kommen.": 3439, "ĠĠJed": 3440, "ĠĠMiß": 3441, "ĠĠdays": 3442, "ĠĠentsch": 3443, "ĠĠsteht.": 3444, "ĠĠunan": 3445, "ĠĠintegration": 3446, "ĠĠrichtige": 3447, "ĠĠgemeinsame": 3448, "wärt": 3449, "ĠĠand,": 3450, "ĠĠPräs": 3451, "spro": 3452, "ĠĠremain": 3453, "ĠĠAusdruck": 3454, "ĠĠseven": 3455, "ĠĠsolchen": 3456, "ĠĠzweite": 3457, "ĠĠwurde,": 3458, "ĠĠthreat": 3459, "ĠĠze": 3460, "fra": 3461, "ĠĠservices": 3462, "ruction": 3463, "ien": 3464, "ĠĠbre": 3465, "ĠĠKar": 3466, "ĠĠguidel": 3467, "ĠĠbetriff": 3468, "ĠĠDieses": 3469, "ĠĠder": 3470, "at": 3471, "ĠĠsubsid": 3472, "se": 3473, "ĠĠrequirements": 3474, "konom": 3475, "ĠĠTransp": 3476, "ünst": 3477, "ĠĠabs": 3478, "ĠĠmarket.": 3479, "ĠĠeffekt": 3480, "ĠĠneu": 3481, "ĠĠsaid": 3482, "ĠĠPrentiss": 3483, "ĠĠaddress": 3484, "stellungs": 3485, "ĠĠmedium": 3486, "ĠĠincorpor": 3487, "ĠĠSozialdem": 3488, "hnt": 3489, "ĠĠRichtung": 3490, "ĠĠIre": 3491, "ĠĠproced": 3492, "ĠĠMang": 3493, "ĠĠWales": 3494, "ĠĠgra": 3495, "ip": 3496, "um": 3497, "ers,": 3498, "ĠĠwill,": 3499, "ĠĠEntschließungsant": 3500, "ĠĠWissenschaft": 3501, "ĠĠStabil": 3502, "ĠĠRech": 3503, "ĠĠprinciple": 3504, "ians": 3505, "ĠĠprob": 3506, "ĠĠclear": 3507, "ilen": 3508, "selves": 3509, "ĠĠUl": 3510, "iken": 3511, "ĠĠWas": 3512, "eng": 3513, "ĠĠvorliegenden": 3514, "ĠĠsp": 3515, "ĠĠerziel": 3516, "entscheid": 3517, "ĠĠKenntnis": 3518, "ĠĠs": 3519, "ĠĠ40": 3520, "ĠĠdauer": 3521, "ĠĠmeisten": 3522, "ĠĠcost": 3523, "ör": 3524, "sm": 3525, "kämpfung": 3526, "ĠĠarg": 3527, "ĠĠunver": 3528, "ap": 3529, "il": 3530, "ĠĠDonald": 3531, "M(1999)": 3532, "eder": 3533, "ĠĠSel": 3534, "ential": 3535, "ĠĠscope": 3536, "ĠĠresident": 3537, "ĠĠUngarn": 3538, "ĠĠgibt": 3539, "ĠĠJuli": 3540, "ham": 3541, "ĠĠraised": 3542, "ĠĠBerichterstatterin": 3543, "lieg": 3544, "ĠĠpublish": 3545, "ĠĠhuman": 3546, "ion,": 3547, "strö": 3548, "iber": 3549, "ün": 3550, "ĠĠführen.": 3551, "ĠĠme": 3552, "%": 3553, "ĠĠoften": 3554, "ĠĠrelevant": 3555, "ĠĠGemein": 3556, "ĠĠwithout": 3557, "us,": 3558, "ĠĠalthough": 3559, "ĠĠTransport": 3560, "ist": 3561, "ält": 3562, "10": 3563, "em": 3564, "ition": 3565, "ĠĠKy": 3566, "ĠĠEuropean": 3567, "akes": 3568, "ict": 3569, "els": 3570, "lock": 3571, "ĠĠmein": 3572, "vious": 3573, "ĠĠleaders": 3574, "rägen": 3575, "ĠĠwurde": 3576, "ĠĠSpek": 3577, "esp": 3578, "ĠĠPosition": 3579, "gut": 3580, "organisation": 3581, "ĠĠStaatsanwaltschaft": 3582, "ĠĠÄ": 3583, "5-000": 3584, "ĠĠtak": 3585, "ĠĠdes": 3586, "ĠĠBy": 3587, "ĠĠreally": 3588, "ĠĠBritish": 3589, "punk": 3590, "ĠĠdarüber": 3591, "ĠĠetwas": 3592, "ĠĠZuständ": 3593, "es": 3594, "5-00": 3595, "ĠĠeindeut": 3596, "rop": 3597, "ĠĠgener": 3598, "ĠĠincrease": 3599, "ĠĠreasons": 3600, "ĠĠKontrolle": 3601, "läge": 3602, "ĠĠterritor": 3603, "ĠĠthis": 3604, "ĠĠVoraus": 3605, "ĠĠwitness": 3606, "ĠĠPresident,": 3607, "ĠĠHin": 3608, "ĠĠEinsatz": 3609, "ĠĠbisher": 3610, "ĠĠactions": 3611, "ĠĠiss": 3612, "ĠĠehr": 3613, "ĠĠwissen": 3614, "ĠĠCommittee": 3615, "ies.": 3616, "ĠĠPe": 3617, "ote": 3618, "zw": 3619, "wegung": 3620, "ĠĠult": 3621, "räge": 3622, "itial": 3623, "ĠĠForsch": 3624, "ĠĠatte": 3625, "ll,": 3626, "beauftrag": 3627, "ünde": 3628, "äische": 3629, "ĠĠVertrag": 3630, "iesen,": 3631, "kauf": 3632, "ĠĠÜberwachung": 3633, "ĠĠParte": 3634, "44": 3635, "weisen,": 3636, "ĠĠgro": 3637, "-T": 3638, "ĠĠthe": 3639, "uelle": 3640, "ĠĠSchw": 3641, "est,": 3642, "line": 3643, "ĠĠeuropäischer": 3644, "ĠĠenormous": 3645, "ĠĠihr": 3646, "ĠĠopinion": 3647, "ĠĠtook": 3648, "ĠĠprogramme": 3649, "ĠĠThom": 3650, "ĠĠMembers": 3651, "ious": 3652, "fen": 3653, "ĠĠwere": 3654, "udge": 3655, "ĠĠSteuer": 3656, "ĠĠwin": 3657, "ĠĠKommissarin": 3658, "k": 3659, "stelle": 3660, "auern": 3661, "ĠĠglaube": 3662, "ĠĠmarkets": 3663, "ĠĠAs": 3664, "ĠĠreview": 3665, "lung": 3666, "R": 3667, "ĠĠKommission.": 3668, "ĠĠ000": 3669, "ĠĠnomin": 3670, "ĠĠhour": 3671, "ĠĠPräsidentschaft": 3672, "ĠĠangesichts": 3673, "olg": 3674, "ĠĠwords,": 3675, "ine": 3676, "ners": 3677, "ĠĠstress": 3678, "ĠĠLuther": 3679, "ĠĠBürokrat": 3680, "ĠĠbestimm": 3681, "liche": 3682, "ĠĠmill": 3683, "trodu": 3684, "ĠĠrapporteur,": 3685, "welt": 3686, "ĠĠMän": 3687, "ĠĠChance": 3688, "cept": 3689, "ĠĠHarmon": 3690, "ärkten": 3691, "ĠĠfish": 3692, "ĠĠprison": 3693, "ĠĠverd": 3694, "imme": 3695, "ĠĠvo": 3696, "ĠĠoder": 3697, "ĠĠunmittel": 3698, "ĠĠGol": 3699, "che": 3700, "vers": 3701, "astung": 3702, "ĠĠsozialen": 3703, "ĠĠvis": 3704, "ĠĠBrussels": 3705, "orn": 3706, "istisch": 3707, "ĠĠche": 3708, "te": 3709, "loss": 3710, "fach": 3711, "ation.": 3712, "ĠĠForderung": 3713, "ĠĠrapid": 3714, "ĠĠzurückge": 3715, "ĠĠgemein": 3716, "abin": 3717, "ĠĠhad": 3718, "ĠĠAbsicht": 3719, "utzung": 3720, "ĠĠBef": 3721, "ĠĠKollegen!": 3722, "ĠĠstell": 3723, "ĠĠspir": 3724, "kon": 3725, "ütz": 3726, "ĠĠdamit": 3727, "ragt": 3728, "ĠĠbeteil": 3729, "erm": 3730, "on": 3731, "ed": 3732, "meter": 3733, "ĠĠBereit": 3734, "-year-old": 3735, "ĠĠhuge": 3736, "ĠĠGroßbrit": 3737, "ĠĠStabilität": 3738, "izin": 3739, "ĠĠvict": 3740, "ĠĠAnsicht,": 3741, "ĠĠcongratulate": 3742, "ĠĠtraff": 3743, "ĠĠUnion.": 3744, "ĠĠall,": 3745, "ĠĠfl": 3746, "ĠĠapplication": 3747, "ĠĠHerz": 3748, "ĠĠArab": 3749, "ĠĠMar": 3750, "ähe": 3751, "ĠĠplace": 3752, "etzt": 3753, "iste": 3754, "ĠĠAspekte": 3755, "ĠĠBellam": 3756, "ieg": 3757, "glieder": 3758, "O": 3759, "ĠĠKommun": 3760, "ĠĠfreedom,": 3761, "ĠĠKre": 3762, "vel": 3763, "ĠĠplenary": 3764, "antwort": 3765, "ĠĠever": 3766, "ĠĠRoth-B": 3767, "ĠĠÖffentlichkeit": 3768, "ĠĠreturn": 3769, "ĠĠDies": 3770, "-Pro": 3771, "ĠĠstellt": 3772, "der": 3773, "hef": 3774, "ĠĠyesterday": 3775, "ĠĠerinn": 3776, "ĠĠJug": 3777, "ĠĠAbstimm": 3778, "ĠĠdraft": 3779, "oon": 3780, "ĠĠWieder": 3781, "iums": 3782, "ĠĠdring": 3783, "is": 3784, "ilt": 3785, "ĠĠauthority": 3786, "kommens": 3787, "ĠĠSubject:": 3788, "ĠĠFar": 3789, "scheinlich": 3790, "ĠĠTagen": 3791, "ffent": 3792, "ĠĠAffair": 3793, "ipl": 3794, "ober": 3795, "ĠĠbeen": 3796, "ĠĠNews": 3797, "emper": 3798, "ĠĠnum": 3799, "ĠĠcompet": 3800, "-R": 3801, "ĠĠSchwier": 3802, "spolitik": 3803, "cher": 3804, "ĠĠaw": 3805, "ungs": 3806, "ĠĠeinge": 3807, "ĠĠFebru": 3808, "ĠĠstud": 3809, "ürlich": 3810, "ĠĠquality": 3811, "ĠĠProgramme": 3812, "ĠĠSchiffe": 3813, "ärz": 3814, "setzungen": 3815, "ĠĠdoub": 3816, "ĠĠgrow": 3817, "ĠĠvielmehr": 3818, "ĠĠmachen.": 3819, "ĠĠerneut": 3820, "ĠĠRegel": 3821, "ĠĠjähr": 3822, "uns": 3823, "ĠĠvern": 3824, "ĠĠble": 3825, "ĠĠregarding": 3826, "ĠĠvon": 3827, "ĠĠsure": 3828, "ĠĠgekommen": 3829, "z,": 3830, "iert,": 3831, "ĠĠparl": 3832, "ĠĠGegen": 3833, "-Te": 3834, "ĠĠincluding": 3835, "ĠĠich,": 3836, "ĠĠHafen": 3837, "ĠĠreference": 3838, "fang": 3839, "ĠĠworden,": 3840, "50": 3841, "ailed": 3842, "ĠĠMarkt": 3843, "h": 3844, "ĠĠThem": 3845, "anz": 3846, "ĠĠAusbild": 3847, "ichterst": 3848, "ĠĠselbst": 3849, "ĠĠ15": 3850, "ĠĠhappened": 3851, "ĠĠfra": 3852, "trol": 3853, "entlich": 3854, "5-0": 3855, "ĠĠhold": 3856, "ĠĠgave": 3857, "ory": 3858, "ĠĠrequest": 3859, "ĠĠregister": 3860, "ĠĠTues": 3861, "ĠĠgovern": 3862, "ĠĠch": 3863, "ĠĠfühl": 3864, "app": 3865, "ĠĠCoun": 3866, "ĠĠappropri": 3867, "irl": 3868, "ĠĠnatürlich": 3869, "ĠĠperp": 3870, "ĠĠsehr": 3871, "osed": 3872, "-L": 3873, "ĠĠFamil": 3874, "ĠĠ197": 3875, "ĠĠfree": 3876, "ĠĠPart": 3877, "ĠĠcomb": 3878, "ĠĠequ": 3879, "undred": 3880, "ĠĠHilfe": 3881, "ĠĠfundamental": 3882, "hungen": 3883, "ĠĠnun": 3884, "eres": 3885, "ĠĠEben": 3886, "ĠĠ11": 3887, "ĠĠconc": 3888, "achen": 3889, "ĠĠnot": 3890, "ĠĠBalk": 3891, "find": 3892, "ĠĠfact,": 3893, "ĠĠhous": 3894, "ĠĠgezogen": 3895, "ose": 3896, "vent": 3897, "ette": 3898, "ĠĠsow": 3899, "aufnahme": 3900, "ĠĠunacceptable": 3901, "ufen": 3902, "spect": 3903, "ĠĠpoin": 3904, "ĠĠinclude": 3905, "richtung": 3906, "ĠĠWen": 3907, "ĠĠdarauf,": 3908, "ĠĠnationaler": 3909, "ĠĠihrem": 3910, "ĠĠbeispielsweise": 3911, "ĠĠjün": 3912, "ĠĠtransparen": 3913, "aat": 3914, "ĠĠAbsatz": 3915, "ĠĠinsges": 3916, "ĠĠdisch": 3917, "ĠĠinn": 3918, "SE": 3919, "D": 3920, "ĠĠerforder": 3921, "ĠĠmedia": 3922, "ĠĠZug": 3923, "op": 3924, "ĠĠfest": 3925, "ĠĠbe": 3926, "ĠĠverantwort": 3927, "ĠĠsicher,": 3928, "ĠĠAußerdem": 3929, "rad": 3930, "lag": 3931, "ĠĠlike": 3932, "3": 3933, "ĠĠVorsitz": 3934, "ction": 3935, "ĠĠTo": 3936, "ĠĠshould": 3937, "ĠĠgern": 3938, "zeichnet": 3939, "ĠĠendgült": 3940, "-J": 3941, "able.": 3942, "ĠĠrequ": 3943, "ĠĠ1,": 3944, "ult": 3945, "ĠĠclosed": 3946, "teid": 3947, "ĠĠGesundheit": 3948, "ĠĠstock": 3949, "ät": 3950, "äss": 3951, "ĠĠ24": 3952, "forderung": 3953, "ĠĠTürke": 3954, "ent": 3955, "d.": 3956, "ĠĠSchaden": 3957, "ĠĠinitiatives": 3958, "ĠĠsatisf": 3959, "ĠĠplan": 3960, "ton": 3961, "ho": 3962, "ĠĠaud": 3963, "ĠĠscore": 3964, "ĠĠÜberein": 3965, "ĠĠ1.": 3966, "ĠĠJuni": 3967, "ĠĠKroatien": 3968, ",5": 3969, "ĠĠemploy": 3970, "ĠĠkam": 3971, "ĠĠDialog": 3972, "flikt": 3973, "ĠĠRechn": 3974, "uls": 3975, "ĠĠsmall": 3976, "ĠĠAuffassung": 3977, "ommend": 3978, "ĠĠdeclared": 3979, "sper": 3980, "ĠĠsafeg": 3981, "ĠĠFall": 3982, "ĠĠweapons": 3983, "igaret": 3984, "ĠĠdro": 3985, "ĠĠspeak": 3986, "ĠĠQ": 3987, "ĠĠWissen": 3988, "ĠĠpersönlichen": 3989, "ĠĠeveryone": 3990, "ĠĠtrust": 3991, "ĠĠboard": 3992, "ĠĠleave": 3993, "ĠĠBem": 3994, "ragen,": 3995, "ĠĠ3": 3996, "fter": 3997, "ĠĠdecentral": 3998, "ility": 3999, "AL": 4000, "ĠĠcountries.": 4001, "ĠĠMitarbeiter": 4002, "llen": 4003, "ĠĠbec": 4004, "werk": 4005, "merk": 4006, "ĠĠHö": 4007, "racy": 4008, "H": 4009, "ĠĠrapporte": 4010, "ĠĠmatter.": 4011, "ĠĠFrei": 4012, "arily": 4013, "ĠĠIndeed,": 4014, "ĠĠAl": 4015, "ande": 4016, "ahmen": 4017, "ĠĠend": 4018, "ĠĠfash": 4019, "(COS)": 4020, "ann": 4021, "ĠĠUnions": 4022, "ĠĠaußerhalb": 4023, "gab": 4024, "ĠĠTreffen": 4025, "ĠĠUnfortun": 4026, "ĠĠbetreff": 4027, "ands": 4028, "ĠĠmeas": 4029, "ĠĠy": 4030, "ĠĠweiteren": 4031, "son": 4032, "ĠĠdessen": 4033, "bür": 4034, "ungen.": 4035, "ĠĠcontin": 4036, "ĠĠes": 4037, "ĠĠanderen": 4038, "ĠĠtreffen": 4039, "ĠĠcurrent": 4040, "ĠĠbefürwor": 4041, "ĠĠinstitutions.": 4042, "ĠĠSturm": 4043, "ĠĠdazu": 4044, "ĠĠcreat": 4045, "ten.": 4046, "idar": 4047, "ĠĠAut": 4048, "ĠĠjeder": 4049, "other": 4050, "igungen": 4051, "ĠĠsome": 4052, "ĠĠgame": 4053, "ĠĠNor": 4054, "ĠĠmeasure": 4055, "ĠĠnow,": 4056, "ĠĠDieser": 4057, "ĠĠcent": 4058, "ĠĠihren": 4059, "ĠĠmod": 4060, "ĠĠhonest": 4061, "ĠĠLond": 4062, "ĠĠsus": 4063, "ye": 4064, "ĠĠschaffen,": 4065, "ransp": 4066, "just": 4067, "ĠĠStelle": 4068, "ner": 4069, "leit": 4070, "ance": 4071, "ĠĠdeal": 4072, "ĠĠwishes": 4073, "hin": 4074, "ĠĠtherefore,": 4075, "denk": 4076, "ĠĠexam": 4077, "ĠĠControl": 4078, "ĠĠMann": 4079, "abel": 4080, "r.": 4081, "ĠĠVerfahr": 4082, "ĠĠEuro": 4083, "ĠĠeinheit": 4084, "ĠĠeverything": 4085, "ĠĠFe": 4086, "ĠĠLinie": 4087, "ĠĠmö": 4088, "laub": 4089, "ĠĠGebiete": 4090, "ĠĠaid": 4091, "ĠĠharmon": 4092, "ĠĠ(H-08": 4093, "ever": 4094, "ĠĠincluded": 4095, "ĠĠEurope,": 4096, "secutor": 4097, "ĠĠdenn": 4098, "ĠĠfamil": 4099, "ĠĠdocument": 4100, "ĠĠJanuar": 4101, "ĠĠVerfahrens": 4102, "com": 4103, "ĠĠFehl": 4104, "ĠĠthird": 4105, "ĠĠfinanz": 4106, "ĠĠdurch": 4107, "ĠĠWeiß": 4108, "ĠĠGel": 4109, "ĠĠKommiss": 4110, "ackard": 4111, "ĠĠcontact": 4112, "ability": 4113, "greif": 4114, "ĠĠfinally": 4115, "be": 4116, "ĠĠAstra": 4117, "ĠĠkeep": 4118, "ĠĠBild": 4119, "ĠĠStates,": 4120, "lan": 4121, "lemented": 4122, "ĠĠsehr,": 4123, "iften": 4124, "itiative": 4125, "ĠĠEin": 4126, "ĠĠFra": 4127, "onn": 4128, "ig": 4129, "ĠĠalle": 4130, "ue,": 4131, "ce.": 4132, "zuführ": 4133, "ĠĠwahr": 4134, "ĠĠallerdings": 4135, "ĠĠeinheitliche": 4136, "ĠĠüberhaupt": 4137, "leased": 4138, "elle": 4139, "behör": 4140, "ĠĠtrue": 4141, "lling": 4142, "ĠĠMore": 4143, "ĠĠEigen": 4144, "ĠĠverpflich": 4145, "zeß": 4146, "ĠĠvar": 4147, "amil": 4148, "itä": 4149, "ĠĠstr": 4150, "ĠĠBeteil": 4151, "ĠĠco": 4152, "ĠĠfe": 4153, "agne": 4154, "fragen": 4155, "ĠĠrefugees.": 4156, "ĠĠglobal": 4157, "ĠĠthan": 4158, "ĠĠreject": 4159, "ĠĠlo": 4160, "ĠĠ1996": 4161, "ittel": 4162, "ĠĠNachricht": 4163, "ĠĠverme": 4164, "-0": 4165, "ĠĠproduce": 4166, "ĠĠar": 4167, "weis": 4168, "gehen,": 4169, "ĠĠParis": 4170, "ĠĠKinder": 4171, "ĠĠincreasing": 4172, "ĠĠcoun": 4173, "nis": 4174, "ĠĠvol": 4175, "ĠĠBellamy": 4176, "ĠĠEinwanderung": 4177, "og": 4178, "ĠĠberu": 4179, "ĠĠLamb": 4180, "jahr": 4181, "elten": 4182, "ĠĠsend": 4183, "K": 4184, "rent": 4185, "agen": 4186, "ünft": 4187, "ĠĠDiese": 4188, "ism": 4189, "ĠĠRuss": 4190, "ĠĠZum": 4191, "ält.": 4192, "ĠĠAuss": 4193, "ĠĠgeänder": 4194, "ights": 4195, "ĠĠabsolute": 4196, "ĠĠgesamten": 4197, "ĠĠverab": 4198, "ĠĠor": 4199, "itu": 4200, "ĠĠRegion": 4201, "ĠĠSüd": 4202, "ĠĠdar": 4203, "ĠĠWährung": 4204, "ĠĠVerantwort": 4205, "25": 4206, "ĠĠconsumer": 4207, "ĠĠKommission": 4208, "ĠĠverlang": 4209, "1.": 4210, "frast": 4211, "teen": 4212, "ĠĠdank": 4213, "irc": 4214, "ĠĠhoff": 4215, "ĠĠZiele": 4216, "oti": 4217, "ĠĠIt": 4218, "ĠĠWeit": 4219, "ts.": 4220, "ĠĠsanitiz": 4221, "ĠĠthought": 4222, "ĠĠDet": 4223, "ĠĠthro": 4224, "ĠĠweap": 4225, "ĠĠmöglich": 4226, "ĠĠMaßnahm": 4227, "ĠĠentsprechenden": 4228, "ĠĠgefähr": 4229, "aul": 4230, "ĠĠFlüchtlinge": 4231, "ce": 4232, "ĠĠdevelop": 4233, "ĠĠbesten": 4234, "obach": 4235, "lement": 4236, "urther": 4237, "arm": 4238, "ragen": 4239, "ĠĠAls": 4240, "ĠĠjedem": 4241, "ĠĠ50": 4242, "eits": 4243, "ĠĠaid.": 4244, "ĠĠrural": 4245, "ĠĠentsprechende": 4246, "ĠĠziemlich": 4247, "ĠĠBudget": 4248, "rächt": 4249, "ij": 4250, "iar": 4251, "ise,": 4252, "ĠĠWhite": 4253, "ĠĠty": 4254, ":0": 4255, "ĠĠHoff": 4256, "burg": 4257, "erence": 4258, "den": 4259, "ĠĠMärz": 4260, "ĠĠBMI": 4261, "jor": 4262, "ĠĠleicht": 4263, "ĠĠJonckhe": 4264, "ĠĠanti": 4265, "ischen": 4266, "ichtlich": 4267, "sch": 4268, "ĠĠro": 4269, "ĠĠTele": 4270, "osp": 4271, "ĠĠWenger": 4272, "igkeit": 4273, "ĠĠCouncil,": 4274, "ier": 4275, "ĠĠ1995": 4276, "ĠĠactivities": 4277, "ages": 4278, "ĠĠele": 4279, "-An": 4280, "ĠĠus": 4281, "ür": 4282, "ĠĠQu": 4283, "ĠĠevent": 4284, "ĠĠhealth": 4285, "ĠĠBe": 4286, "ĠĠklein": 4287, "ĠĠcult": 4288, "ĠĠunemp": 4289, "bur": 4290, "am": 4291, "ĠĠcarried": 4292, "ĠĠRat": 4293, "ĠĠAbgeordne": 4294, "ĠĠfro": 4295, "ĠĠÖffent": 4296, "weise": 4297, "ĠĠRep": 4298, "ĠĠconcerned.": 4299, "ĠĠbie": 4300, "pf": 4301, "ĠĠgl": 4302, "ätz": 4303, "cy": 4304, "ers": 4305, "ĠĠ201": 4306, "fort": 4307, "ĠĠmuß,": 4308, "ĠĠerforderlich,": 4309, "ĠĠmult": 4310, "ĠĠsowohl": 4311, "ĠĠstorm": 4312, "m.": 4313, "ĠĠlisten": 4314, "lossen.": 4315, "ĠĠLeute": 4316, "ra": 4317, "ĠĠWachstum": 4318, "ĠĠho": 4319, "ĠĠBenn": 4320, "ĠĠstat": 4321, "ĠĠparticularly": 4322, "ĠĠmeines": 4323, "ĠĠunter": 4324, "ĠĠchief": 4325, "ĠĠlaws": 4326, "ĠĠguidelines": 4327, "ĠĠauthorities.": 4328, "ots": 4329, "itions": 4330, "ĠĠZugang": 4331, "ateg": 4332, "ĠĠstatt": 4333, "ingen": 4334, "ĠĠDienst": 4335, "ĠĠConferen": 4336, "orm": 4337, "ĠĠH": 4338, "ude": 4339, "ĠĠEbene": 4340, "ĠĠwonder": 4341, "ĠĠanticip": 4342, "ĠĠFlag": 4343, "ogen": 4344, "pite": 4345, "ĠĠregions.": 4346, "ĠĠAk": 4347, "ĠĠinstit": 4348, "ĠĠunfortun": 4349, "gern": 4350, "ĠĠdenk": 4351, "ĠĠök": 4352, "ĠĠCohesion": 4353, "ĠĠ35": 4354, "endes": 4355, "ĠĠintroduced": 4356, "ĠĠCompetition": 4357, "rug": 4358, "ĠĠDenn": 4359, "ieren,": 4360, "ĠĠnationalen": 4361, "ot": 4362, "ĠĠallein": 4363, "ĠĠcoop": 4364, "ape": 4365, "örderung": 4366, "ĠĠsieben": 4367, "länd": 4368, "ĠĠbessere": 4369, "struments": 4370, "istische": 4371, "ution": 4372, "ĠĠagricultural": 4373, "lau": 4374, "oin": 4375, "ĠĠBerichterstatter": 4376, "ide": 4377, "c": 4378, "arte": 4379, "licher": 4380, "ĠĠpat": 4381, "ĠĠziem": 4382, "ĠĠcompetit": 4383, "renz": 4384, "ĠĠfunds": 4385, "ĠĠcomment": 4386, "ĠĠdevelopment,": 4387, "hof": 4388, "ereign": 4389, "ĠĠEnergie": 4390, "uman": 4391, "ĠĠGesprä": 4392, "ĠĠwird.": 4393, "ĠĠZeitraum": 4394, "ĠĠamount": 4395, "ĠĠMon": 4396, "ĠĠlast": 4397, "ĠĠbewuß": 4398, "ĠĠthrough": 4399, "ke": 4400, "ĠĠFörderung": 4401, "ĠĠverhin": 4402, "ĠĠmust": 4403, "ĠĠused": 4404, "uen": 4405, "ĠĠLu": 4406, "ern.": 4407, "ĠĠstep": 4408, "ĠĠobvious": 4409, "ach": 4410, "ĠĠneuen": 4411, "ĠĠnight": 4412, "ĠĠProblem": 4413, "ĠĠcosts": 4414, "ĠĠofficials": 4415, "ĠĠsollten,": 4416, "lichkeit": 4417, "ĠĠFernse": 4418, "ĠĠbank": 4419, "ĠĠcompany": 4420, "ĠĠ2008": 4421, "ĠĠsei.": 4422, "ĠĠindem": 4423, "fahren": 4424, "ĠĠgeben": 4425, "äß": 4426, "ĠĠaccept": 4427, "gest": 4428, "ĠĠadop": 4429, "qu": 4430, "ĠĠ23": 4431, "ĠĠPraxis": 4432, "ayne": 4433, "any": 4434, "ĠĠword": 4435, "ĠĠkommen,": 4436, "ĠĠhowever": 4437, "hing": 4438, "ĠĠvertra": 4439, "ĠĠausführ": 4440, "ĠĠenvis": 4441, "ĠĠBür": 4442, "ĠĠRatspräsident": 4443, "ĠĠmembers": 4444, "ĠĠOber": 4445, "ĠĠerinnern,": 4446, "ĠĠBar": 4447, "ĠĠgarant": 4448, "ĠĠBut,": 4449, "ive": 4450, "ĠĠcrit": 4451, "et.": 4452, "itation": 4453, "ĠĠBin": 4454, "ĠĠDeshalb": 4455, "ĠĠkonkreten": 4456, "teg": 4457, "ĠĠaußer": 4458, "ĠĠbo": 4459, "ĠĠmax": 4460, "isk": 4461, "leben": 4462, "ĠĠUnterstützung": 4463, "ĠĠpres": 4464, "änger": 4465, "ĠĠhis": 4466, "ĠĠgemäß": 4467, "ĠĠpurp": 4468, "nerstag": 4469, "halts": 4470, "ĠĠAkt": 4471, "neh": 4472, "ĠĠbuild": 4473, "ĠĠoper": 4474, "ĠĠGrundsatz": 4475, "ĠĠAmster": 4476, "ĠĠst": 4477, "ically": 4478, "ĠĠyears": 4479, "cks": 4480, "sequent": 4481, "iode": 4482, "ĠĠKon": 4483, "rong": 4484, "ĠĠdarf": 4485, "ĠĠlost": 4486, "ĠĠcompetition,": 4487, "ĠĠeconomy.": 4488, "ĠĠexclus": 4489, "und": 4490, "ĠĠAffairs": 4491, "ience": 4492, "pre": 4493, "ĠĠlevels": 4494, "ĠĠcoup": 4495, "van": 4496, "ĠĠhospital": 4497, "ĠĠchang": 4498, "ĠĠgrant": 4499, "ĠĠangemessen": 4500, "ĠĠCommissioner,": 4501, "ĠĠur": 4502, "ĠĠsid": 4503, "tons": 4504, "ĠĠDaher": 4505, "ĠĠway,": 4506, "ĠĠPal": 4507, "ĠĠprocess.": 4508, "ĠĠkönn": 4509, "ĠĠvorher": 4510, "ĠĠfollow": 4511, "ĠĠsuffered": 4512, "mpath": 4513, "all,": 4514, "ĠĠWohn": 4515, "an,": 4516, "ĠĠB": 4517, "ĠĠalloc": 4518, "ĠĠZ": 4519, "ĠĠVerträge": 4520, "agraph": 4521, "ĠĠmal": 4522, "ĠĠGl": 4523, "ums": 4524, "ourcen": 4525, "unkt": 4526, "ĠĠAnfang": 4527, "ĠĠperson": 4528, "ĠĠhistor": 4529, "ĠĠwirk": 4530, "nes": 4531, "30": 4532, "one": 4533, "ĠĠway.": 4534, "ĠĠspielt": 4535, "ĠĠaway": 4536, "ĠĠhandelt": 4537, "ĠĠPolizei": 4538, "ana": 4539, "ĠĠebenso": 4540, "ĠĠincor": 4541, "ĠĠsagt,": 4542, "ĠĠCouncil.": 4543, "ĠĠSekt": 4544, "lear": 4545, "ĠĠRen": 4546, "ĠĠothers": 4547, "vens": 4548, "kommen": 4549, "s": 4550, "ehm": 4551, "ĠĠCommission,": 4552, "ĠĠeinzel": 4553, "ĠĠadv": 4554, "ĠĠStruktur": 4555, "ĠĠgrößten": 4556, "ĠĠspezif": 4557, "ĠĠöffent": 4558, "ĠĠPre": 4559, "ĠĠLet": 4560, "ĠĠgut,": 4561, "erecht": 4562, "ĠĠtun.": 4563, "zug": 4564, "llig": 4565, "ĠĠso.": 4566, "ordne": 4567, "ĠĠhit": 4568, "ärkt": 4569, "ow": 4570, "ĠĠEUR": 4571, "ifying": 4572, "/": 4573, "anger": 4574, "cc": 4575, "te,": 4576, "ĠĠhon": 4577, "ĠĠreport,": 4578, "ĠĠNicht": 4579, "ĠĠannual": 4580, "en,": 4581, "ĠĠabove": 4582, "ĠĠterms": 4583, "ĠĠinternational": 4584, "adies": 4585, "stellen,": 4586, "ĠĠMode": 4587, "ĠĠstudy": 4588, "gef": 4589, "ĠĠfuture,": 4590, "schied": 4591, "staat": 4592, "gegen": 4593, "indest": 4594, "ht": 4595, "ĠĠwiederhol": 4596, "führt": 4597, "ĠĠGroßbritann": 4598, "ĠĠkept": 4599, "R)": 4600, "M": 4601, "urf": 4602, "ĠĠopt": 4603, "cil": 4604, "ĠĠmuß": 4605, "ĠĠrund": 4606, "ĠĠregret": 4607, "ĠĠl": 4608, "ĠĠplaced": 4609, "ĠĠdenen": 4610, "ĠĠenth": 4611, "ibel": 4612, "katastrop": 4613, "ted": 4614, "ĠĠstraf": 4615, "ĠĠparticular,": 4616, "rec": 4617, "ierungs": 4618, "ĠĠdire": 4619, "ĠĠEntscheidungen": 4620, "ĠĠcitizen": 4621, "ĠĠtot": 4622, "ĠĠStellung": 4623, "ränk": 4624, "bereit": 4625, "chie": 4626, "ĠĠdet": 4627, "ĠĠHä": 4628, "arbeitung": 4629, "ĠĠsein.": 4630, "ve": 4631, "ĠĠagreements": 4632, "ĠĠcon": 4633, "ĠĠen": 4634, "ĠĠfound": 4635, "ĠĠmacht": 4636, "ĠĠgel": 4637, "uge": 4638, "ĠĠSchiff": 4639, "ĠĠsk": 4640, "ĠĠbesondere": 4641, "ĠĠstill": 4642, "ĠĠsollten.": 4643, "ĠĠsein,": 4644, "ĠĠabsol": 4645, "ĠĠnothing": 4646, "künd": 4647, "genommen": 4648, "ĠĠfand": 4649, "gesch": 4650, "ĠĠli": 4651, "los": 4652, "ulative": 4653, "ral": 4654, "ĠĠweiterhin": 4655, "ĠĠknowledge": 4656, "okrat": 4657, "ĠĠwurden,": 4658, "ĠĠStand": 4659, "ragen.": 4660, "ĠĠdeshalb": 4661, "auftrag": 4662, "san": 4663, "alys": 4664, "ĠĠeingesetzt": 4665, "ĠĠVertrauen": 4666, "hand": 4667, "ĠĠwon": 4668, "ĠĠ1999,": 4669, "ien.": 4670, "ĠĠhinaus": 4671, "ĠĠofficial": 4672, "ite": 4673, "a": 4674, "geben.": 4675, "ĠĠMerkel": 4676, "ĠĠForm": 4677, "ück": 4678, "ĠĠdialog": 4679, "hä": 4680, "ĠĠsecurity": 4681, "ĠĠ1994": 4682, "ĠĠLös": 4683, "ĠĠbuilt": 4684, "ĠĠliegen": 4685, "anderung": 4686, "imm": 4687, "ĠĠLis": 4688, "ĠĠUnternehmen": 4689, "ĠĠrelating": 4690, "ĠĠwar.": 4691, "ĠĠDebat": 4692, "ĠĠheut": 4693, "arlier": 4694, "ĠĠLebens": 4695, "ĠĠgenau": 4696, "ney": 4697, "es.": 4698, "ĠĠsagte,": 4699, "pt": 4700, "ĠĠZeitpunkt": 4701, "n": 4702, "ĠĠentire": 4703, "ĠĠpart": 4704, "ĠĠcombat": 4705, "ĠĠminimum": 4706, "ĠĠPeter": 4707, "ĠĠlight": 4708, "ĠĠprakt": 4709, "ĠĠjobs": 4710, "ĠĠbehand": 4711, "ĠĠSchlußfolgerungen": 4712, "ĠĠSo": 4713, "imate": 4714, "ately,": 4715, "aps": 4716, "age.": 4717, "ĠĠ85": 4718, "ähl": 4719, "rieb": 4720, "igen": 4721, "iddle": 4722, "ĠĠWel": 4723, "stag": 4724, "ĠĠcontinu": 4725, "ĠĠconsum": 4726, "ĠĠbelie": 4727, "ĠĠTagesordnung": 4728, "ĠĠsehen": 4729, "ĠĠheraus": 4730, "ĠĠeine": 4731, "ĠĠdiscussion": 4732, "sprü": 4733, "ways": 4734, "ĠĠ21": 4735, "ußen": 4736, "ĠĠGrenze": 4737, "ill": 4738, "ĠĠDirector": 4739, "ĠĠdesign": 4740, "ĠĠconsideration": 4741, "ĠĠTib": 4742, "/99)": 4743, "ĠĠcaus": 4744, "ĠĠgegenüber": 4745, "ĠĠocc": 4746, "ble": 4747, "ĠĠallem": 4748, "ĠĠcaused": 4749, "erb": 4750, "ĠĠPriv": 4751, "ĠĠdau": 4752, "apital": 4753, "bericht": 4754, "ĠĠaffect": 4755, "ĠĠvan": 4756, "urn": 4757, "voll": 4758, "drücklich": 4759, "io.": 4760, "ĠĠzurück.": 4761, "ĠĠUnd": 4762, "ĠĠtank": 4763, "ollar": 4764, "kur": 4765, "ĠĠeindeutig": 4766, "ĠĠInter": 4767, "ĠĠshe": 4768, "ĠĠRechte": 4769, "fäll": 4770, "ized": 4771, "ure.": 4772, "ĠĠamt": 4773, "ĠĠcompreh": 4774, "ĠĠschein": 4775, "feld": 4776, "ĠĠhowever,": 4777, "oten": 4778, "ĠĠmittel": 4779, "ĠĠsec": 4780, "idd": 4781, "zü": 4782, "ĠĠby": 4783, "ĠĠAn": 4784, "ĠĠGebiet": 4785, "ĠĠDas": 4786, "ĠĠIGA": 4787, "ausch": 4788, "ĠĠKön": 4789, "ĠĠ28": 4790, "den,": 4791, "ĠĠsprach": 4792, "ĠĠdiesen": 4793, "ĠĠFußball": 4794, "ĠĠmin": 4795, "ĠĠCor": 4796, "ously": 4797, "ĠĠOn": 4798, "ĠĠMin": 4799, "ĠĠrenew": 4800, "ĠĠforeign": 4801, "ĠĠprincip": 4802, "ĠĠthis.": 4803, "ünd": 4804, "wir": 4805, "ipp": 4806, "ĠĠBack": 4807, "ĠĠwie": 4808, "ĠĠBeam": 4809, "i": 4810, "ĠĠdisk": 4811, "ump": 4812, "ĠĠhöher": 4813, "p": 4814, "ĠĠholid": 4815, "ĠĠVerletzung": 4816, "ĠĠKontroll": 4817, "ias": 4818, "ĠĠz": 4819, "ĠĠStad": 4820, "ĠĠlaut": 4821, "ĠĠanything": 4822, "ĠĠpointed": 4823, "wohner": 4824, "ight.": 4825, "ĠĠkonkre": 4826, "as": 4827, "ship": 4828, "ĠĠis": 4829, "ölk": 4830, "ces.": 4831, "ĠĠunterschied": 4832, "ĠĠentscheid": 4833, "ĠĠBen": 4834, "ĠĠplen": 4835, "ĠĠcann": 4836, "handlungen": 4837, "view": 4838, "ü": 4839, "ĠĠhatte,": 4840, "ĠĠMet": 4841, "ĠĠGildner": 4842, "ĠĠits": 4843, "ĠĠein": 4844, "ment": 4845, "ünsch": 4846, "imum": 4847, "isl": 4848, "ĠĠFür": 4849, "ĠĠAußer": 4850, "ĠĠEU": 4851, "ĠĠcourse": 4852, "tag": 4853, "ĠĠlieg": 4854, "ĠĠtrotz": 4855, "ordin": 4856, "ĠĠcriticism": 4857, "ĠĠbu": 4858, "ĠĠbar": 4859, "ĠĠab.": 4860, "erson": 4861, "ĠĠtief": 4862, "ĠĠkrit": 4863, "ĠĠnegoti": 4864, "/99": 4865, "ĠĠprogramme.": 4866, "hinder": 4867, "ĠĠCouncil": 4868, "ĠĠprogramm": 4869, "ĠĠmeinem": 4870, "ĠĠcompletely": 4871, "ĠĠSchäden": 4872, "ĠĠtoday": 4873, "ĠĠrelativ": 4874, "ĠĠZiel": 4875, "ĠĠGüter": 4876, "ves": 4877, "ĠĠAnst": 4878, "zös": 4879, "ĠĠbetre": 4880, "ĠĠreg": 4881, "ĠĠnegotiations": 4882, "ĠĠhonour": 4883, "ĠĠMich": 4884, "z": 4885, "ĠĠcannot": 4886, "ĠĠam": 4887, "ĠĠanderer": 4888, "ĠĠbreak": 4889, "ĠĠrequirement": 4890, "ĠĠDonnerstag": 4891, "used": 4892, "ĠĠMe": 4893, "ĠĠstor": 4894, "ĠĠexperts": 4895, "ting": 4896, "ĠĠEast": 4897, "ĠĠalways": 4898, "ĠĠEntwicklungs": 4899, "ĠĠread": 4900, "assen": 4901, "ight": 4902, "ĠĠCeltic": 4903, "ĠĠcours": 4904, "ĠĠParl": 4905, "ĠĠIntern": 4906, "ustr": 4907, "ĠĠPunkte": 4908, "möglichkeit": 4909, "anzler": 4910, "ĠĠInteresse": 4911, "ĠĠNotwendigkeit": 4912, "ĠĠricht": 4913, "igor": 4914, "ĠĠerlaub": 4915, "ĠĠrac": 4916, "ĠĠec": 4917, "ĠĠmanufact": 4918, "ĠĠtransparent": 4919, "ĠĠagenda": 4920, "ĠĠHaus": 4921, "ĠĠBarnier": 4922, "ĠĠtransp": 4923, "ĠĠsitz": 4924, "führ": 4925, "isions": 4926, "ĠĠEind": 4927, "ĠĠsuccess": 4928, "ĠĠMindest": 4929, "ĠĠPräsidentin,": 4930, "ace": 4931, "ĠĠzähl": 4932, "by": 4933, "unch": 4934, "ĠĠguidelin": 4935, "ĠĠsurve": 4936, "ĠĠprior": 4937, "ĠĠMalta": 4938, "ĠĠNatur": 4939, "ĠĠwichtige": 4940, "liches": 4941, "ĠĠvital": 4942, "ĠĠderart": 4943, "ĠĠSyr": 4944, "ĠĠnächsten": 4945, "ĠĠDisk": 4946, "ĠĠThat": 4947, "ĠĠpeace": 4948, "ĠĠseinen": 4949, "ĠĠinfl": 4950, "ĠĠgrundsätz": 4951, "ĠĠWährungs": 4952, "Q": 4953, "ĠĠfreedom": 4954, "äng": 4955, "ĠĠDienstag": 4956, "ia": 4957, "äre": 4958, "punkte": 4959, "ĠĠU": 4960, "ssystem": 4961, "ĠĠstarted": 4962, "ahr": 4963, "ĠĠbelieve": 4964, "glie": 4965, "ĠĠachie": 4966, "etition": 4967, "ant.": 4968, "ĠĠTürkei": 4969, "unehm": 4970, "ĠĠRoth-Behr": 4971, "ĠĠ(H-07": 4972, "ĠĠLändern": 4973, "hausen": 4974, "ol": 4975, "ĠĠverb": 4976, "ĠĠshows": 4977, "ures": 4978, "ĠĠSum": 4979, "ĠĠsystems": 4980, "ĠĠDsir": 4981, "ĠĠret": 4982, "ĠĠprodu": 4983, "ĠĠ(S": 4984, "unächst": 4985, "ĠĠeurop": 4986, "ĠĠsubst": 4987, "ĠĠfuture.": 4988, "ild": 4989, "ĠĠfal": 4990, "ĠĠpay": 4991, "zel": 4992, "its": 4993, "]": 4994, "ĠĠger": 4995, "por": 4996, "ĠĠdon": 4997, "ĠĠAngelegenheiten": 4998, "ĠĠKommissionsmitglied": 4999, "ĠĠintrodu": 5000, "ĠĠZweit": 5001, "ĠĠWoch": 5002, "ĠĠtotal": 5003, "treter": 5004, "ĠĠcomments": 5005, "ĠĠausreich": 5006, "rach": 5007, "ĠĠunserem": 5008, "ferenz": 5009, "ĠĠschl": 5010, "ĠĠcitizens": 5011, "itive": 5012, "allen": 5013, "ĠĠeiner": 5014, "ĠĠwichtigen": 5015, "ĠĠMy": 5016, "zer": 5017, "ĠĠsich,": 5018, "ĠĠgab": 5019, "abet": 5020, "conomic": 5021, "ĠĠhaben.": 5022, "urance": 5023, "ensive": 5024, "wendung": 5025, "ĠĠcourse,": 5026, "ĠĠTibet": 5027, "ĠĠTrans": 5028, "ĠĠstopp": 5029, "ĠĠverein": 5030, "ĠĠAbstimmung": 5031, "ĠĠPer": 5032, "ĠĠKohäs": 5033, "folg": 5034, "ĠĠnet": 5035, "will": 5036, "unktion": 5037, "ĠĠMonti": 5038, "ĠĠeinzelnen": 5039, "ĠĠclass": 5040, "ĠĠMitgliedstaaten": 5041, "gaben": 5042, "ĠĠ18": 5043, "atten": 5044, "ĠĠconstruction": 5045, "ruppen": 5046, "ĠĠVerwalt": 5047, "ĠĠapply": 5048, "ĠĠIns": 5049, "ĠĠgroup,": 5050, "ost": 5051, "ĠĠsee": 5052, "erehr": 5053, "ĠĠMeer": 5054, "ĠĠonline": 5055, "isp": 5056, "ĠĠinterest": 5057, "ĠĠPrüfung": 5058, "ĠĠpop": 5059, "ĠĠEl": 5060, "ĠĠalmost": 5061, "ĠĠstreng": 5062, "ĠĠyear.": 5063, "ĠĠcooperation": 5064, "sprache": 5065, "ĠĠBedingungen": 5066, "ĠĠseines": 5067, "ationen": 5068, "ony": 5069, "ĠĠAngaben": 5070, "ĠĠPalestinian": 5071, "gress": 5072, "full": 5073, "ĠĠSp": 5074, "ĠĠSchm": 5075, "ĠĠperfect": 5076, "ĠĠpartnership": 5077, "ĠĠmüssen,": 5078, "ĠĠAmsterdam": 5079, "ĠĠYou": 5080, "izien": 5081, "ĠĠgoing": 5082, "-G": 5083, "us": 5084, "ĠĠearly": 5085, "ĠĠaspects": 5086, "ĠĠplaying": 5087, "ĠĠfulf": 5088, "ĠĠkann,": 5089, "lad": 5090, "smit": 5091, "ĠĠhome": 5092, "ĠĠoverall": 5093, "bruch": 5094, "raph": 5095, "ĠĠtragen": 5096, "ĠĠstatement": 5097, "ĠĠHaupt": 5098, "ĠĠconcerns": 5099, "ĠĠbleibt": 5100, "ĠĠappe": 5101, "ĠĠPolic": 5102, "sam": 5103, "bau": 5104, "stead": 5105, "ĠĠinternationaler": 5106, "ĠĠlevel": 5107, "ĠĠLa": 5108, "mitt": 5109, "ĠĠ80": 5110, "ätze": 5111, "ĠĠincre": 5112, "ĠĠsw": 5113, "ität": 5114, "ĠĠsofort": 5115, "ĠĠdabei": 5116, "ko": 5117, "ĠĠsix": 5118, "ĠĠpräsent": 5119, "ĠĠIhnen,": 5120, "issen": 5121, "ĠĠIf": 5122, "ĠĠlack": 5123, "ĠĠloss": 5124, "ĠĠreport": 5125, "ĠĠsim": 5126, "ĠĠinstrument": 5127, "ĠĠnot,": 5128, "scheiden": 5129, "ĠĠright": 5130, "ause": 5131, "ĠĠUnion,": 5132, ".m.": 5133, "chen": 5134, "ĠĠspok": 5135, "fass": 5136, "cut": 5137, "ĠĠNamen": 5138, "ĠĠfeel": 5139, "ity,": 5140, "ĠĠenergy": 5141, "ĠĠschwer": 5142, "ĠĠforest": 5143, "ĠĠEisen": 5144, "ĠĠsagten,": 5145, "ĠĠfordern": 5146, "ctions": 5147, "ĠĠmade": 5148, "hm": 5149, "ĠĠPaper": 5150, "ĠĠAsp": 5151, "ĠĠSchengen": 5152, "ĠĠSouth": 5153, "ĠĠzug": 5154, "ĠĠSchroedter,": 5155, "str": 5156, "eren": 5157, "ĠĠkürz": 5158, "ces": 5159, "ak": 5160, "ĠĠstaatlichen": 5161, "ĠĠKatastrop": 5162, "ĠĠwollen,": 5163, "ĠĠAffairs,": 5164, "ellen": 5165, "ĠĠDank": 5166, "ĠĠ3,": 5167, "ics": 5168, "ĠĠGre": 5169, "ĠĠgegenwärtig": 5170, "ding": 5171, "ĠĠvoters": 5172, "ĠĠko": 5173, "ĠĠUS": 5174, "ĠĠNah": 5175, "ĠĠgrowth": 5176, "ĠĠging": 5177, "ĠĠumfang": 5178, "ĠĠSozial": 5179, "ĠĠcap": 5180, "ĠĠiniti": 5181, "ĠĠBarak": 5182, "ĠĠfact": 5183, "uß": 5184, "ĠĠTh": 5185, "ĠĠHause": 5186, "ĠĠMein": 5187, "ĠĠSystem": 5188, "ĠĠRes": 5189, "ĠĠdoubt": 5190, "ĠĠmöglicherweise": 5191, "olitik": 5192, "ĠĠunterb": 5193, "ĠĠErn": 5194, "ĠĠzahl": 5195, "iv": 5196, "ĠĠcriteria": 5197, "ĠĠcommitment": 5198, "ĠĠneigh": 5199, "ĠĠmöglichst": 5200, "hal": 5201, "velop": 5202, "mö": 5203, "ĠĠsol": 5204, "riminal": 5205, "/1999)": 5206, "ante": 5207, "ĠĠGroup": 5208, "ĠĠexample": 5209, "ĠĠSchro": 5210, "ĠĠbringen,": 5211, "ĠĠbefind": 5212, "ĠĠvorgesehen": 5213, "ised": 5214, "setz": 5215, "ular": 5216, "ĠĠÄnderungsant": 5217, "ĠĠPartei": 5218, "itter": 5219, "gew": 5220, "trag": 5221, "ĠĠopportunities": 5222, "icient": 5223, "ĠĠWhat": 5224, "inne": 5225, "ĠĠcell": 5226, "ĠĠFelste": 5227, "reb": 5228, "ĠĠfa": 5229, "ĠĠBetrieb": 5230, "ĠĠregelmäß": 5231, "ĠĠPresidency": 5232, "ĠĠrecent": 5233, "ĠĠErmitt": 5234, "ĠĠcohesion": 5235, "isten": 5236, "ĠĠsechs": 5237, "ricult": 5238, "ĠĠrene": 5239, "isch": 5240, "ĠĠacqu": 5241, "ĠĠErfahrungen": 5242, "ĠĠMitglieder": 5243, "ĠĠLauf": 5244, "akers": 5245, "ĠĠhalten": 5246, "ĠĠsurger": 5247, "räs": 5248, "änden": 5249, "ĠĠtats": 5250, "ĠĠeben": 5251, "ĠĠteil": 5252, "ĠĠnon": 5253, "ĠĠdrawn": 5254, "ĠĠEuropas": 5255, "ĠĠbew": 5256, "ĠĠclub": 5257, "ĠĠgenüg": 5258, "ĠĠ25": 5259, "ĠĠper": 5260, "ĠĠve": 5261, "ĠĠ94": 5262, "ĠĠBrüssel": 5263, "ĠĠCommissions": 5264, "ĠĠwhere": 5265, "ĠĠlittle": 5266, "ĠĠBeförderung": 5267, "ĠĠFortsch": 5268, "ĠĠersch": 5269, "ĠĠmaking": 5270, "ungsentwurf": 5271, "haus": 5272, "hör": 5273, "atz": 5274, "ĠĠerfolgreich": 5275, "ĠĠPolitik": 5276, "ĠĠtim": 5277, "sanwalt": 5278, "ĠĠPresident": 5279, "ires": 5280, "ativ": 5281, "ĠĠopportunity": 5282, "na": 5283, "ĠĠKandid": 5284, "ĠĠFedEx": 5285, "ĠĠWasser": 5286, "ĠĠCode": 5287, "ĠĠpa": 5288, "ĠĠcrucial": 5289, "ĠĠBereichen": 5290, "tra": 5291, "ĠĠstar": 5292, "ĠĠDec": 5293, "ts": 5294, "ĠĠunsere": 5295, "igte": 5296, "ĠĠrepresentatives": 5297, "ĠĠZins": 5298, "ĠĠoft": 5299, "ĠĠeinschließlich": 5300, "ĠĠthree": 5301, "ĠĠStahl": 5302, "ĠĠanerk": 5303, "ĠĠsort": 5304, "ĠĠabsolut": 5305, "self": 5306, "ĠĠRegierung": 5307, "ĠĠexperien": 5308, "ang": 5309, "ram": 5310, "ĠĠleading": 5311, "ĠĠresul": 5312, "oth": 5313, "where": 5314, "are": 5315, "ĠĠkurzfrist": 5316, "ĠĠWähler": 5317, "ĠĠDez": 5318, "ĠĠXavi": 5319, "ĠĠderzeitigen": 5320, "ĠĠim": 5321, "ĠĠMitte": 5322, "oy": 5323, "ĠĠdetail": 5324, "ĠĠbecoming": 5325, "ĠĠgib": 5326, "ĠĠemp": 5327, "ĠĠcommunication": 5328, "nahm": 5329, "ĠĠorganisations": 5330, "ĠĠtatsächlich": 5331, "stütz": 5332, "ika": 5333, "frei": 5334, "en.": 5335, "ĠĠtogether": 5336, "ov": 5337, "ĠĠgood": 5338, "ĠĠange": 5339, "ĠĠBetrü": 5340, "ĠĠworking": 5341, "ĠĠpra": 5342, "ĠĠrights": 5343, "ĠĠSing": 5344, "ĠĠFedE": 5345, "az": 5346, "ĠĠdecid": 5347, "ary": 5348, "ĠĠglaube,": 5349, "ĠĠFach": 5350, "ĠĠSon": 5351, "hern": 5352, "ĠĠdont": 5353, "ĠĠpolicies": 5354, "ĠĠin": 5355, "ipher": 5356, "ĠĠMiss": 5357, "ĠĠsustain": 5358, "ĠĠunt": 5359, "ĠĠguarantee": 5360, "ĠĠdemonstr": 5361, "ĠĠInde": 5362, "ĠĠvorzu": 5363, "pris": 5364, "ĠĠfr": 5365, "verständ": 5366, "ĠĠsinn": 5367, "ĠĠexample,": 5368, "ĠĠverl": 5369, "7": 5370, "-N": 5371, "ĠĠÄn": 5372, "ĠĠBay": 5373, "xis": 5374, "ĠĠErwart": 5375, "ĠĠEff": 5376, "behörde": 5377, "ĠĠgeze": 5378, "ĠĠBlack": 5379, "ĠĠlist": 5380, "or": 5381, "formen": 5382, "ĠĠhätten": 5383, "ĠĠNationen": 5384, "ĠĠVorschläge": 5385, "ĠĠwork": 5386, "ĠĠY": 5387, "fer": 5388, "ĠĠbus": 5389, "ĠĠLang": 5390, "gt,": 5391, "ĠĠrepe": 5392, "ĠĠWettbewerbsfähigkeit": 5393, "ĠĠKroat": 5394, "hen.": 5395, "reck": 5396, "ĠĠerne": 5397, "ĠĠUm": 5398, "ĠĠJe": 5399, "piel": 5400, "ĠĠFunds": 5401, "ĠĠDurch": 5402, "iplom": 5403, "ĠĠdann": 5404, "ĠĠ33": 5405, "ĠĠTamp": 5406, "ĠĠAnder": 5407, "ĠĠhinter": 5408, "ĠĠspiel": 5409, "ĠĠUhr": 5410, "ĠĠsorgen,": 5411, "ene": 5412, "ĠĠmuss": 5413, "ĠĠnur": 5414, "wend": 5415, ":": 5416, "ĠĠrate": 5417, "ĠĠextent": 5418, "ĠĠMontag": 5419, "ĠĠless": 5420, "ient": 5421, "ĠĠsu": 5422, "ĠĠEurope": 5423, "ĠĠRoth": 5424, "airman": 5425, "sequ": 5426, "feren": 5427, "ĠĠbeschlossen": 5428, "ĠĠbestehenden": 5429, "ĠĠeng": 5430, "ĠĠcity": 5431, "lage": 5432, "ĠĠAnge": 5433, "ĠĠberücksicht": 5434, "ĠĠMitglied": 5435, "itten": 5436, "ideo": 5437, "ĠĠAusführ": 5438, "dern.": 5439, "ir": 5440, "ople": 5441, "ĠĠzweifellos": 5442, "ĠĠdoppel": 5443, "ĠĠWed": 5444, "ĠĠtime,": 5445, "sequen": 5446, "ĠĠDemocratic": 5447, "ĠĠsafet": 5448, "ĠĠUmst": 5449, "eth": 5450, "onder": 5451, "ĠĠAustri": 5452, "ĠĠhimself": 5453, "ĠĠinc": 5454, "ativen": 5455, "iele": 5456, "ĠĠmodern": 5457, "ĠĠZusammenhang": 5458, "ĠĠdarin,": 5459, "ĠĠum": 5460, "cted": 5461, "ĠĠdanger": 5462, "ĠĠsociet": 5463, "uture": 5464, "ĠĠwork.": 5465, "ĠĠopen": 5466, "ĠĠRepublican": 5467, "ĠĠEffizien": 5468, "ĠĠschaffen": 5469, "ĠĠgirl": 5470, "ĠĠdomin": 5471, "ĠĠunderstand": 5472, "ĠĠFirst": 5473, "ĠĠsehen,": 5474, "ĠĠwichtig,": 5475, "weiterung": 5476, "ĠĠmeiner": 5477, "ĠĠFamilien": 5478, "lern": 5479, "ĠĠstrong": 5480, "uten": 5481, "ĠĠEreign": 5482, "av": 5483, "ĠĠspace": 5484, "ĠĠVerbraucher": 5485, "ĠĠmitteil": 5486, "ĠĠMo": 5487, "ĠĠtoo": 5488, "ĠĠleider": 5489, "ĠĠask": 5490, "ĠĠwerden": 5491, "ĠĠgesagt": 5492, "ĠĠakzept": 5493, "ende": 5494, "ĠĠimportant": 5495, "ĠĠAusschuß": 5496, "ĠĠNew": 5497, "ĠĠmich": 5498, "ĠĠAußen": 5499, "ĠĠweltw": 5500, "ĠĠcharge": 5501, "erin": 5502, "ĠĠrel": 5503, "ĠĠWir": 5504, "fassung": 5505, "ĠĠZunächst": 5506, "schm": 5507, "ruck": 5508, "derung": 5509, "ĠĠtimes": 5510, "ĠĠRichtlinie": 5511, "ĠĠkn": 5512, "ĠĠWeg": 5513, "wh": 5514, "omm": 5515, "ĠĠdone": 5516, "ĠĠinitial": 5517, "ĠĠEinrichtung": 5518, "ĠĠWirtschafts": 5519, "ĠĠbetroffen": 5520, "le,": 5521, "ĠĠfight": 5522, "ĠĠinvolving": 5523, "7,": 5524, "ĠĠsein": 5525, "ĠĠthousands": 5526, "ĠĠals": 5527, "ĠĠconditions": 5528, "iell": 5529, "ĠĠUnited": 5530, "ĠĠwichtigsten": 5531, "ĠĠcontext": 5532, "schen": 5533, "ha": 5534, "rupp": 5535, "ĠĠT": 5536, "roat": 5537, "ĠĠmay": 5538, "ĠĠfour": 5539, "ängst": 5540, "zeichen": 5541, "ĠĠEG": 5542, "ĠĠTreat": 5543, "ĠĠ(H-0": 5544, "ĠĠf": 5545, "ĠĠune": 5546, "ĠĠbzw": 5547, "ĠĠlive": 5548, "ĠĠten": 5549, "ĠĠun": 5550, "ĠĠBedeutung": 5551, "ĠĠEinführung": 5552, "ĠĠassure": 5553, "ĠĠbedeute": 5554, "ĠĠlook": 5555, "ĠĠperform": 5556, "ĠĠGese": 5557, "ĠĠBeit": 5558, "ĠĠSanders": 5559, "ĠĠTechn": 5560, "ĠĠMed": 5561, "ĠĠreceive": 5562, "ĠĠfirst": 5563, "ĠĠUnser": 5564, "gram": 5565, "ĠĠwill.": 5566, "ĠĠGarant": 5567, "ĠĠEas": 5568, "ĠĠcertainly": 5569, "ĠĠUng": 5570, "ĠĠKampf": 5571, "fol": 5572, "ĠĠDo": 5573, "ĠĠAntrag": 5574, "ĠĠfindet": 5575, "ĠĠMay": 5576, "ĠĠprep": 5577, "ĠĠopin": 5578, "ĠĠbetrifft,": 5579, "AC": 5580, "lub": 5581, "ĠĠpurs": 5582, "ĠĠKönig": 5583, "ĠĠlocal": 5584, "ĠĠsorg": 5585, "ĠĠwollen": 5586, "ĠĠPress": 5587, "lish": 5588, "ĠĠReform": 5589, "ung": 5590, "ural": 5591, "hab": 5592, "ĠĠMalt": 5593, "ĠĠexerc": 5594, "ĠĠinstitutions": 5595, "ll": 5596, "ĠĠamend": 5597, "ĠĠspecifically": 5598, "ĠĠsign": 5599, "ĠĠaccomm": 5600, "ĠĠentschieden": 5601, "ĠĠdiejen": 5602, "rise": 5603, "auf": 5604, "ĠĠThird": 5605, "ĠĠMetcash": 5606, "nehmen,": 5607, "ĠĠbrauch": 5608, "prä": 5609, "aden": 5610, "ĠĠWor": 5611, "rieben": 5612, "falls": 5613, "ĠĠstrategy": 5614, "ĠĠKü": 5615, "ĠĠPerson": 5616, "ĠĠFreiheit,": 5617, "lus": 5618, "ĠĠ2000": 5619, "lands": 5620, "ĠĠag": 5621, "unity": 5622, "ĠĠbleib": 5623, "eine": 5624, "II": 5625, "atch": 5626, "ĠĠv": 5627, "ĠĠhand,": 5628, "re": 5629, "arth": 5630, "ĠĠErstens": 5631, "ĠĠmessage": 5632, "ĠĠand": 5633, "ĠĠAktion": 5634, "ĠĠsoll,": 5635, "cht": 5636, "ĠĠunterstützen": 5637, "ĠĠkann.": 5638, "ĠĠissue.": 5639, "ĠĠdefend": 5640, "ĠĠRede": 5641, "ĠĠihre": 5642, "ierende": 5643, "mier": 5644, "ĠĠstatus": 5645, "ĠĠEurope.": 5646, "ĠĠ€": 5647, "ĠĠdisaster": 5648, "ĠĠMonday": 5649, "ĠĠAntwort": 5650, "ĠĠOb": 5651, "ĠĠSyria": 5652, "ured": 5653, "ĠĠeuro": 5654, "ĠĠbetrifft": 5655, "ĠĠzu": 5656, "ĠĠwhole": 5657, "ĠĠangenommen": 5658, "ungen,": 5659, "ĠĠgot": 5660, "rü": 5661, "ĠĠsogar": 5662, "ĠĠseiner": 5663, "ĠĠdeb": 5664, "ĠĠkönnen.": 5665, "ĠĠacht": 5666, "ĠĠSh": 5667, "ĠĠWal": 5668, "ĠĠFo": 5669, "bat": 5670, "ĠĠjüngsten": 5671, "ĠĠEURO": 5672, "ĠĠmed": 5673, "ĠĠsogen": 5674, "ĠĠEmp": 5675, "ĠĠModern": 5676, "üd": 5677, "ĠĠglaub": 5678, "ĠĠMehrheit": 5679, "ĠĠHolz": 5680, "ĠĠ6": 5681, "arge": 5682, "ury": 5683, "ĠĠmanuf": 5684, "ĠĠSie,": 5685, "mework": 5686, "wach": 5687, "imes": 5688, "ĠĠW": 5689, "ĠĠCamer": 5690, "ĠĠefficient": 5691, "ĠĠV": 5692, "oking": 5693, "ĠĠdaß": 5694, "ĠĠlooking": 5695, "ender": 5696, "ĠĠBundes": 5697, "ĠĠan": 5698, "ĠĠsupported": 5699, "ĠĠass": 5700, "ĠĠmachen": 5701, "ĠĠJohnson": 5702, "ĠĠjetzt": 5703, "ĠĠsound": 5704, "ome": 5705, "ĠĠdata": 5706, "ĠĠTage": 5707, "idency": 5708, "ĠĠanst": 5709, "et": 5710, "ĠĠmonitoring": 5711, "ĠĠare,": 5712, "vention": 5713, "ĠĠindividual": 5714, "ĠĠVereinigten": 5715, "würd": 5716, "ĠĠbeh": 5717, "onger": 5718, "ĠĠArticle": 5719, "ĠĠsonst": 5720, "Ä": 5721, "ĠĠmainly": 5722, "ĠĠTobin": 5723, "ĠĠlegislation": 5724, "ĠĠdischarge": 5725, "mark": 5726, "ĠĠDalai": 5727, "ĠĠmöchte": 5728, "ausende": 5729, "ahn": 5730, "ĠĠWer": 5731, "ĠĠRates": 5732, "ublikan": 5733, "ĠĠsagen.": 5734, "üm": 5735, "ĠĠpract": 5736, "ĠĠMaß": 5737, "ĠĠ£": 5738, "ĠĠintend": 5739, "ĠĠdeutlich": 5740, "ĠĠRisik": 5741, "ie,": 5742, "ĠĠregion": 5743, "ĠĠmehrere": 5744, "strategie": 5745, "ĠĠ(D": 5746, "letz": 5747, "ĠĠDabei": 5748, "ĠĠFrance": 5749, "ĠĠbody": 5750, "ether": 5751, "ĠĠGen": 5752, "ĠĠErfolg": 5753, "m": 5754, "ĠĠwieder": 5755, "ĠĠrise": 5756, "ĠĠcont": 5757, "of": 5758, "mitted": 5759, "ĠĠthroughout": 5760, "idence": 5761, "ĠĠpositive": 5762, "ĠĠBill": 5763, "ĠĠPunkt": 5764, "ĠĠBBC": 5765, "ĠĠgain": 5766, "-d": 5767, "ĠĠschne": 5768, "B": 5769, "ĠĠsagt": 5770, "ĠĠzentral": 5771, "ption": 5772, "ĠĠeigentlich": 5773, "ĠĠspec": 5774, "ĠĠtät": 5775, "ĠĠra": 5776, "ĠĠcour": 5777, "ig.": 5778, "ĠĠhappen": 5779, "ĠĠentsprech": 5780, "ĠĠcamp": 5781, "ĠĠgeforder": 5782, "ĠĠfishing": 5783, ",": 5784, "ĠĠgute": 5785, "ĠĠGründen": 5786, "amen": 5787, "ĠĠanother": 5788, "ckt": 5789, "ĠĠwh": 5790, "ĠĠfar": 5791, "ĠĠbillion": 5792, "eless": 5793, "ĠĠersten": 5794, "handlung": 5795, "ĠĠWeißbuch": 5796, "ĠĠgemeinschaft": 5797, "ĠĠwur": 5798, "bs": 5799, "ĠĠprogrammes": 5800, "ĠĠDienstleist": 5801, "verwalt": 5802, "ĠĠdeliver": 5803, "ĠĠRahmen": 5804, "per": 5805, "ĠĠSitzung": 5806, "aret": 5807, "ierenden": 5808, "ĠĠSpe": 5809, "ĠĠessential": 5810, "ĠĠprimary": 5811, "izient": 5812, "ĠĠcase": 5813, "-up": 5814, "ĠĠcor": 5815, "ated.": 5816, "ĠĠBehörden": 5817, "ĠĠhät": 5818, "ĠĠfell": 5819, "ĠĠRechts": 5820, "ind": 5821, "either": 5822, "ĠĠGemeinschaft": 5823, "ünf": 5824, "ĠĠextre": 5825, "ĠĠEuropäische": 5826, "ĠĠGovernment": 5827, "ö": 5828, "ĠĠwhy": 5829, "arkt": 5830, "ĠĠJonckheer": 5831, "ĠĠPak": 5832, "ekt": 5833, "ĠĠevidence": 5834, "ielle": 5835, "ĠĠsever": 5836, "-b": 5837, "ĠĠdas,": 5838, "eit": 5839, "ĠĠaction": 5840, "ard": 5841, "ĠĠTe": 5842, "lied": 5843, "in": 5844, "ĠĠmil": 5845, "ĠĠobs": 5846, "ienen": 5847, "ĠĠÄnderung": 5848, "ĠĠHigh": 5849, "ĠĠaut": 5850, "ĠĠgrößte": 5851, "ĠĠSyri": 5852, "ĠĠOf": 5853, "ĠĠonly": 5854, "ending": 5855, "ĠĠnamely": 5856, "annten": 5857, "ĠĠareas.": 5858, "ĠĠimpro": 5859, "ĠĠkann": 5860, "werte": 5861, "cy.": 5862, "8": 5863, "ĠĠLebensmittelsicherheit": 5864, "ĠĠstate": 5865, "ierungen": 5866, "amin": 5867, "ĠĠProgramm": 5868, "alen": 5869, "zent": 5870, "ĠĠnah": 5871, "ĠĠMittwoch": 5872, "ĠĠAbgeordnete": 5873, "sten": 5874, "ĠĠhinsichtlich": 5875, "kommen,": 5876, "ĠĠvie": 5877, "ĠĠFest": 5878, "ĠĠMedien": 5879, "ĠĠconnection": 5880, "ĠĠgoods": 5881, "ĠĠ2,": 5882, "ĠĠWirk": 5883, "ĠĠDub": 5884, "ĠĠerfü": 5885, "ĠĠscoreboard": 5886, "ĠĠpur": 5887, "älle": 5888, "ĠĠwithd": 5889, "ĠĠjustice": 5890, "ouse": 5891, "fern": 5892, "ĠĠFinanzkontrolle": 5893, "rim": 5894, "pflicht": 5895, "ĠĠWettbewerbs": 5896, "ĠĠconcern": 5897, "ĠĠzuletzt": 5898, "ĠĠEntw": 5899, "ĠĠIn": 5900, "ĠĠWider": 5901, "zustellen,": 5902, "ss": 5903, "ĠĠ200": 5904, "ĠĠProdu": 5905, "ĠĠsteht": 5906, "ĠĠRegelungen": 5907, "eln.": 5908, "ĠĠmü": 5909, "ĠĠview": 5910, "licht": 5911, "ĠĠimplemented": 5912, "ĠĠassistance": 5913, "ĠĠJahr": 5914, "stell": 5915, "ĠĠtransition": 5916, "ocus": 5917, "y,": 5918, "ĠĠWirtschaft": 5919, "ĠĠbill": 5920, "itch": 5921, "avi": 5922, "ĠĠWettbewerb": 5923, "ände": 5924, "ĠĠführ": 5925, "ĠĠcare": 5926, "ince": 5927, "ĠĠhöch": 5928, "ĠĠgrand": 5929, "ĠĠbased": 5930, "ohl": 5931, "ĠĠyour": 5932, "ĠĠgrößere": 5933, "ember": 5934, "ald": 5935, "ĠĠgentlem": 5936, "odex": 5937, "ĠĠHerren": 5938, "gen": 5939, "secut": 5940, "opf": 5941, "rittens": 5942, "ĠĠinternationalen": 5943, "ĠĠenvironmental": 5944, "ulture": 5945, "ĠĠStr": 5946, "ĠĠrichtig": 5947, "ĠĠhaben": 5948, "work": 5949, "ĠĠLe": 5950, "ĠĠVerkehr": 5951, "ĠĠcoming": 5952, "hmen": 5953, "ĠĠhoffe,": 5954, "ĠĠpercent.": 5955, "ĠĠNovember": 5956, "ĠĠAbgeordneter,": 5957, "ĠĠDes": 5958, "ĠĠvictims": 5959, "ĠĠeither": 5960, "ĠĠzahlreich": 5961, "äd": 5962, "ĠĠInvest": 5963, "ĠĠZusch": 5964, "ches": 5965, "ĠĠInstitution": 5966, "einträcht": 5967, "ĠĠGesetz": 5968, "ĠĠcreate": 5969, "ĠĠunseres": 5970, "ĠĠDav": 5971, "ĠĠmind": 5972, "uted": 5973, "ĠĠSaison": 5974, "ĠĠhinzu": 5975, "ĠĠIts": 5976, "ĠĠparticular": 5977, "ĠĠArtic": 5978, "ellos": 5979, "jähr": 5980, "ĠĠaufgrund": 5981, "aktion": 5982, "ĠĠVertra": 5983, "ĠĠkonkrete": 5984, "ĠĠFriedensprozeß": 5985, "ĠĠproperly": 5986, "ologie": 5987, "ondere": 5988, "ĠĠinspect": 5989, "ĠĠSteu": 5990, "zie": 5991, "ĠĠLehr": 5992, "ĠĠgelten": 5993, "ccess": 5994, "ĠĠF": 5995, "ĠĠRapk": 5996, "ĠĠparliamentary": 5997, "rat": 5998, "ĠĠagre": 5999, "ĠĠown": 6000, "-O": 6001, "uments": 6002, "ĠĠstehen,": 6003, "im": 6004, "ĠĠsignificant": 6005, "ĠĠauch,": 6006, "ĠĠso": 6007, "ĠĠenc": 6008, "rep": 6009, "armon": 6010, "weil": 6011, "ige": 6012, "ĠĠdiff": 6013, "ĠĠObwohl": 6014, "ĠĠAm": 6015, "ĠĠthem,": 6016, "ĠĠadminist": 6017, "lain": 6018, "ĠĠMittel": 6019, "ĠĠlassen,": 6020, "ĠĠSchaff": 6021, "ass": 6022, "ĠĠpublic.": 6023, "ĠĠab": 6024, "2,": 6025, "olge": 6026, "ĠĠohne": 6027, "ling": 6028, "ĠĠdeutschen": 6029, "ĠĠrecently": 6030, "form": 6031, "el": 6032, "ĠĠzweit": 6033, "bes": 6034, "wohn": 6035, "glichen": 6036, "ĠĠStaat": 6037, "ĠĠverg": 6038, "ĠĠma": 6039, "ĠĠNähe": 6040, "N": 6041, "ĠĠvollständ": 6042, "ĠĠBeschäftigungs": 6043, "reat": 6044, "ĠĠcomm": 6045, "ĠĠsag": 6046, "ĠĠ198": 6047, "ĠĠKomm": 6048, "ĠĠposition": 6049, "lease": 6050, "ĠĠsagen:": 6051, "ament": 6052, "ĠĠEuropa": 6053, "ĠĠextend": 6054, "asser": 6055, "ĠĠstaat": 6056, "ĠĠreferred": 6057, "amentar": 6058, "ĠĠbeiden": 6059, "ĠĠfurther": 6060, "ĠĠderen": 6061, "le": 6062, "ĠĠMeine": 6063, "imovic": 6064, "ĠĠagreed": 6065, "ĠĠHöhe": 6066, "ĠĠVerordnung": 6067, "ĠĠWar": 6068, "ĠĠTurkey": 6069, "ina": 6070, "ĠĠText": 6071, "ĠĠconcerning": 6072, "ĠĠthese": 6073, "ĠĠerwä": 6074, "ĠĠadopted": 6075, "ĠĠLänder": 6076, "ĠĠon,": 6077, "stum": 6078, "ign": 6079, "ĠĠnäm": 6080, "ĠĠ2": 6081, "ĠĠwas": 6082, "ĠĠPrü": 6083, "ĠĠconsider": 6084, "ry": 6085, "ĠĠGegensatz": 6086, "ĠĠStrategie": 6087, "ĠĠdam": 6088, "ĠĠFC": 6089, "mer": 6090, "ances": 6091, "ĠĠwould": 6092, "ĠĠfrüher": 6093, "ĠĠSM": 6094, "ĠĠfor": 6095, "ĠĠpast": 6096, "ĠĠRandlage": 6097, "gült": 6098, "ĠĠKommission,": 6099, "ĠĠcoll": 6100, "ĠĠflo": 6101, "ĠĠfran": 6102, "ĠĠready": 6103, "ĠĠGefahrgut": 6104, "ĠĠmassive": 6105, "ĠĠweder": 6106, "ĠĠVolk": 6107, "ĠĠVitorino": 6108, "man": 6109, "ĠĠconclus": 6110, "llschaften": 6111, "upt": 6112, "ĠĠKennt": 6113, "ĠĠpolitic": 6114, "ĠĠadvis": 6115, "ĠĠop": 6116, "ĠĠAuf": 6117, "ön": 6118, "chmal": 6119, "ĠĠbeein": 6120, "ĠĠzeigt,": 6121, "ĠĠAngriff": 6122, "völk": 6123, "abetes": 6124, "ĠĠkla": 6125, "ed,": 6126, "ice": 6127, "-C": 6128, "ĠĠschon": 6129, "ĠĠBrown": 6130, "ĠĠPlan": 6131, "ĠĠgut": 6132, "ĠĠcompetition": 6133, "hen,": 6134, "beihilfen": 6135, "ĠĠSech": 6136, "-P": 6137, "ĠĠPräsidenten": 6138, "pp": 6139, "ĠĠ2000-2006": 6140, "ut": 6141, "ĠĠmist": 6142, "IP": 6143, "ĠĠtack": 6144, "ally,": 6145, "ĠĠheutigen": 6146, "ĠĠcivil": 6147, "ĠĠthose": 6148, "ĠĠstaatliche": 6149, "ĠĠenlarge": 6150, "ĠĠbegin": 6151, "ĠĠGem": 6152, "ĠĠcentral": 6153, "angen": 6154, "ĠĠinform": 6155, "ĠĠHaft": 6156, "ĠĠEntl": 6157, "öl": 6158, "ĠĠinv": 6159, "ĠĠgegeben": 6160, "ĠĠEntwicklung": 6161, "ugg": 6162, "ĠĠmatch": 6163, "iod": 6164, "ĠĠrelations": 6165, "ĠĠMart": 6166, "ĠĠresour": 6167, "eten,": 6168, "ĠĠver": 6169, "ĠĠStaaten": 6170, "ium": 6171, "ĠĠshort": 6172, "reng": 6173, "ĠĠEuropäischen": 6174, "ĠĠergreif": 6175, "ĠĠchange": 6176, "ims": 6177, "ĠĠAmer": 6178, "ĠĠindivid": 6179, "-1": 6180, "br": 6181, "ĠĠrep": 6182, "ĠĠCent": 6183, "-de": 6184, "ation": 6185, "ĠĠGew": 6186, "ĠĠ(K": 6187, "ĠĠwoll": 6188, "ĠĠkönne": 6189, "ĠĠwhich": 6190, "ĠĠVerbess": 6191, "ĠĠfood": 6192, "schiede": 6193, "ĠĠcar": 6194, "ĠĠlegisl": 6195, "ĠĠprecis": 6196, "e": 6197, "ĠĠnicht.": 6198, "ĠĠcan": 6199, "ĠĠandere": 6200, "ĠĠRobert": 6201, "ĠĠd.": 6202, "ĠĠSchmid": 6203, "ität,": 6204, "ĠĠCommission": 6205, "ĠĠStadt": 6206, "fre": 6207, "ĠĠAr": 6208, "ĠĠtold": 6209, "ĠĠfind": 6210, "ĠĠetwa": 6211, "ĠĠdefen": 6212, "annt,": 6213, "ĠĠAllerdings": 6214, "ĠĠRap": 6215, "ĠĠrecogn": 6216, "ĠĠUnterschiede": 6217, "ĠĠXi": 6218, "ĠĠThe": 6219, "iden": 6220, "zuf": 6221, "ĠĠpla": 6222, "stra": 6223, "ĠĠAny": 6224, "ational": 6225, "ĠĠjeweiligen": 6226, "ĠĠHerrn": 6227, "ĠĠUn": 6228, "ĠĠspielen": 6229, "ĠĠdid": 6230, "ierte": 6231, "ĠĠrest": 6232, "ĠĠmatter": 6233, "läuf": 6234, "ĠĠJetzt": 6235, "io": 6236, "ĠĠappoint": 6237, "ĠĠRechnungs": 6238, "ĠĠvot": 6239, "iglich": 6240, "ĠĠserv": 6241, "ĠĠfast": 6242, "ĠĠent": 6243, "kunft": 6244, "ĠĠcentre": 6245, "stellen": 6246, "ĠĠinst": 6247, "ĠĠdirection": 6248, "ĠĠsagte": 6249, "ĠĠsteps": 6250, "fen.": 6251, "ĠĠeinen": 6252, "ĠĠCentral": 6253, "geben": 6254, "ĠĠInd": 6255, "ulation": 6256, "gere": 6257, "ĠĠcommon": 6258, "ĠĠwettbewerbs": 6259, "aßt": 6260, "ĠĠwerd": 6261, "ĠĠimproving": 6262, "einander": 6263, "ations.": 6264, "ta": 6265, "ĠĠinvestment": 6266, "ĠĠregions": 6267, "ĠĠHinter": 6268, "igt": 6269, "ĠĠworld": 6270, "ĠĠpo": 6271, "ĠĠKranken": 6272, "ĠĠdebate.": 6273, "ĠĠmarkets.": 6274, "ĠĠletz": 6275, "sto": 6276, "itiz": 6277, "öff": 6278, "ĠĠbes": 6279, "essen": 6280, "ĠĠbin": 6281, "dam": 6282, "ĠĠson": 6283, "ĠĠDirective": 6284, "les": 6285, "ĠĠmov": 6286, "-h": 6287, "ĠĠfull": 6288, "krä": 6289, "ĠĠdürfen": 6290, "ĠĠUniversity": 6291, "ĠĠReport": 6292, "äter": 6293, "d": 6294, "ĠĠtalks": 6295, "ĠĠscient": 6296, "wurf": 6297, "ĠĠcall": 6298, "bar,": 6299, "ĠĠUmständen": 6300, "ĠĠdepart": 6301, "ans": 6302, "usses": 6303, "ĠĠbalance": 6304, "ĠĠhigh": 6305, "ĠĠpropos": 6306, "ĠĠwan": 6307, "ĠĠwar": 6308, "ĠĠhier": 6309, "ein": 6310, "ĠĠvalue": 6311, "ĠĠdoes": 6312, "tragen": 6313, "ĠĠKern": 6314, "infektions": 6315, "ĠĠbuilding": 6316, "ĠĠKolle": 6317, "ĠĠGeneral": 6318, "ĠĠmarket": 6319, "ähr": 6320, "ĠĠregul": 6321, "ĠĠrules": 6322, "ĠĠgleich": 6323, "ĠĠbad": 6324, "ĠĠimport": 6325, "olog": 6326, "üt": 6327, "ate": 6328, "now": 6329, "ice.": 6330, "ilung": 6331, "ramm": 6332, "nehmer": 6333, "ĠĠSar": 6334, "ĠĠdelay": 6335, "ĠĠteam": 6336, "ĠĠbest": 6337, "ĠĠähn": 6338, "fähigkeit": 6339, "ĠĠLaufe": 6340, "hung": 6341, "ĠĠSicherheits": 6342, "ĠĠVerwendung": 6343, "ĠĠhave": 6344, "ĠĠVölk": 6345, "stadt": 6346, "ĠĠships": 6347, "ĠĠBereiche": 6348, "ĠĠgewisse": 6349, "ĠĠRaum": 6350, "ĠĠBank": 6351, "ĠĠAust": 6352, "ĠĠLama": 6353, "ĠĠdiscussed": 6354, "ĠĠConvention": 6355, "ĠĠPolize": 6356, "ĠĠabsolutely": 6357, "tern": 6358, "ĠĠkommen.": 6359, "ĠĠein,": 6360, "ublish": 6361, "y.": 6362, "ĠĠWednes": 6363, "ĠĠuni": 6364, "ĠĠSc": 6365, "ister": 6366, "ĠĠErach": 6367, "ers.": 6368, "ĠĠnichts": 6369, "ĠĠCh": 6370, "für": 6371, "old": 6372, "ĠĠfavour": 6373, "elf": 6374, "ĠĠBehandlung": 6375, "ĠĠI": 6376, "ĠĠgeben.": 6377, "ĠĠmachen,": 6378, "ese": 6379, "frist": 6380, "ĠĠjoint": 6381, "ĠĠyears.": 6382, "ĠĠdiscuss": 6383, "ĠĠdemonst": 6384, "ĠĠeinver": 6385, "ios": 6386, "ĠĠentsprechend": 6387, "edi": 6388, "ech": 6389, "ĠĠIndustrie": 6390, "ĠĠDiskuss": 6391, "usammen": 6392, "lätz": 6393, "ĠĠdie": 6394, "treten": 6395, "lings": 6396, "ĠĠforder": 6397, "ĠĠemploye": 6398, "os,": 6399, "ters": 6400, "ĠĠnew": 6401, "rg": 6402, "flicht": 6403, "ĠĠmüssen.": 6404, "ĠĠherv": 6405, "ĠĠsay,": 6406, "ft": 6407, "ĠĠannoun": 6408, "opol": 6409, "ĠĠTur": 6410, "itors": 6411, "ĠĠkön": 6412, "ĠĠany": 6413, "ĠĠChef": 6414, "ĠĠGrenz": 6415, "assung": 6416, "199": 6417, "ĠĠreduce": 6418, "ĠĠbod": 6419, "arl": 6420, "-B": 6421, "klag": 6422, "ĠĠDr": 6423, "uellen": 6424, "ĠĠsay": 6425, "ĠĠKoch": 6426, "org": 6427, "ĠĠWogau": 6428, "ĠĠveröffent": 6429, "ĠĠAnges": 6430, "ĠĠunser": 6431, "omen": 6432, "ĠĠArbeitsp": 6433, "tet": 6434, "ĠĠmass": 6435, "sp": 6436, "ĠĠAuch": 6437, "ty": 6438, "ĠĠbeispiel": 6439, "ĠĠEinige": 6440, "ĠĠspäter": 6441, "AT": 6442, "ĠĠtour": 6443, "hr": 6444, "ell": 6445, "yl": 6446, "et,": 6447, "ĠĠunterstützen,": 6448, "ĠĠInnen": 6449, "vernment": 6450, "ĠĠOrgane": 6451, "ĠĠHungarian": 6452, "ĠĠinternal": 6453, "ĠĠi.": 6454, "ĠĠ(A": 6455, "oc": 6456, "wick": 6457, "ĠĠbitte": 6458, "1,": 6459, "ärkte": 6460, "ĠĠbestimmte": 6461, "ĠĠelect": 6462, "ze": 6463, "ĠĠachieve": 6464, "ĠĠer": 6465, "ĠĠsozial": 6466, "iss": 6467, "ĠĠAnd": 6468, "ficient": 6469, "eut": 6470, "ĠĠFl": 6471, "sweise": 6472, "ĠĠObjective": 6473, "enken": 6474, "ĠĠbestät": 6475, "ĠĠregions,": 6476, "ĠĠEm": 6477, "ĠĠwhich,": 6478, "ĠĠEr": 6479, "fully": 6480, "denken,": 6481, "la": 6482, "chen,": 6483, "/2": 6484, "ĠĠIhre": 6485, "ĠĠlangfristig": 6486, "ourc": 6487, "ĠĠspirit": 6488, "iven": 6489, "unk": 6490, "ĠĠmone": 6491, "ĠĠbesser": 6492, "ĠĠMittw": 6493, "ĠĠleader": 6494, "ĠĠKommissar!": 6495, "ĠĠItal": 6496, "ban": 6497, "obin": 6498, "ĠĠcurrently": 6499, "ĠĠBesch": 6500, "ĠĠneeded": 6501, "eln,": 6502, "kontroll": 6503, "ĠĠZuständigkeit": 6504, "ĠĠage": 6505, "ĠĠkönnen,": 6506, "ĠĠcreation": 6507, "ĠĠBüro": 6508, "ĠĠWashington": 6509, "hil": 6510, "ĠĠassist": 6511, "ĠĠComp": 6512, "sk": 6513, "ĠĠmeet": 6514, "ĠĠmit": 6515, "ime": 6516, "ĠĠattra": 6517, "ĠĠPol": 6518, "rachte": 6519, "ĠĠcru": 6520, "enk": 6521, "iting": 6522, "baren": 6523, "ĠĠSozialdemokrat": 6524, "ĠĠoffer": 6525, "ĠĠprofit": 6526, "ĠĠLandwirtschaft": 6527, "ĠĠVerwaltungs": 6528, "ĠĠUnter": 6529, "bewer": 6530, "ultur": 6531, "ĠĠSchluß": 6532, "rated": 6533, "nissen": 6534, "ond": 6535, "ĠĠmention": 6536, "ĠĠcoach": 6537, "ĠĠatt": 6538, "prü": 6539, "ĠĠDer": 6540, "aly": 6541, "ĠĠBil": 6542, "ĠĠAustralia": 6543, "opp": 6544, "aterial": 6545, "ĠĠnehmen": 6546, "ĠĠposs": 6547, "ĠĠSam": 6548, "ĠĠPo": 6549, "usam": 6550, "ĠĠBes": 6551, "iff": 6552, "ĠĠpolicy.": 6553, "ĠĠJahres": 6554, "kontrolle": 6555, "ĠĠSubsidiar": 6556, "ĠĠfun": 6557, "ĠĠLeitlinien": 6558, "ĠĠseason": 6559, "anagement": 6560, "g": 6561, "ĠĠSerb": 6562, "ĠĠunder": 6563, "nehm": 6564, "iveau": 6565, "A": 6566, "ĠĠmeasures": 6567, "ĠĠvoted": 6568, "chanism": 6569, "ĠĠyo": 6570, "ĠĠHouse": 6571, "ĠĠzwe": 6572, "ĠĠinsp": 6573, "ator": 6574, "cy,": 6575, "ĠĠwerden.": 6576, "20": 6577, "ĠĠaccess": 6578, "ĠĠremark": 6579, "ĠĠcla": 6580, "tre": 6581, "ĠĠoccur": 6582, "ĠĠthink": 6583, "wort": 6584, "ĠĠÜ": 6585, "ĠĠverfolg": 6586, "ĠĠwants": 6587, "ĠĠPalacio": 6588, "ĠĠHam": 6589, "ĠĠexpressed": 6590, "ĠĠzut": 6591, "zeug": 6592, "ĠĠerwarten": 6593, "ĠĠeff": 6594, "ĠĠvarious": 6595, "ĠĠcommun": 6596, "ĠĠRechtsvorschriften": 6597, "ĠĠGip": 6598, "ĠĠproduct": 6599, "etary": 6600, "ĠĠPr": 6601, "ĠĠprevent": 6602, "ĠĠKouchner": 6603, "mor": 6604, "icien": 6605, "ĠĠassoci": 6606, "ĠĠFurther": 6607, "ĠĠestablishing": 6608, "cutive": 6609, "ĠĠappreci": 6610, "ani": 6611, "ĠĠcompens": 6612, "ĠĠpol": 6613, "hen": 6614, "ame": 6615, "ĠĠresp": 6616, "ĠĠInitiative": 6617, "arf": 6618, "ĠĠEconomic": 6619, "ĠĠWicht": 6620, "ĠĠsei,": 6621, "pret": 6622, "berg": 6623, "ĠĠmonetary": 6624, "ous": 6625, "leich": 6626, "ĠĠAud": 6627, "ĠĠpoints.": 6628, "ĠĠSep": 6629, "ĠĠdiscussions": 6630, "ĠĠMitarbeit": 6631, "ĠĠeffective": 6632, "!": 6633, "ures,": 6634, "ĠĠWettbewerbspolitik": 6635, "ĠĠEinsch": 6636, "ĠĠdirectly": 6637, "gangen": 6638, "ĠĠowners": 6639, "ĠĠauszu": 6640, "ĠĠvom": 6641, "ĠĠasylum": 6642, "ĠĠweak": 6643, "ĠĠplay": 6644, "Ö": 6645, "öglich": 6646, "ienste": 6647, "ĠĠref": 6648, "for": 6649, "mbol": 6650, "ĠĠHaltung": 6651, "ĠĠbro": 6652, "stand": 6653, "ĠĠIs": 6654, "ĠĠpossible.": 6655, "zio": 6656, "dire": 6657, "ĠĠlegitim": 6658, "ĠĠBot": 6659, "atic": 6660, "spekt": 6661, "lig": 6662, "sid": 6663, "ĠĠcritic": 6664, "ĠĠstay": 6665, "ĠĠklar,": 6666, "ĠĠmo": 6667, "urteil": 6668, "ĠĠMit": 6669, "ĠĠother": 6670, "ĠĠAber": 6671, "teuer": 6672, "rime": 6673, "ĠĠNun": 6674, "ĠĠPf": 6675, "ĠĠÄnder": 6676, "ĠĠsich": 6677, "ĠĠrecommend": 6678, "ĠĠthough": 6679, "ĠĠkonn": 6680, "ĠĠStahlindustrie": 6681, "ĠĠchallenge": 6682, "ĠĠnational": 6683, "ĠĠfield": 6684, "ĠĠexperience": 6685, "ĠĠgr": 6686, "ĠĠkommenden": 6687, "ĠĠcarrying": 6688, "ces,": 6689, "ĠĠWert": 6690, "ceed": 6691, "ĠĠIAA": 6692, "ident,": 6693, "ordnung": 6694, "ĠĠför": 6695, "ĠĠem": 6696, "lagen": 6697, "ĠĠsprechen": 6698, "ĠĠÖsterreich": 6699, "utes": 6700, "ĠĠkeine": 6701, "ĠĠtraining": 6702, "ĠĠhear": 6703, "ĠĠago,": 6704, "-U": 6705, "ĠĠMor": 6706, "unden": 6707, "ctors": 6708, "ĠĠsüd": 6709, "unsch": 6710, "ĠĠpersonal": 6711, "ĠĠZusammenarbeit": 6712, "ĠĠfocus": 6713, "ĠĠaffected": 6714, "ĠĠViel": 6715, "äne": 6716, "ĠĠobwohl": 6717, "ĠĠviews": 6718, "ĠĠFunktion": 6719, "örper": 6720, "ĠĠmorgen": 6721, "ĠĠbeim": 6722, "ic": 6723, "ĠĠagenda.": 6724, "ĠĠSan": 6725, "ĠĠseit": 6726, "ĠĠbear": 6727, "ĠĠsollte.": 6728, "ĠĠhoffen,": 6729, "o": 6730, "gangenen": 6731, "kl": 6732, "nen": 6733, "ĠĠlife": 6734, "ĠĠlarge": 6735, "ĠĠearlier": 6736, "ĠĠad": 6737, "ĠĠSy": 6738, "ĠĠallgemeinen": 6739, "ĠĠneeds": 6740, "ĠĠN": 6741, "ĠĠPlatz": 6742, "ĠĠbehaup": 6743, "ress": 6744, "ĠĠenv": 6745, "ctor": 6746, "ĠĠwird,": 6747, "ĠĠcross": 6748, "ĠĠCroat": 6749, "olk": 6750, "ĠĠExper": 6751, "ĠĠpractical": 6752, "ĠĠconcent": 6753, "ist,": 6754, "W": 6755, "ĠĠFreitag": 6756, "ĠĠexcellent": 6757, "ĠĠcountry.": 6758, "ĠĠbehalf": 6759, "ĠĠRegionalpolitik": 6760, "ĠĠIm": 6761, "ĠĠwurde.": 6762, "isc": 6763, "ĠĠeinzeln": 6764, "ĠĠsoll": 6765, "haps": 6766, "ĠĠground": 6767, "smittel": 6768, "ĠĠIA": 6769, "adrat": 6770, "ĠĠdispar": 6771, "ĠĠover": 6772, "ĠĠdecla": 6773, "ituation": 6774, "ĠĠdesc": 6775, "ĠĠfear": 6776, "ĠĠhingewiesen": 6777, "ĠĠDie": 6778, "ne": 6779, "ĠĠwären": 6780, "ĠĠflag": 6781, "ob": 6782, "ĠĠStürme": 6783, "icher": 6784, "ĠĠrole": 6785, "ĠĠunaccept": 6786, "ash": 6787, "ĠĠaff": 6788, "ĠĠJohn": 6789, "zogen": 6790, "ĠĠbas": 6791, "in.": 6792, "ĠĠbeginning": 6793, "ĠĠPalac": 6794, "geh": 6795, "ĠĠRück": 6796, "ĠĠBelg": 6797, "ĠĠüberzeug": 6798, "con": 6799, "lo": 6800, "ĠĠmut": 6801, "ĠĠshow": 6802, "ĠĠehem": 6803, "accept": 6804, "immen": 6805, "ĠĠmove": 6806, "hl": 6807, "ĠĠ1999/2": 6808, "ĠĠincreased": 6809, "ĠĠbetter": 6810, "ĠĠBla": 6811, "höhung": 6812, "ĠĠGermany.": 6813, "ĠĠBiden": 6814, "ĠĠintention": 6815, "ĠĠneues": 6816, "ĠĠRoth-Behrend": 6817, "ĠĠArg": 6818, "ĠĠhalte": 6819, "ocrat": 6820, "ĠĠStellen": 6821, ",000": 6822, "ĠĠwhose": 6823, "ĠĠgenügend": 6824, "ĠĠStra": 6825, "ature": 6826, "ail": 6827, "-m": 6828, "ĠĠNormen": 6829, "ortug": 6830, "ĠĠIch": 6831, "ĠĠtreff": 6832, "ake": 6833, "ĠĠ2013": 6834, "abhäng": 6835, "ĠĠStunden": 6836, "ĠĠHerausforderung": 6837, "ĠĠ60": 6838, "ĠĠissu": 6839, "ĠĠje": 6840, "ĠĠorgan": 6841, "ĠĠbeginn": 6842, "In": 6843, "ĠĠhat": 6844, "ĠĠprogress": 6845, "ĠĠFisch": 6846, "ĠĠPrioritäten": 6847, "ĠĠgenug": 6848, "ĠĠlimited": 6849, "ĠĠTod": 6850, "forder": 6851, "ĠĠChar": 6852, "ĠĠback": 6853, "ĠĠFed": 6854, "ael": 6855, "urch": 6856, "ĠĠste": 6857, "mand": 6858, "ĠĠcustom": 6859, "ĠĠseek": 6860, "ĠĠexist": 6861, "ĠĠEbenso": 6862, "ĠĠadded": 6863, "ĠĠThis": 6864, "ften": 6865, "wert": 6866, "ĠĠIsraelis": 6867, "ĠĠstärk": 6868, "/99):": 6869, "ĠĠinde": 6870, "ĠĠ5": 6871, "ĠĠAnalyse": 6872, "X": 6873, "ĠĠNever": 6874, "ĠĠAb": 6875, "ĠĠsch": 6876, "cken": 6877, "ĠĠSchaffung": 6878, "ĠĠLeit": 6879, "ĠĠS": 6880, "äm": 6881, "ĠĠleg": 6882, "ĠĠUK": 6883, "ĠĠideas": 6884, "iversity": 6885, "rang": 6886, "yste": 6887, "ĠĠspecific": 6888, "ĠĠHerr": 6889, "ĠĠprocedure": 6890, "qual": 6891, "ĠĠTre": 6892, "ange": 6893, "ath": 6894, "ĠĠMr": 6895, "ĠĠgerade": 6896, "spe": 6897, "ĠĠcause": 6898, "istr": 6899, "ĠĠPatten": 6900, "ĠĠdür": 6901, "ĠĠpr": 6902, "ĠĠSchritt": 6903, "ĠĠRolle": 6904, "ĠĠsuffer": 6905, "ĠĠban": 6906, "ordn": 6907, "markt": 6908, "ĠĠsup": 6909, "atast": 6910, "ĠĠZahl": 6911, "ĠĠdifficulties": 6912, "ächst": 6913, "ĠĠlediglich": 6914, "ĠĠproject": 6915, "ĠĠcontrib": 6916, "reiben": 6917, "1": 6918, "ĠĠStud": 6919, "dern": 6920, "ĠĠThemen": 6921, "fr": 6922, "ĠĠstehen": 6923, "ĠĠKosten": 6924, "ĠĠapproved": 6925, "est": 6926, "ĠĠdr": 6927, "ĠĠEing": 6928, "faßt": 6929, "ĠĠcountries": 6930, "ĠĠUmw": 6931, "mar": 6932, "ĠĠmore": 6933, "ĠĠnor": 6934, "ĠĠadministrat": 6935, "ĠĠcomp": 6936, "ct": 6937, "ĠĠGo": 6938, "ĠĠZweif": 6939, "igen,": 6940, "ĠĠBern": 6941, "Y": 6942, "ĠĠTrumps": 6943, "ĠĠmakes": 6944, "ĠĠJon": 6945, "ĠĠBemü": 6946, "mann": 6947, "ĠĠStraf": 6948, "ĠĠputting": 6949, "halt": 6950, "ĠĠexplan": 6951, "ĠĠGa": 6952, "ĠĠenable": 6953, "ĠĠMaria": 6954, "ĠĠgee": 6955, "ĠĠAt": 6956, "ĠĠVorschlag": 6957, "ĠĠworden.": 6958, "ĠĠ196": 6959, "iron": 6960, "rüß": 6961, "ĠĠWohnungs": 6962, "ge,": 6963, "ĠĠpow": 6964, "ĠĠrap": 6965, "ĠĠvessels": 6966, "ĠĠestablishment": 6967, "ĠĠdespite": 6968, "ĠĠinteresting": 6969, "ĠĠAusschusses": 6970, "ĠĠtoday,": 6971, "ĠĠSchritte": 6972, "ĠĠsind,": 6973, "letzt": 6974, "ush": 6975, "iat": 6976, "respond": 6977, "von": 6978, "zustellen.": 6979, "ĠĠcomes": 6980, "ĠĠfinden.": 6981, "zif": 6982, "ly": 6983, "ĠĠHous": 6984, "ĠĠbraucht": 6985, "part": 6986, "iben": 6987, "ĠĠgehör": 6988, "ĠĠknown": 6989, "ĠĠmatters": 6990, "oid": 6991, "spruch": 6992, "ĠĠstates": 6993, "ĠĠface": 6994, "to": 6995, "ĠĠKos": 6996, "ĠĠsollen": 6997, "ĠĠCour": 6998, "ĠĠOne": 6999, "ĠĠcom": 7000, "forderungen": 7001, "ĠĠLam": 7002, "ĠĠmany": 7003, "ĠĠhätte": 7004, "ĠĠRatsp": 7005, "hes": 7006, "ĠĠJ": 7007, "ĠĠerarbeit": 7008, "pect": 7009, "obil": 7010, "ĠĠEntwurf": 7011, "altung": 7012, "-2": 7013, "-Jähr": 7014, "ĠĠide": 7015, "raktion": 7016, "itte": 7017, "ification": 7018, "ĠĠrein": 7019, "ĠĠsa": 7020, "ĠĠpublic": 7021, "ĠĠargument": 7022, "ĠĠexpress": 7023, "ĠĠwurden.": 7024, "ĠĠsports": 7025, "de": 7026, "ĠĠihnen": 7027, "ĠĠIr": 7028, "ĠĠmake": 7029, "ĠĠFrau": 7030, "ĠĠTrump": 7031, "beihil": 7032, "ĠĠmonths.": 7033, "ĠĠRa": 7034, "iegel": 7035, "ai": 7036, "aging": 7037, "ĠĠWednesday": 7038, "ĠĠpot": 7039, "als": 7040, "linien": 7041, "-In": 7042, "ĠĠwithdra": 7043, "ĠĠinter": 7044, "ĠĠBeginn": 7045, "zul": 7046, "ĠĠGefahr": 7047, "ĠĠWelche": 7048, "ĠĠval": 7049, "zentr": 7050, "ĠĠzus": 7051, "ĠĠreform": 7052, "ĠĠdafür": 7053, "ĠĠlead": 7054, "ĠĠliegt": 7055, "bens": 7056, "ĠĠsagen": 7057, "ĠĠFortschritte": 7058, "ĠĠgrund": 7059, "äum": 7060, "ĠĠnatural": 7061, "rab": 7062, "ĠĠclar": 7063, "ĠĠdiese": 7064, "tete": 7065, "ĠĠeinsetz": 7066, "an.": 7067, "ĠĠAlthough": 7068, "ĠĠClin": 7069, "ĠĠbesonder": 7070, "ĠĠsingle": 7071, "ĠĠArtikel": 7072, "ĠĠProt": 7073, "ĠĠincl": 7074, "ĠĠle": 7075, "ĠĠdemon": 7076, "aum": 7077, "ĠĠthat.": 7078, "ĠĠnumber": 7079, "ĠĠworkers": 7080, "ĠĠaccordance": 7081, "LAF": 7082, "zähl": 7083, "chen.": 7084, "-K": 7085, "ĠĠKing": 7086, "ĠĠMir": 7087, "ĠĠdev": 7088, "igerung": 7089, "ĠĠEffizienz": 7090, "ĠĠwell.": 7091, "ations": 7092, "ĠĠabgesch": 7093, "inister": 7094, "gem": 7095, "ĠĠrelig": 7096, "ĠĠFinancial": 7097, "ĠĠdass": 7098, "klär": 7099, "ĠĠgam": 7100, "hod": 7101, "ĠĠnächste": 7102, "ĠĠWochen": 7103, "ver": 7104, "ĠĠMot": 7105, "ĠĠJan": 7106, "ĠĠKonferenz": 7107, "ĠĠchecks": 7108, "ĠĠoccas": 7109, "ĠĠHe": 7110, "ommiss": 7111, "ĠĠLage": 7112, "ĠĠläß": 7113, "agn": 7114, "ĠĠprop": 7115, "ĠĠBarn": 7116, "ĠĠBund": 7117, "ĠĠshot": 7118, "ĠĠeconomy": 7119, "ĠĠleft": 7120, "allel": 7121, "ĠĠimpact": 7122, "ĠĠJugend": 7123, "ĠĠmen": 7124, "ĠĠBedeut": 7125, "s,": 7126, "ring": 7127, "ĠĠserious": 7128, "ĠĠTheato": 7129, "ĠĠErklärung": 7130, "esch": 7131, "rech": 7132, "ĠĠRegierungen": 7133, "ĠĠThese": 7134, "ject": 7135, "ĠĠGermany": 7136, "ĠĠdecision": 7137, "ĠĠOctober": 7138, "ion": 7139, "ekten": 7140, "igin": 7141, "-Staat": 7142, "ĠĠgründ": 7143, "ĠĠseem": 7144, "ĠĠdrei": 7145, "ĠĠgegen": 7146, "ĠĠher": 7147, "ĠĠhow": 7148, "ĠĠdemokrat": 7149, "undheit": 7150, "ĠĠmet": 7151, "ĠĠthere": 7152, "reg": 7153, "abil": 7154, "ĠĠGe": 7155, "5/E": 7156, "is,": 7157, "tr": 7158, "ĠĠwicht": 7159, "akter": 7160, "llent": 7161, "ĠĠKohäsions": 7162, "q": 7163, "ĠĠh": 7164, "ĠĠGleichzeitig": 7165, "ĠĠobject": 7166, "S.": 7167, "ish": 7168, "ĠĠtime": 7169, "ĠĠcommittee": 7170, "ĠĠMeinung": 7171, "ĠĠreason": 7172, "ĠĠtransparency": 7173, "ĠĠ(C": 7174, "ĠĠaccoun": 7175, "ĠĠservice": 7176, "ĠĠUmsetzung": 7177, "ĠĠorganis": 7178, "iellen": 7179, "ĠĠKoordin": 7180, "ĠĠregulation": 7181, "ĠĠthings": 7182, "ĠĠBau": 7183, "ged": 7184, "icial": 7185, "ĠĠanalys": 7186, "ure,": 7187, "ĠĠ27": 7188, "ĠĠheißt,": 7189, "ommission": 7190, "ĠĠpeople.": 7191, "ĠĠ0": 7192, "ĠĠAcc": 7193, "ink": 7194, "ĠĠcouple": 7195, "ase": 7196, "ĠĠethn": 7197, "ays": 7198, "ĠĠmeeting": 7199, "ĠĠzugleich": 7200, "wo": 7201, "ĠĠOrt": 7202, "ĠĠexem": 7203, "ĠĠUns": 7204, "ĠĠaccommodation": 7205, "ĠĠremote": 7206, "ĠĠcred": 7207, "ally": 7208, "ĠĠFelstehausen": 7209, "ĠĠAff": 7210, "ĠĠentfern": 7211, "ĠĠbem": 7212, "ĠĠp": 7213, "ĠĠone": 7214, "zwe": 7215, "ĠĠasking": 7216, "nt": 7217, "ĠĠZur": 7218, "ĠĠzur": 7219, "ĠĠJustiz": 7220, "ĠĠstrategic": 7221, "illed": 7222, "ĠĠMün": 7223, "ĠĠAnwendung": 7224, "ĠĠländ": 7225, "ĠĠJahrhunder": 7226, "ately": 7227, "rain": 7228, "ĠĠihm": 7229, "laufen": 7230, "ĠĠapplied": 7231, "ritten": 7232, "imately": 7233, "own": 7234, "deut": 7235, "onds": 7236, "ught": 7237, "ĠĠextens": 7238, "ĠĠprofessional": 7239, "ĠĠ4": 7240, "ĠĠgemeinsamen": 7241, "ree": 7242, "orf": 7243, "ĠĠbedeut": 7244, "-W": 7245, "lückw": 7246, "ĠĠcommit": 7247, "ĠĠlaw.": 7248, "ĠĠ(A5-010": 7249, "asons": 7250, "ĠĠpersön": 7251, "ĠĠDeutschland": 7252, "ĠĠTheat": 7253, "stellung": 7254, "less": 7255, "ĠĠprote": 7256, "ĠĠmüssen": 7257, "immt,": 7258, "lev": 7259, "ĠĠaccepted": 7260, "ĠĠAktien": 7261, "ĠĠsollten": 7262, "ĠĠobviously": 7263, "inge": 7264, "ĠĠke": 7265, "ĠĠhal": 7266, "ĠĠvorge": 7267, "ĠĠMonat": 7268, "ĠĠFran": 7269, "ĠĠstellen": 7270, "bezie": 7271, "ĠĠTreaty": 7272, "shof": 7273, "ĠĠtrans": 7274, "barkeit": 7275, "ĠĠWunsch": 7276, "ĠĠisrael": 7277, "ĠĠ13": 7278, "rag": 7279, "ving": 7280, "gefü": 7281, "ĠĠMunich": 7282, "OL": 7283, "ior": 7284, "ĠĠsuch": 7285, "ĠĠweltweit": 7286, "ĠĠverm": 7287, "stitution": 7288, "it,": 7289, "ier.": 7290, "ĠĠhe": 7291, "ienst": 7292, "ĠĠWhile": 7293, "lossen": 7294, "ĠĠMöglichkeit,": 7295, "ĠĠagain": 7296, "ĠĠpartic": 7297, "ĠĠSte": 7298, "ĠĠeduc": 7299, "rie": 7300, "ĠĠdra": 7301, "ĠĠportugiesische": 7302, "t": 7303, "ĠĠsixth": 7304, "ĠĠQuest": 7305, "ris": 7306, "ĠĠadministrative": 7307, "ph": 7308, "ected": 7309, "al,": 7310, "lä": 7311, "eral": 7312, "zusetz": 7313, "day": 7314, "ĠĠfunction": 7315, "ĠĠcurren": 7316, "ĠĠselbstverständlich": 7317, "ĠĠpost": 7318, "hre": 7319, "reich": 7320, "ĠĠmon": 7321, "ĠĠBran": 7322, "hington": 7323, "ĠĠgilt": 7324, "ĠĠEngland": 7325, "ĠĠcl": 7326, "ĠĠInteg": 7327, "ĠĠresults": 7328, "ĠĠrefugees": 7329, "/1999": 7330, "vement": 7331, "rieg": 7332, "ĠĠconte": 7333, "ĠĠof": 7334, ".000": 7335, "gleich": 7336, "ĠĠbat": 7337, "ändern": 7338, "leg": 7339, "ĠĠtowards": 7340, "hält": 7341, "ĠĠcommercial": 7342, "ĠĠtime.": 7343, "ĠĠVergangen": 7344, "ĠĠPunk": 7345, "nahmen": 7346, "ĠĠund": 7347, "rei": 7348, "ĠĠpen": 7349, "),": 7350, "cial": 7351, "racht.": 7352, "legt": 7353, "ĠĠGrunde": 7354, "ĠĠWährend": 7355, "ĠĠumgesetzt": 7356, "ĠĠsoll.": 7357, "ants": 7358, "ĠĠFrage,": 7359, "ĠĠeven": 7360, "ĠĠVor": 7361, "ĠĠso,": 7362, "ĠĠVerhält": 7363, "enn": 7364, "ast": 7365, "ĠĠdafür,": 7366, "ĠĠAss": 7367, "ĠĠsm": 7368, "spr": 7369, "ĠĠHulten": 7370, "ĠĠErachtens": 7371, "abend": 7372, "el,": 7373, "ĠĠSachverständ": 7374, "lich": 7375, "ĠĠsoziale": 7376, "ĠĠbelong": 7377, "igran": 7378, "ration": 7379, "ĠĠlot": 7380, "ĠĠFederal": 7381, "ĠĠChrist": 7382, "ĠĠallen": 7383, "ĠĠkaum": 7384, "ĠĠist.": 7385, "ĠĠuse": 7386, "ĠĠit,": 7387, "ere": 7388, "ĠĠaccident": 7389, "ĠĠmanagement": 7390, "ĠĠlim": 7391, "-A": 7392, "äll": 7393, "ĠĠWednesday.": 7394, "ĠĠbekannt": 7395, "edom": 7396, "ĠĠkommen": 7397, "schließend": 7398, "ĠĠregulations": 7399, "ĠĠrequested": 7400, "ugen": 7401, "ern": 7402, "ĠĠsays": 7403, "ĠĠzwar": 7404, "ĠĠboth": 7405, "anze": 7406, "ĠĠenthalten": 7407, "sätz": 7408, "ĠĠsolidar": 7409, "ĠĠUnabhäng": 7410, "ĠĠheiß": 7411, "ĠĠfinal": 7412, "ĠĠvorgesch": 7413, "igt.": 7414, "ĠĠKamp": 7415, "ĠĠBeitrag": 7416, "prüft": 7417, "ĠĠintends": 7418, "ast.": 7419, "xt": 7420, "ĠĠDisziplin": 7421, "gether": 7422, "ĠĠBetrifft:": 7423, "ĠĠä": 7424, "räum": 7425, "ĠĠWorte": 7426, "ĠĠbrauchen": 7427, "geber": 7428, "ĠĠdescrib": 7429, "igkeiten": 7430, "ĠĠNur": 7431, "ĠĠpl": 7432, "ĠĠPräsident": 7433, "ĠĠviele": 7434, "ĠĠproposal": 7435, "ĠĠthat,": 7436, "ĠĠDar": 7437, "ĠĠrev": 7438, "akis": 7439, "ĠĠPHE": 7440, "ĠĠihn": 7441, "ahl": 7442, "ĠĠAuto": 7443, "ĠĠtabled": 7444, "ĠĠresearch": 7445, "ĠĠSicherheit": 7446, "ziel": 7447, "ĠĠmillion": 7448, "ĠĠFragest": 7449, "ĠĠsech": 7450, "-Pl": 7451, "ĠĠAufbau": 7452, "ĠĠLassen": 7453, "ĠĠusing": 7454, "ĠĠgesamte": 7455, "zial": 7456, "ĠĠHayne": 7457, "ĠĠcondition": 7458, "ateral": 7459, "ĠĠdut": 7460, "ĠĠjudicial": 7461, "ĠĠMun": 7462, "ras": 7463, "ĠĠfreue": 7464, "ĠĠexamp": 7465, "ĠĠfrom": 7466, "ĠĠout,": 7467, "ĠĠGroßb": 7468, "he": 7469, "ĠĠÜbereinkommen": 7470, "ĠĠfuture": 7471, "ĠĠespecially": 7472, "ĠĠinjured": 7473, "schließlich": 7474, "ĠĠafter": 7475, "ĠĠjedes": 7476, "ĠĠtake": 7477, "ĠĠerheb": 7478, "11": 7479, "ĠĠtest": 7480, "ĠĠmot": 7481, "staaten": 7482, "ĠĠob": 7483, "amer": 7484, "ĠĠhat.": 7485, "ĠĠbr": 7486, "olz": 7487, "ok": 7488, "regel": 7489, "ĠĠheißt": 7490, "t,": 7491, "ĠĠkleinen": 7492, "ĠĠstra": 7493, "ffen": 7494, "ĠĠVon": 7495, "stad": 7496, "1999": 7497, "ĠĠKommissionsmit": 7498, "ĠĠFä": 7499, "ĠĠOLAF,": 7500, "ĠĠadd": 7501, "ĠĠwish": 7502, "ĠĠIst": 7503, "ĠĠAmeric": 7504, "ĠĠvoll": 7505, "ĠĠassess": 7506, "ĠĠDa": 7507, "ĠĠhin": 7508, "ĠĠanderem": 7509, "ĠĠÜbergang": 7510, "4.": 7511, "rieden": 7512, "ĠĠWelt": 7513, "ys": 7514, "ĠĠbeing": 7515, "ĠĠdarum": 7516, "ĠĠcond": 7517, "ĠĠreached": 7518, "ĠĠPersonen": 7519, "ig,": 7520, "ĠĠDen": 7521, "ively": 7522, "ĠĠGriechen": 7523, "ĠĠquick": 7524, "kt.": 7525, "ĠĠTampere": 7526, "ĠĠBeamten": 7527, "annte": 7528, "reh": 7529, "hase": 7530, "osten": 7531, "ĠĠChancen": 7532, "-f": 7533, "entwurf": 7534, "ĠĠactiv": 7535, "ological": 7536, "Ġ": 7537, "isches": 7538, "wards": 7539, "ĠĠcampaign": 7540, "bel": 7541, "clear": 7542, "ĠĠM": 7543, "ĠĠBesuch": 7544, "itag": 7545, "ĠĠgegenwärt": 7546, "ĠĠInformationen": 7547, "ĠĠaver": 7548, "ĠĠBet": 7549, "ĠĠan.": 7550, "ĠĠcame": 7551, "ĠĠJap": 7552, "ĠĠFol": 7553, "ĠĠTuesday": 7554, "ĠĠMcD": 7555, "ĠĠleast": 7556, "LA": 7557, "ĠĠDeut": 7558, "ĠĠautom": 7559, "ivers": 7560, "vorsch": 7561, "ĠĠgovernments": 7562, "schutz": 7563, "ists": 7564, "immungen": 7565, "ĠĠcommitte": 7566, "ĠĠges": 7567, "spra": 7568, "ĠĠident": 7569, "eint": 7570, "ĠĠNot": 7571, "ĠĠPräsident,": 7572, "ĠĠÜberwach": 7573, "ĠĠleb": 7574, "ĠĠtemper": 7575, "ĠĠganz": 7576, "abour": 7577, "ĠĠMärkte": 7578, "ĠĠHP": 7579, "renze": 7580, "ĠĠeuropäischen": 7581, "ĠĠconsidered": 7582, "öst": 7583, "ĠĠhaben,": 7584, "ästin": 7585, "ĠĠAller": 7586, "ĠĠdifficult": 7587, "andid": 7588, "al": 7589, "ktion": 7590, "ily": 7591, "ĠĠsicherlich": 7592, "aster": 7593, "60": 7594, "ĠĠstrengthen": 7595, "ĠĠDabe": 7596, "ĠĠKollege": 7597, "ĠĠFre": 7598, "ĠĠlänger": 7599, "ĠĠRoman": 7600, "ĠĠsame": 7601, "ĠĠBed": 7602, "arly": 7603, "ĠĠtomor": 7604, "ĠĠaccord": 7605, "ĠĠHul": 7606, "itor": 7607, "ĠĠvor,": 7608, "ĠĠzul": 7609, "ĠĠFinanz": 7610, "ĠĠtalking": 7611, "ĠĠGesellschaft": 7612, "ischer": 7613, "ĠĠP": 7614, "raum": 7615, "ĠĠAngela": 7616, "ures.": 7617, "rukt": 7618, "ĠĠgese": 7619, "blem": 7620, "ĠĠBeschäftigung": 7621, "ĠĠmeine": 7622, "ĠĠplanned": 7623, "ĠĠanzu": 7624, "liz": 7625, "ĠĠProfess": 7626, "ly,": 7627, "ĠĠtreffen,": 7628, "fall": 7629, "ĠĠrefuge": 7630, "ĠĠKultur": 7631, "ĠĠcr": 7632, "ĠĠmehr": 7633, "ĠĠsex": 7634, "ĠĠ45": 7635, "ĠĠyester": 7636, "ĠĠNiveau": 7637, "ĠĠdegre": 7638, "ĠĠdurchschnitt": 7639, "tet.": 7640, "(CO": 7641, "ĠĠsurvey": 7642, "ĠĠerteil": 7643, "ĠĠcontain": 7644, "stens": 7645, "most": 7646, "ĠĠLösung": 7647, "ĠĠgehören": 7648, "ĠĠhöhere": 7649, "gabe": 7650, "räsident": 7651, "ĠĠcapac": 7652, "ĠĠdisp": 7653, "ĠĠK": 7654, "ĠĠAufmerksamkeit": 7655, "read": 7656, "ĠĠBeg": 7657, "ĠĠauthorities": 7658, "iving": 7659, "ĠĠh.": 7660, "ial": 7661, "ĠĠseen": 7662, "änder": 7663, "ĠĠStat": 7664, "ĠĠrechn": 7665, "ĠĠdarum,": 7666, "ĠĠdieses": 7667, "ĠĠattend": 7668, "ĠĠcontrols": 7669, "ĠĠZweitens": 7670, "ĠĠcould": 7671, "ĠĠ16": 7672, "ĠĠenter": 7673, "ĠĠOtmar": 7674, "ning": 7675, "ĠĠdangerous": 7676, "ĠĠsepar": 7677, "ĠĠmand": 7678, "ĠĠdisc": 7679, "ĠĠnehm": 7680, "ĠĠes,": 7681, "ĠĠIniti": 7682, "ĠĠhead": 7683, "our": 7684, "ĠĠdiskut": 7685, "nerhalb": 7686, "ĠĠfinancial": 7687, "ĠĠme,": 7688, "zen": 7689, "ĠĠdo": 7690, "ĠĠBei": 7691, "ĠĠFrench": 7692, "ĠĠauthor": 7693, "ĠĠdouble": 7694, "ĠĠw": 7695, "ziplin": 7696, "ĠĠSer": 7697, "ĠĠstated": 7698, "halten,": 7699, "ĠĠBeding": 7700, "ĠĠtarge": 7701, "oren": 7702, "ĠĠVeränder": 7703, "ĠĠ95": 7704, "ĠĠpos": 7705, "ĠĠlimit": 7706, "ĠĠInteressen": 7707, "ĠĠverloren": 7708, "ad": 7709, "ĠĠCommunity": 7710, "ĠĠMöglichkeiten": 7711, "kun": 7712, "ĠĠAngeb": 7713, "igen.": 7714, "ĠĠEC": 7715, "ĠĠAmerican": 7716, "ĠĠBerichts": 7717, "ĠĠlaw,": 7718, "ied": 7719, "ĠĠgleichzeitig": 7720, "ĠĠEinricht": 7721, "ĠĠcut": 7722, "ĠĠCameron": 7723, "o.": 7724, "ary,": 7725, "ĠĠestablished": 7726, "isen": 7727, "up": 7728, "ĠĠstimme": 7729, "ĠĠgesehen": 7730, "ĠĠHew": 7731, "omb": 7732, "ĠĠsituation": 7733, "ĠĠFrauen": 7734, "ĠĠmain": 7735, "ehr": 7736, "ulf": 7737, "entral": 7738, "ough": 7739, "ually": 7740, "folger": 7741, "ĠĠPrior": 7742, "ĠĠPräsident!": 7743, "ĠĠweit": 7744, "ĠĠpropose": 7745, "ĠĠsubject": 7746, "icherheit": 7747, "od": 7748, "ĠĠDi": 7749, "ĠĠzuständ": 7750, "arbeit": 7751, "ĠĠgroups": 7752, "eich": 7753, "leicht": 7754, "ĠĠrecognise": 7755, "ĠĠSachverständiger": 7756, "ĠĠnature": 7757, "ĠĠübr": 7758, "ĠĠappropriate": 7759, "nehmen.": 7760, "or,": 7761, "orts": 7762, "lle": 7763, "ĠĠFreund": 7764, "ĠĠamong": 7765, "frage": 7766, "ĠĠ(B": 7767, "ĠĠCroatian": 7768, "ĠĠresear": 7769, "ay.": 7770, "ream": 7771, "ĠĠHeraus": 7772, "ĠĠregionalen": 7773, "ĠĠwiss": 7774, "ĠĠins": 7775, "ĠĠDr.": 7776, "dach": 7777, "ĠĠantic": 7778, "ĠĠsoc": 7779, "ĠĠbenef": 7780, "ĠĠWhen": 7781, "ĠĠPublic": 7782, "ĠĠfort": 7783, "trolle": 7784, "spl": 7785, "du": 7786, "ĠĠhas": 7787, "ĠĠerfolg": 7788, "ĠĠweiß,": 7789, "amm": 7790, "ĠĠBeamte": 7791, "ĠĠManches": 7792, "ĠĠspeculative": 7793, "ĠĠmuch": 7794, "ĠĠUmwelt": 7795, "ĠĠAgr": 7796, "ĠĠbetonen,": 7797, "hip": 7798, "ĠĠprotect": 7799, "ten,": 7800, "ĠĠagend": 7801, "ĠĠlauf": 7802, "ĠĠübrigen": 7803, "ĠĠimmediately": 7804, "ĠĠcertain": 7805, "fl": 7806, "ĠĠhatte": 7807, "ĠĠtried": 7808, "ĠĠerklärte": 7809, "ĠĠrad": 7810, "ĠĠL": 7811, "ĠĠpoint": 7812, "ĠĠgeht.": 7813, "ĠĠjeden": 7814, "cent": 7815, "ĠĠhat,": 7816, "pr": 7817, "ĠĠinternationale": 7818, "ĠĠwomen": 7819, "ĠĠLand": 7820, "ĠĠBas": 7821, "ĠĠbei": 7822, "I": 7823, "ktionen": 7824, "ĠĠefforts": 7825, "ĠĠGründe": 7826, "ĠĠlegislative": 7827, "ĠĠAid": 7828, "ĠĠBest": 7829, "cement": 7830, "ĠĠBestimmungen": 7831, "ĠĠgehört": 7832, "ĠĠtw": 7833, "ween": 7834, "ity.": 7835, "ĠĠKollegen,": 7836, "ĠĠwürden": 7837, "ĠĠth": 7838, "ĠĠerl": 7839, "ĠĠmöchten": 7840, "ugh": 7841, "5-": 7842, "ued": 7843, "osen": 7844, "ĠĠAnerk": 7845, "ĠĠfest,": 7846, "ĠĠRober": 7847, "ĠĠwirklich": 7848, "samen": 7849, "ison": 7850, "ĠĠist,": 7851, "ĠĠExperten": 7852, "ĠĠgoes": 7853, "ĠĠknow": 7854, "ĠĠZukunft": 7855, "ĠĠGrie": 7856, "ĠĠJustice": 7857, "ĠĠWähr": 7858, "abe": 7859, "stream": 7860, "III": 7861, "indung": 7862, "ĠĠtechnolog": 7863, "ĠĠGrad": 7864, "ĠĠinterpret": 7865, "ation,": 7866, "emp": 7867, "ĠĠerreicht": 7868, "ästinens": 7869, "ĠĠIntergovernmental": 7870, "ĠĠWith": 7871, "end,": 7872, "gt": 7873, "age": 7874, "ĠĠRad": 7875, "lude": 7876, "ĠĠmilit": 7877, "ĠĠDem": 7878, "oms": 7879, "ierten": 7880, "ĠĠenor": 7881, "ĠĠMrs": 7882, "ĠĠVerwaltung": 7883, "ĠĠsagen,": 7884, "ĠĠrequire": 7885, "ĠĠBayern": 7886, "gü": 7887, "hol": 7888, "iche": 7889, "ĠĠdän": 7890, "ĠĠrelation": 7891, "ĠĠpeople,": 7892, "ĠĠcountry": 7893, "ĠĠwant": 7894, "ĠĠwürde": 7895, "ĠĠSchutz": 7896, "ĠĠniemand": 7897, "ĠĠRechtssicherheit": 7898, "bo": 7899, "ĠĠMc": 7900, "ĠĠWähl": 7901, "ĠĠklar": 7902, "ĠĠcompanies": 7903, "rey": 7904, "ĠĠat": 7905, "pport": 7906, "-old": 7907, "ĠĠlate": 7908, "ro": 7909, "ĠĠneue": 7910, "ĠĠzie": 7911, "amp": 7912, "ĠĠLebensmittelbehörde": 7913, "ĠĠseinem": 7914, "ĠĠvertreten": 7915, "ĠĠFolge": 7916, "ĠĠVerz": 7917, "ĠĠneed": 7918, "ĠĠTats": 7919, "zess": 7920, "ĠĠrelev": 7921, "ĠĠcontrol.": 7922, "ĠĠdetermin": 7923, "rew": 7924, "ĠĠdamals": 7925, "U": 7926, "ness": 7927, "utz": 7928, "ĠĠDemokratie": 7929, "ĠĠgewesen": 7930, "ĠĠgesag": 7931, "ical": 7932, "ĠĠverpf": 7933, "ĠĠnon-": 7934, "ĠĠInn": 7935, "utions": 7936, "rect": 7937, "ĠĠsuf": 7938, "istic": 7939, "ich": 7940, "ĠĠhim": 7941, "ĠĠklare": 7942, "ollow": 7943, "ĠĠbereit": 7944, "ĠĠZw": 7945, "ĠĠallowed": 7946, "ĠĠstop": 7947, "ĠĠBalkan": 7948, "ĠĠBürgern": 7949, "5": 7950, "ĠĠmonitor": 7951, "ĠĠprojects": 7952, "ĠĠKolleginnen": 7953, "ĠĠD": 7954, "ĠĠgewes": 7955, "ank": 7956, "ĠĠCarson": 7957, "atory": 7958, "ĠĠBeihil": 7959, "ĠĠsufficient": 7960, "ĠĠfür": 7961, "ĠĠfranzös": 7962, "ĠĠreag": 7963, "ĠĠopp": 7964, "ĠĠi.e.": 7965, "ĠĠwe": 7966, "ĠĠCommissioner": 7967, "ĠĠstandards": 7968, "ĠĠeingeb": 7969, "ĠĠattention": 7970, "fli": 7971, "zunehm": 7972, "ĠĠzehn": 7973, "ĠĠprüfen,": 7974, "ep": 7975, "ĠĠbeit": 7976, "ĠĠign": 7977, "ĠĠdarstell": 7978, "ĠĠwor": 7979, "12": 7980, "losen": 7981, "ermin": 7982, "ĠĠTatsache,": 7983, "verkehr": 7984, "igt,": 7985, "ĠĠvorgeschlagen": 7986, "ĠĠAnfrage": 7987, "ĠĠhingew": 7988, "ĠĠdeep": 7989, "ĠĠbeabsicht": 7990, "äus": 7991, "miss": 7992, "ĠĠauthority.": 7993, "tellt": 7994, "ĠĠerklärt": 7995, "ĠĠsug": 7996, "ĠĠconclud": 7997, "ĠĠOct": 7998, "orge": 7999, "[PAD]": 8000, "[UNK]": 8001, "[BOS]": 8002, "[EOS]": 8003}